{
  "version": "1.0",
  "truncation": null,
  "padding": null,
  "added_tokens": [
    {
      "id": 0,
      "content": "[BOS]",
      "single_word": false,
      "lstrip": false,
      "rstrip": false,
      "normalized": false,
      "special": true
    },
    {
      "id": 1,
      "content": "[EOS]",
      "single_word": false,
      "lstrip": false,
      "rstrip": false,
      "normalized": false,
      "special": true
    },
    {
      "id": 2,
      "content": "[UNK]",
      "single_word": false,
      "lstrip": false,
      "rstrip": false,
      "normalized": false,
      "special": true
    },
    {
      "id": 3,
      "content": "[PAD]",
      "single_word": false,
      "lstrip": false,
      "rstrip": false,
      "normalized": false,
      "special": true
    },
    {
      "id": 4,
      "content": "[SEP]",
      "single_word": false,
      "lstrip": false,
      "rstrip": false,
      "normalized": false,
      "special": true
    },
    {
      "id": 5,
      "content": "[CLS]",
      "single_word": false,
      "lstrip": false,
      "rstrip": false,
      "normalized": false,
      "special": true
    }
  ],
  "normalizer": null,
  "pre_tokenizer": {
    "type": "Whitespace"
  },
  "post_processor": null,
  "decoder": null,
  "model": {
    "type": "BPE",
    "dropout": null,
    "unk_token": null,
    "continuing_subword_prefix": null,
    "end_of_word_suffix": null,
    "fuse_unk": false,
    "byte_fallback": false,
    "ignore_merges": false,
    "vocab": {
      "[BOS]": 0,
      "[EOS]": 1,
      "[UNK]": 2,
      "[PAD]": 3,
      "[SEP]": 4,
      "[CLS]": 5,
      "!": 6,
      "\"": 7,
      "#": 8,
      "$": 9,
      "%": 10,
      "&": 11,
      "'": 12,
      "(": 13,
      ")": 14,
      "*": 15,
      "+": 16,
      ",": 17,
      "-": 18,
      ".": 19,
      "/": 20,
      "0": 21,
      "1": 22,
      "2": 23,
      "3": 24,
      "4": 25,
      "5": 26,
      "6": 27,
      "7": 28,
      "8": 29,
      "9": 30,
      ":": 31,
      ";": 32,
      "<": 33,
      "=": 34,
      ">": 35,
      "?": 36,
      "@": 37,
      "A": 38,
      "B": 39,
      "C": 40,
      "D": 41,
      "E": 42,
      "F": 43,
      "G": 44,
      "H": 45,
      "I": 46,
      "J": 47,
      "K": 48,
      "L": 49,
      "M": 50,
      "N": 51,
      "O": 52,
      "P": 53,
      "Q": 54,
      "R": 55,
      "S": 56,
      "T": 57,
      "U": 58,
      "V": 59,
      "W": 60,
      "X": 61,
      "Y": 62,
      "Z": 63,
      "[": 64,
      "\\": 65,
      "]": 66,
      "^": 67,
      "_": 68,
      "`": 69,
      "a": 70,
      "b": 71,
      "c": 72,
      "d": 73,
      "e": 74,
      "f": 75,
      "g": 76,
      "h": 77,
      "i": 78,
      "j": 79,
      "k": 80,
      "l": 81,
      "m": 82,
      "n": 83,
      "o": 84,
      "p": 85,
      "q": 86,
      "r": 87,
      "s": 88,
      "t": 89,
      "u": 90,
      "v": 91,
      "w": 92,
      "x": 93,
      "y": 94,
      "z": 95,
      "{": 96,
      "|": 97,
      "}": 98,
      "~": 99,
      "¡": 100,
      "¢": 101,
      "£": 102,
      "¦": 103,
      "¨": 104,
      "©": 105,
      "ª": 106,
      "«": 107,
      "¬": 108,
      "®": 109,
      "°": 110,
      "±": 111,
      "²": 112,
      "³": 113,
      "´": 114,
      "µ": 115,
      "¶": 116,
      "·": 117,
      "¸": 118,
      "¹": 119,
      "º": 120,
      "»": 121,
      "¼": 122,
      "½": 123,
      "¾": 124,
      "¿": 125,
      "À": 126,
      "Á": 127,
      "Â": 128,
      "Ã": 129,
      "Ä": 130,
      "Å": 131,
      "Æ": 132,
      "Ç": 133,
      "È": 134,
      "É": 135,
      "Ê": 136,
      "Ë": 137,
      "Ì": 138,
      "Í": 139,
      "Î": 140,
      "Ï": 141,
      "Ð": 142,
      "Ñ": 143,
      "Ò": 144,
      "Ó": 145,
      "Ô": 146,
      "Õ": 147,
      "Ö": 148,
      "×": 149,
      "Ø": 150,
      "Ù": 151,
      "Ú": 152,
      "Û": 153,
      "Ü": 154,
      "Ý": 155,
      "Þ": 156,
      "ß": 157,
      "à": 158,
      "á": 159,
      "â": 160,
      "ã": 161,
      "ä": 162,
      "å": 163,
      "æ": 164,
      "ç": 165,
      "è": 166,
      "é": 167,
      "ê": 168,
      "ë": 169,
      "ì": 170,
      "í": 171,
      "î": 172,
      "ï": 173,
      "ð": 174,
      "ñ": 175,
      "ò": 176,
      "ó": 177,
      "ô": 178,
      "õ": 179,
      "ö": 180,
      "ø": 181,
      "ù": 182,
      "ú": 183,
      "û": 184,
      "ü": 185,
      "ý": 186,
      "þ": 187,
      "ÿ": 188,
      "Ă": 189,
      "ă": 190,
      "č": 191,
      "Ō": 192,
      "ō": 193,
      "ő": 194,
      "œ": 195,
      "Ř": 196,
      "Ş": 197,
      "ş": 198,
      "š": 199,
      "Ţ": 200,
      "ţ": 201,
      "˚": 202,
      "˜": 203,
      "Μ": 204,
      "ά": 205,
      "α": 206,
      "β": 207,
      "η": 208,
      "θ": 209,
      "μ": 210,
      "π": 211,
      "ρ": 212,
      "ς": 213,
      "τ": 214,
      "М": 215,
      "а": 216,
      "в": 217,
      "е": 218,
      "з": 219,
      "и": 220,
      "к": 221,
      "л": 222,
      "н": 223,
      "р": 224,
      "т": 225,
      "у": 226,
      "ц": 227,
      "ч": 228,
      "ш": 229,
      "ا": 230,
      "ب": 231,
      "د": 232,
      "ر": 233,
      "ع": 234,
      "م": 235,
      "ن": 236,
      "ه": 237,
      "و": 238,
      "ُ": 239,
      "ی": 240,
      "۞": 241,
      "۩": 242,
      "ँ": 243,
      "ं": 244,
      "ः": 245,
      "अ": 246,
      "आ": 247,
      "इ": 248,
      "ई": 249,
      "उ": 250,
      "ऊ": 251,
      "ऋ": 252,
      "ए": 253,
      "ऐ": 254,
      "ऒ": 255,
      "ओ": 256,
      "औ": 257,
      "क": 258,
      "ख": 259,
      "ग": 260,
      "घ": 261,
      "ङ": 262,
      "च": 263,
      "छ": 264,
      "ज": 265,
      "झ": 266,
      "ञ": 267,
      "ट": 268,
      "ठ": 269,
      "ड": 270,
      "ढ": 271,
      "ण": 272,
      "त": 273,
      "थ": 274,
      "द": 275,
      "ध": 276,
      "न": 277,
      "प": 278,
      "फ": 279,
      "ब": 280,
      "भ": 281,
      "म": 282,
      "य": 283,
      "र": 284,
      "ऱ": 285,
      "ल": 286,
      "ळ": 287,
      "व": 288,
      "श": 289,
      "ष": 290,
      "स": 291,
      "ह": 292,
      "़": 293,
      "ा": 294,
      "ि": 295,
      "ी": 296,
      "ु": 297,
      "ू": 298,
      "ृ": 299,
      "े": 300,
      "ै": 301,
      "ॉ": 302,
      "ॊ": 303,
      "ो": 304,
      "ौ": 305,
      "्": 306,
      "॒": 307,
      "॔": 308,
      "ड़": 309,
      "ॠ": 310,
      "।": 311,
      "०": 312,
      "१": 313,
      "२": 314,
      "३": 315,
      "४": 316,
      "५": 317,
      "६": 318,
      "७": 319,
      "८": 320,
      "९": 321,
      "॰": 322,
      "​": 323,
      "‌": 324,
      "‍": 325,
      "‎": 326,
      "‐": 327,
      "–": 328,
      "—": 329,
      "―": 330,
      "‘": 331,
      "’": 332,
      "‚": 333,
      "“": 334,
      "”": 335,
      "•": 336,
      "…": 337,
      "‪": 338,
      "‬": 339,
      "‰": 340,
      "‹": 341,
      "›": 342,
      "‽": 343,
      "⁄": 344,
      "₪": 345,
      "₫": 346,
      "€": 347,
      "™": 348,
      "→": 349,
      "∙": 350,
      "√": 351,
      "∞": 352,
      "∶": 353,
      "≈": 354,
      "≠": 355,
      "■": 356,
      "□": 357,
      "▲": 358,
      "▽": 359,
      "●": 360,
      "☺": 361,
      "♣": 362,
      "♥": 363,
      "♦": 364,
      "♫": 365,
      "⚡": 366,
      "✄": 367,
      "✨": 368,
      "❁": 369,
      "「": 370,
      "」": 371,
      "い": 372,
      "う": 373,
      "お": 374,
      "さ": 375,
      "じ": 376,
      "た": 377,
      "ち": 378,
      "っ": 379,
      "な": 380,
      "に": 381,
      "の": 382,
      "め": 383,
      "ゃ": 384,
      "ょ": 385,
      "よ": 386,
      "れ": 387,
      "を": 388,
      "ん": 389,
      "ア": 390,
      "オ": 391,
      "キ": 392,
      "ネ": 393,
      "ノ": 394,
      "ラ": 395,
      "一": 396,
      "三": 397,
      "不": 398,
      "世": 399,
      "京": 400,
      "人": 401,
      "住": 402,
      "便": 403,
      "公": 404,
      "力": 405,
      "営": 406,
      "地": 407,
      "坊": 408,
      "型": 409,
      "大": 410,
      "宅": 411,
      "害": 412,
      "弾": 413,
      "戦": 414,
      "所": 415,
      "新": 416,
      "族": 417,
      "暴": 418,
      "材": 419,
      "東": 420,
      "次": 421,
      "汚": 422,
      "浄": 423,
      "溜": 424,
      "災": 425,
      "爆": 426,
      "界": 427,
      "禾": 428,
      "秒": 429,
      "第": 430,
      "者": 431,
      "肥": 432,
      "能": 433,
      "走": 434,
      "超": 435,
      "逸": 436,
      "離": 437,
      "": 438,
      "": 439,
      "": 440,
      "": 441,
      "": 442,
      "": 443,
      "": 444,
      "": 445,
      "": 446,
      "": 447,
      "": 448,
      "": 449,
      "": 450,
      "": 451,
      "": 452,
      "": 453,
      "": 454,
      "": 455,
      "": 456,
      "": 457,
      "": 458,
      "": 459,
      "": 460,
      "": 461,
      "": 462,
      "": 463,
      "": 464,
      "": 465,
      "": 466,
      "": 467,
      "": 468,
      "": 469,
      "": 470,
      "": 471,
      "": 472,
      "": 473,
      "": 474,
      "": 475,
      "": 476,
      "": 477,
      "": 478,
      "": 479,
      "": 480,
      "": 481,
      "": 482,
      "": 483,
      "": 484,
      "": 485,
      "": 486,
      "": 487,
      "": 488,
      "": 489,
      "": 490,
      "": 491,
      "": 492,
      "": 493,
      "": 494,
      "": 495,
      "": 496,
      "": 497,
      "": 498,
      "": 499,
      "": 500,
      "": 501,
      "": 502,
      "": 503,
      "": 504,
      "": 505,
      "": 506,
      "": 507,
      "": 508,
      "": 509,
      "": 510,
      "": 511,
      "": 512,
      "": 513,
      "": 514,
      "": 515,
      "": 516,
      "": 517,
      "": 518,
      "": 519,
      "": 520,
      "": 521,
      "": 522,
      "": 523,
      "": 524,
      "": 525,
      "": 526,
      "": 527,
      "": 528,
      "": 529,
      "": 530,
      "": 531,
      "": 532,
      "": 533,
      "": 534,
      "": 535,
      "": 536,
      "": 537,
      "": 538,
      "": 539,
      "": 540,
      "": 541,
      "": 542,
      "": 543,
      "": 544,
      "": 545,
      "": 546,
      "": 547,
      "": 548,
      "": 549,
      "": 550,
      "": 551,
      "": 552,
      "": 553,
      "": 554,
      "": 555,
      "": 556,
      "": 557,
      "": 558,
      "": 559,
      "": 560,
      "": 561,
      "": 562,
      "": 563,
      "": 564,
      "": 565,
      "": 566,
      "": 567,
      "": 568,
      "": 569,
      "": 570,
      "": 571,
      "": 572,
      "": 573,
      "": 574,
      "": 575,
      "": 576,
      "": 577,
      "": 578,
      "": 579,
      "": 580,
      "": 581,
      "": 582,
      "": 583,
      "": 584,
      "": 585,
      "": 586,
      "": 587,
      "": 588,
      "": 589,
      "": 590,
      "": 591,
      "": 592,
      "": 593,
      "": 594,
      "": 595,
      "": 596,
      "": 597,
      "": 598,
      "": 599,
      "": 600,
      "": 601,
      "": 602,
      "": 603,
      "": 604,
      "": 605,
      "": 606,
      "": 607,
      "": 608,
      "": 609,
      "": 610,
      "": 611,
      "️": 612,
      "﻿": 613,
      "！": 614,
      "ﾉ": 615,
      "�": 616,
      "🇯": 617,
      "🇵": 618,
      "🌍": 619,
      "🎂": 620,
      "🎥": 621,
      "🏻": 622,
      "🐘": 623,
      "🐦": 624,
      "👏": 625,
      "💦": 626,
      "🗣": 627,
      "😃": 628,
      "😍": 629,
      "🙂": 630,
      "🙏": 631,
      "🤔": 632,
      "🤳": 633,
      "🥳": 634,
      "th": 635,
      "the": 636,
      "र्": 637,
      "in": 638,
      "an": 639,
      "को": 640,
      "on": 641,
      "er": 642,
      "्र": 643,
      "मा": 644,
      "or": 645,
      "का": 646,
      "en": 647,
      "ti": 648,
      "re": 649,
      "्य": 650,
      "of": 651,
      "al": 652,
      "ने": 653,
      "ed": 654,
      "न्": 655,
      "स्": 656,
      "to": 657,
      "is": 658,
      "ले": 659,
      "es": 660,
      "and": 661,
      "ला": 662,
      "नि": 663,
      "हर": 664,
      "ति": 665,
      "ou": 666,
      "प्र": 667,
      "tion": 668,
      "गर्": 669,
      "ing": 670,
      "at": 671,
      "नु": 672,
      "क्": 673,
      "ar": 674,
      "as": 675,
      "हरू": 676,
      "वा": 677,
      "..": 678,
      "it": 679,
      "ic": 680,
      "le": 681,
      "ent": 682,
      "ro": 683,
      "वि": 684,
      "ना": 685,
      "be": 686,
      "गर": 687,
      "यो": 688,
      "ार": 689,
      "se": 690,
      "सम": 691,
      "il": 692,
      "पा": 693,
      "लाई": 694,
      "for": 695,
      "he": 696,
      "ता": 697,
      "रा": 698,
      "ation": 699,
      "all": 700,
      "ve": 701,
      "हु": 702,
      "था": 703,
      "ित": 704,
      "st": 705,
      "ct": 706,
      "me": 707,
      "de": 708,
      "ch": 709,
      "su": 710,
      "ment": 711,
      "नेछ": 712,
      "दा": 713,
      "sh": 714,
      "त्र": 715,
      "बा": 716,
      "एको": 717,
      "नी": 718,
      "क्ष": 719,
      "हो": 720,
      "पर": 721,
      "co": 722,
      "दि": 723,
      "्या": 724,
      "ma": 725,
      "हा": 726,
      "lo": 727,
      "pro": 728,
      "सम्": 729,
      "ce": 730,
      "सा": 731,
      "या": 732,
      "कार": 733,
      "दे": 734,
      "त्य": 735,
      "con": 736,
      "per": 737,
      "ur": 738,
      "....": 739,
      "ra": 740,
      "िक": 741,
      "no": 742,
      "ri": 743,
      "स्त": 744,
      "shall": 745,
      "गर्न": 746,
      "un": 747,
      "कु": 748,
      "ter": 749,
      "wh": 750,
      "पर्": 751,
      "गर्नु": 752,
      "you": 753,
      "जा": 754,
      "स्था": 755,
      "सं": 756,
      "ver": 757,
      "id": 758,
      "होस्": 759,
      "जि": 760,
      "mp": 761,
      "The": 762,
      "ith": 763,
      "ol": 764,
      "te": 765,
      "ill": 766,
      "ction": 767,
      "by": 768,
      "with": 769,
      "लाग": 770,
      "मो": 771,
      "ta": 772,
      "ल्": 773,
      "व्य": 774,
      "त्": 775,
      "कि": 776,
      "ad": 777,
      "कार्": 778,
      "ge": 779,
      "चा": 780,
      "res": 781,
      "के": 782,
      "धि": 783,
      "लि": 784,
      "गरि": 785,
      "ir": 786,
      "ate": 787,
      "बाट": 788,
      "द्": 789,
      "हरु": 790,
      "्ट": 791,
      "मी": 792,
      "pe": 793,
      "उप": 794,
      "ac": 795,
      "यस": 796,
      "ha": 797,
      "ाउ": 798,
      "od": 799,
      "ay": 800,
      "मे": 801,
      "ul": 802,
      "थि": 803,
      "म्": 804,
      "नै": 805,
      "ab": 806,
      "si": 807,
      "गर्ने": 808,
      "mm": 809,
      "सु": 810,
      "that": 811,
      "ow": 812,
      "pl": 813,
      "ist": 814,
      "हे": 815,
      "फा": 816,
      "ex": 817,
      "oun": 818,
      "ther": 819,
      "जिम": 820,
      "लागि": 821,
      "मोजिम": 822,
      "बमोजिम": 823,
      "न्छ": 824,
      "not": 825,
      "गरे": 826,
      "न्ध": 827,
      "der": 828,
      "अनु": 829,
      "us": 830,
      "are": 831,
      "will": 832,
      "ant": 833,
      "योग": 834,
      "ke": 835,
      "तथा": 836,
      "gh": 837,
      "रण": 838,
      "if": 839,
      "कार्य": 840,
      "im": 841,
      "ess": 842,
      "ity": 843,
      "any": 844,
      "से": 845,
      "देश": 846,
      "ap": 847,
      "ne": 848,
      "गर्नुहोस्": 849,
      "po": 850,
      "जना": 851,
      "मानि": 852,
      "निर्": 853,
      "ष्ट": 854,
      "प्": 855,
      "भा": 856,
      "बन्ध": 857,
      "खा": 858,
      "हि": 859,
      "री": 860,
      "ep": 861,
      "rom": 862,
      "भएको": 863,
      "ut": 864,
      "ैन": 865,
      "रु": 866,
      "ती": 867,
      "ly": 868,
      "सि": 869,
      "भए": 870,
      "ub": 871,
      "परि": 872,
      "पू": 873,
      "this": 874,
      "निय": 875,
      "भन्": 876,
      "मानिस": 877,
      "qu": 878,
      "am": 879,
      "from": 880,
      "क्र": 881,
      "रो": 882,
      "his": 883,
      "श्": 884,
      "we": 885,
      "मि": 886,
      "ञ्": 887,
      "सम्बन्ध": 888,
      "son": 889,
      "ङ्": 890,
      "fic": 891,
      "टा": 892,
      "नीहरू": 893,
      "सक्": 894,
      "वर्": 895,
      "प्रा": 896,
      "कुनै": 897,
      "पु": 898,
      "गा": 899,
      "li": 900,
      "बै": 901,
      "du": 902,
      "ही": 903,
      "प्रति": 904,
      "पाल": 905,
      "अनि": 906,
      "........": 907,
      "di": 908,
      "तिमी": 909,
      "ci": 910,
      "ru": 911,
      "तर": 912,
      "so": 913,
      "has": 914,
      "क्ति": 915,
      "ere": 916,
      "पाई": 917,
      "पनि": 918,
      "ag": 919,
      "न्य": 920,
      "In": 921,
      "गरी": 922,
      "sa": 923,
      "नको": 924,
      "तपाई": 925,
      "सो": 926,
      "our": 927,
      "पत्र": 928,
      "fi": 929,
      "out": 930,
      "्न": 931,
      "रू": 932,
      "ort": 933,
      "धार": 934,
      "तिनीहरू": 935,
      "रि": 936,
      "Se": 937,
      "आफ": 938,
      "कर्": 939,
      "ली": 940,
      "मु": 941,
      "over": 942,
      "mb": 943,
      "have": 944,
      "one": 945,
      "सर": 946,
      "ard": 947,
      "ser": 948,
      "सू": 949,
      "खि": 950,
      "est": 951,
      "au": 952,
      "नेपाल": 953,
      "लो": 954,
      "wor": 955,
      "end": 956,
      "वे": 957,
      "ah": 958,
      "such": 959,
      "who": 960,
      "mo": 961,
      "pur": 962,
      "red": 963,
      "हुन्छ": 964,
      "ye": 965,
      "ld": 966,
      "व्यव": 967,
      "हाँ": 968,
      "person": 969,
      "may": 970,
      "op": 971,
      "form": 972,
      "do": 973,
      "ion": 974,
      "भु": 975,
      "मानिसहरू": 976,
      "ers": 977,
      "रहे": 978,
      "Nep": 979,
      "ारी": 980,
      "comm": 981,
      "Nepal": 982,
      "योजना": 983,
      "भने": 984,
      "त्यस": 985,
      "दफा": 986,
      "पूर्": 987,
      "र्थ": 988,
      "हुनेछ": 989,
      "एक": 990,
      "et": 991,
      "प्रयोग": 992,
      "कारी": 993,
      "ans": 994,
      "ven": 995,
      "प्त": 996,
      "्रा": 997,
      "शा": 998,
      "your": 999,
      "ame": 1000,
      "यन": 1001,
      "ll": 1002,
      "ary": 1003,
      "नुहोस्": 1004,
      "other": 1005,
      "क्षे": 1006,
      "जी": 1007,
      "ount": 1008,
      "चाल": 1009,
      "न्त": 1010,
      "ure": 1011,
      "दन": 1012,
      "सूच": 1013,
      "माण": 1014,
      "कास": 1015,
      "ance": 1016,
      "ry": 1017,
      "नियम": 1018,
      "ated": 1019,
      "able": 1020,
      "सञ्": 1021,
      "vi": 1022,
      "pres": 1023,
      "अव": 1024,
      "क्षेत्र": 1025,
      "ध्य": 1026,
      "स्तो": 1027,
      "up": 1028,
      "king": 1029,
      "व्यक्ति": 1030,
      "काम": 1031,
      "न्द": 1032,
      "ase": 1033,
      "डा": 1034,
      "Sub": 1035,
      "ric": 1036,
      "sion": 1037,
      "कृ": 1038,
      "art": 1039,
      "tain": 1040,
      "्रो": 1041,
      "comp": 1042,
      "भयो": 1043,
      "ght": 1044,
      "gn": 1045,
      "man": 1046,
      "प्रभु": 1047,
      "tit": 1048,
      "श्व": 1049,
      "श्य": 1050,
      "lic": 1051,
      "him": 1052,
      "क्रम": 1053,
      "मान": 1054,
      "ties": 1055,
      "was": 1056,
      "fa": 1057,
      "छैन": 1058,
      "अधि": 1059,
      "गरिएको": 1060,
      "fer": 1061,
      "int": 1062,
      "age": 1063,
      "तपाईँ": 1064,
      "ect": 1065,
      "cre": 1066,
      "गत": 1067,
      "लय": 1068,
      "विकास": 1069,
      "ich": 1070,
      "िति": 1071,
      "परम": 1072,
      "pursu": 1073,
      "velo": 1074,
      "अन्य": 1075,
      "तो": 1076,
      "तिमीहरू": 1077,
      "परमप्रभु": 1078,
      "rib": 1079,
      "ord": 1080,
      "vic": 1081,
      "छन्": 1082,
      "समिति": 1083,
      "fore": 1084,
      "overn": 1085,
      "velop": 1086,
      "Co": 1087,
      "आव": 1088,
      "हुने": 1089,
      "pursuant": 1090,
      "which": 1091,
      "स्व": 1092,
      "el": 1093,
      "पमा": 1094,
      "low": 1095,
      "छि": 1096,
      "कुरा": 1097,
      "gra": 1098,
      "ish": 1099,
      "भि": 1100,
      "ँग": 1101,
      "min": 1102,
      "गरेको": 1103,
      "port": 1104,
      "संस्था": 1105,
      "व्यवस्था": 1106,
      "Th": 1107,
      "धा": 1108,
      "them": 1109,
      "em": 1110,
      "Act": 1111,
      "२०": 1112,
      "श्यक": 1113,
      "इल": 1114,
      "tra": 1115,
      "overnment": 1116,
      "सबै": 1117,
      "sub": 1118,
      "दै": 1119,
      "ud": 1120,
      "जन": 1121,
      "सेवा": 1122,
      "ऐन": 1123,
      "under": 1124,
      "बढ": 1125,
      "आवश्यक": 1126,
      "cer": 1127,
      "la": 1128,
      "बि": 1129,
      "सम्म": 1130,
      "प्राप्त": 1131,
      "पर्नेछ": 1132,
      "ous": 1133,
      "val": 1134,
      "सँग": 1135,
      "tive": 1136,
      "ctor": 1137,
      "ूल": 1138,
      "पर्ने": 1139,
      "फाइल": 1140,
      "spe": 1141,
      "रे": 1142,
      "fol": 1143,
      "mber": 1144,
      "pre": 1145,
      "दिन": 1146,
      "cess": 1147,
      "ould": 1148,
      "करण": 1149,
      "उत्": 1150,
      "स्ता": 1151,
      "थिए": 1152,
      "lect": 1153,
      "00": 1154,
      "there": 1155,
      "न्त्र": 1156,
      "vid": 1157,
      "नाम": 1158,
      "dis": 1159,
      "उन": 1160,
      "पछि": 1161,
      "न्न": 1162,
      "्री": 1163,
      "Yah": 1164,
      "स्तु": 1165,
      "To": 1166,
      "gi": 1167,
      "समा": 1168,
      "श्वर": 1169,
      "go": 1170,
      "जु": 1171,
      "परमे": 1172,
      "weh": 1173,
      "Yahweh": 1174,
      "स्थ": 1175,
      "ब्": 1176,
      "वर्ष": 1177,
      "rou": 1178,
      "च्": 1179,
      "परमेश्वर": 1180,
      "ित्र": 1181,
      "ved": 1182,
      "velopment": 1183,
      "दु": 1184,
      "been": 1185,
      "शि": 1186,
      "ject": 1187,
      "क्त": 1188,
      "टि": 1189,
      "डि": 1190,
      "देखि": 1191,
      "her": 1192,
      "सार": 1193,
      "एका": 1194,
      "ज्": 1195,
      "reg": 1196,
      "its": 1197,
      "एउ": 1198,
      "iz": 1199,
      "my": 1200,
      "they": 1201,
      "बना": 1202,
      "ob": 1203,
      "पर्छ": 1204,
      "If": 1205,
      "ution": 1206,
      "cl": 1207,
      "ted": 1208,
      "imp": 1209,
      "ty": 1210,
      "दछ": 1211,
      "गर्दा": 1212,
      "कम": 1213,
      "cur": 1214,
      "द्य": 1215,
      "रहेको": 1216,
      "fin": 1217,
      "ैले": 1218,
      "त्यस्तो": 1219,
      "बो": 1220,
      "सम्बन्धी": 1221,
      "दर्": 1222,
      "सरकार": 1223,
      "्नो": 1224,
      "made": 1225,
      "आफ्नो": 1226,
      "ण्": 1227,
      "year": 1228,
      "work": 1229,
      "कार्या": 1230,
      "ेर": 1231,
      "लग": 1232,
      "हरुको": 1233,
      "own": 1234,
      "दैन": 1235,
      "itte": 1236,
      "their": 1237,
      "राख": 1238,
      "tic": 1239,
      "ren": 1240,
      "ेश": 1241,
      "एउटा": 1242,
      "hi": 1243,
      "ving": 1244,
      "pri": 1245,
      "ating": 1246,
      "सञ्चाल": 1247,
      "याँ": 1248,
      "ication": 1249,
      "Comm": 1250,
      "चि": 1251,
      "हुन": 1252,
      "नमा": 1253,
      "सी": 1254,
      "उने": 1255,
      "धिक": 1256,
      "हरूको": 1257,
      "cu": 1258,
      "उँ": 1259,
      "नो": 1260,
      "De": 1261,
      "ves": 1262,
      "बु": 1263,
      "भन्दा": 1264,
      "ence": 1265,
      "af": 1266,
      "ौं": 1267,
      "),": 1268,
      "छो": 1269,
      "vice": 1270,
      "यी": 1271,
      "नुहुन्छ": 1272,
      "bo": 1273,
      "acc": 1274,
      "set": 1275,
      "land": 1276,
      "cial": 1277,
      "ast": 1278,
      "थियो": 1279,
      "काय": 1280,
      "ound": 1281,
      "fe": 1282,
      "सम्बन्धित": 1283,
      "ण्ड": 1284,
      "यु": 1285,
      "day": 1286,
      "पि": 1287,
      "ittee": 1288,
      "ip": 1289,
      "men": 1290,
      "उपदफा": 1291,
      "की": 1292,
      "ass": 1293,
      "Re": 1294,
      "ँच": 1295,
      "emp": 1296,
      "हाय": 1297,
      "stit": 1298,
      "ain": 1299,
      "Government": 1300,
      "सद": 1301,
      "Pro": 1302,
      "ign": 1303,
      "चार": 1304,
      "भाग": 1305,
      "offic": 1306,
      "बे": 1307,
      "ision": 1308,
      "tr": 1309,
      "section": 1310,
      "ned": 1311,
      "द्ध": 1312,
      "ck": 1313,
      "ङ्क": 1314,
      "ong": 1315,
      "सक्नेछ": 1316,
      "क्षा": 1317,
      "cent": 1318,
      "ause": 1319,
      "No": 1320,
      "क्षण": 1321,
      "follow": 1322,
      "time": 1323,
      "कार्यक्रम": 1324,
      "ore": 1325,
      "ef": 1326,
      "ble": 1327,
      "ail": 1328,
      "ाउन": 1329,
      "त्यो": 1330,
      "can": 1331,
      "सकि": 1332,
      "ind": 1333,
      "सके": 1334,
      "19": 1335,
      "भू": 1336,
      "cal": 1337,
      "छु": 1338,
      "निक": 1339,
      "said": 1340,
      "par": 1341,
      "स्य": 1342,
      "भित्र": 1343,
      "...": 1344,
      "ष्": 1345,
      "ach": 1346,
      "Section": 1347,
      "edu": 1348,
      "सह": 1349,
      "crib": 1350,
      "old": 1351,
      "ild": 1352,
      "तोकि": 1353,
      "जो": 1354,
      "लको": 1355,
      "खो": 1356,
      "।”": 1357,
      "टर": 1358,
      "दिनु": 1359,
      "pos": 1360,
      "उस": 1361,
      "ine": 1362,
      "पादन": 1363,
      "देख": 1364,
      "20": 1365,
      "ज्ञ": 1366,
      "but": 1367,
      "द्वा": 1368,
      "ts": 1369,
      "ग्": 1370,
      "मात्र": 1371,
      "pr": 1372,
      "शे": 1373,
      "दी": 1374,
      "He": 1375,
      "समय": 1376,
      "मूल": 1377,
      "file": 1378,
      "निम्": 1379,
      "हामी": 1380,
      "qui": 1381,
      "अन्त": 1382,
      "वस्तु": 1383,
      "ater": 1384,
      "cribed": 1385,
      "गरिनेछ": 1386,
      "लेख": 1387,
      "ित्": 1388,
      "हरूलाई": 1389,
      "कारण": 1390,
      "ल्ला": 1391,
      "ेको": 1392,
      "ew": 1393,
      "सदस्य": 1394,
      "also": 1395,
      "सर्": 1396,
      "ings": 1397,
      "rel": 1398,
      "name": 1399,
      "मुख": 1400,
      "ten": 1401,
      "ल्या": 1402,
      "order": 1403,
      "ments": 1404,
      "progra": 1405,
      "ङ्ग": 1406,
      "इन": 1407,
      "बमोजिमको": 1408,
      "हरूले": 1409,
      "सम्झ": 1410,
      "into": 1411,
      "For": 1412,
      "ces": 1413,
      "ies": 1414,
      "प्रमाण": 1415,
      "चयन": 1416,
      "stru": 1417,
      "make": 1418,
      "फि": 1419,
      "wo": 1420,
      "ree": 1421,
      "बी": 1422,
      "................": 1423,
      "राज": 1424,
      "ेक": 1425,
      "राष्ट": 1426,
      "केही": 1427,
      "डी": 1428,
      "रकम": 1429,
      "लगा": 1430,
      "peri": 1431,
      "prescribed": 1432,
      "This": 1433,
      "nu": 1434,
      "द्वारा": 1435,
      "अधिकार": 1436,
      "ok": 1437,
      "उहाँ": 1438,
      "वरण": 1439,
      "कर्म": 1440,
      "development": 1441,
      "सूचना": 1442,
      "रह": 1443,
      "ठा": 1444,
      "appl": 1445,
      "सञ्चालन": 1446,
      "मति": 1447,
      "सूची": 1448,
      "Wh": 1449,
      "come": 1450,
      "ेत": 1451,
      "यदि": 1452,
      "ाउँ": 1453,
      "pub": 1454,
      "emplo": 1455,
      "शु": 1456,
      "were": 1457,
      "तपाईं": 1458,
      "पुन": 1459,
      "ट्ट": 1460,
      "Con": 1461,
      "्रि": 1462,
      "inter": 1463,
      "concer": 1464,
      "हुँ": 1465,
      "गु": 1466,
      "पार्": 1467,
      "ange": 1468,
      "lish": 1469,
      "निर्माण": 1470,
      "fun": 1471,
      "रको": 1472,
      "माथि": 1473,
      "णा": 1474,
      "um": 1475,
      "चारी": 1476,
      "निज": 1477,
      "way": 1478,
      "ace": 1479,
      "वेदन": 1480,
      "ities": 1481,
      "अन्तर्": 1482,
      "धन": 1483,
      "फो": 1484,
      "ational": 1485,
      "col": 1486,
      "God": 1487,
      "वी": 1488,
      "ations": 1489,
      "ank": 1490,
      "oper": 1491,
      "ise": 1492,
      "कर्मचारी": 1493,
      "ताको": 1494,
      "ाउने": 1495,
      "ffic": 1496,
      "cause": 1497,
      "कको": 1498,
      "मेरो": 1499,
      "रूपमा": 1500,
      "विष": 1501,
      "म्रो": 1502,
      "पार": 1503,
      "mit": 1504,
      "अध्य": 1505,
      "पहि": 1506,
      "ack": 1507,
      "--": 1508,
      "ult": 1509,
      "now": 1510,
      "ang": 1511,
      "dition": 1512,
      "तिनीहरूले": 1513,
      "रमा": 1514,
      "छा": 1515,
      "निर्धार": 1516,
      "प्रत्य": 1517,
      "कस": 1518,
      "पना": 1519,
      "शन": 1520,
      "produ": 1521,
      "निकाय": 1522,
      "exp": 1523,
      "दान": 1524,
      "period": 1525,
      "ph": 1526,
      "कै": 1527,
      "मार्": 1528,
      "……": 1529,
      "Bo": 1530,
      "necess": 1531,
      "जे": 1532,
      "टो": 1533,
      "ढा": 1534,
      "ज्ञा": 1535,
      "ile": 1536,
      "क्षम": 1537,
      "अनुमति": 1538,
      "ission": 1539,
      "ally": 1540,
      "service": 1541,
      "क्रि": 1542,
      "again": 1543,
      "नीय": 1544,
      "ense": 1545,
      "ose": 1546,
      "चल": 1547,
      "ener": 1548,
      "साथ": 1549,
      "बढी": 1550,
      "बार": 1551,
      "उपल": 1552,
      "sp": 1553,
      ".\"": 1554,
      "द्धि": 1555,
      "श्र": 1556,
      "Un": 1557,
      "ोग": 1558,
      "after": 1559,
      "कम्": 1560,
      "ority": 1561,
      "case": 1562,
      "स्वी": 1563,
      "stitution": 1564,
      "ख्या": 1565,
      "अर्": 1566,
      "भएमा": 1567,
      "अवधि": 1568,
      "फे": 1569,
      "दर": 1570,
      "You": 1571,
      "ms": 1572,
      "मिति": 1573,
      "ue": 1574,
      "ied": 1575,
      "cont": 1576,
      "पूर्ण": 1577,
      "main": 1578,
      "नाले": 1579,
      "आधार": 1580,
      "हुनु": 1581,
      "दो": 1582,
      "rece": 1583,
      "say": 1584,
      "कार्यालय": 1585,
      "टी": 1586,
      "कमा": 1587,
      "amount": 1588,
      "तपाईँले": 1589,
      "des": 1590,
      "following": 1591,
      "गर्नेछ": 1592,
      "मलाई": 1593,
      "उनु": 1594,
      "Pl": 1595,
      "sel": 1596,
      "त्रु": 1597,
      "००": 1598,
      "निम्ति": 1599,
      "than": 1600,
      "डे": 1601,
      "मैले": 1602,
      "राजा": 1603,
      "concerned": 1604,
      "फल": 1605,
      "tific": 1606,
      "जार": 1607,
      "उपनियम": 1608,
      "वन": 1609,
      "सन": 1610,
      "when": 1611,
      "more": 1612,
      "rule": 1613,
      "ting": 1614,
      "भएका": 1615,
      "Offic": 1616,
      "within": 1617,
      "कर": 1618,
      "vail": 1619,
      "जिल्ला": 1620,
      "cif": 1621,
      "she": 1622,
      "जुन": 1623,
      "सन्": 1624,
      "ouse": 1625,
      "necessary": 1626,
      "ful": 1627,
      "इस": 1628,
      "ical": 1629,
      "ople": 1630,
      "mon": 1631,
      "पै": 1632,
      "एल": 1633,
      "vision": 1634,
      "लु": 1635,
      "ृद्धि": 1636,
      "gr": 1637,
      "dist": 1638,
      "use": 1639,
      "means": 1640,
      "car": 1641,
      "requi": 1642,
      "रुपमा": 1643,
      "द्या": 1644,
      "trans": 1645,
      "तर्": 1646,
      "स्वा": 1647,
      "Committee": 1648,
      "ules": 1649,
      "समेत": 1650,
      "part": 1651,
      "people": 1652,
      "act": 1653,
      "उल्": 1654,
      "vel": 1655,
      "sy": 1656,
      "new": 1657,
      "जस": 1658,
      "देहाय": 1659,
      "धेर": 1660,
      "विषय": 1661,
      "बुझ": 1662,
      "mar": 1663,
      "मध्य": 1664,
      "वित": 1665,
      "स्तै": 1666,
      "inv": 1667,
      "उपलब्": 1668,
      "ctions": 1669,
      "स्रो": 1670,
      "stand": 1671,
      "count": 1672,
      "आदेश": 1673,
      "टे": 1674,
      "employe": 1675,
      "शो": 1676,
      "ody": 1677,
      "किन": 1678,
      "तन": 1679,
      "ho": 1680,
      "pt": 1681,
      "good": 1682,
      "नयाँ": 1683,
      "विवरण": 1684,
      "धेरै": 1685,
      "भूमि": 1686,
      "Ru": 1687,
      "वै": 1688,
      "fil": 1689,
      "point": 1690,
      "Ex": 1691,
      "गो": 1692,
      "where": 1693,
      "प्रत्येक": 1694,
      "istr": 1695,
      "्ने": 1696,
      "ever": 1697,
      "Is": 1698,
      "भे": 1699,
      "शेष": 1700,
      "appro": 1701,
      "क्ता": 1702,
      "ाउनु": 1703,
      "विधा": 1704,
      "Board": 1705,
      "led": 1706,
      "उत्पादन": 1707,
      "ून": 1708,
      "ूह": 1709,
      "lement": 1710,
      "project": 1711,
      "पो": 1712,
      "खु": 1713,
      "before": 1714,
      "अन्तर्गत": 1715,
      "word": 1716,
      "पत्": 1717,
      "hand": 1718,
      "उपलब्ध": 1719,
      "tained": 1720,
      "कर्ता": 1721,
      "ferred": 1722,
      "ning": 1723,
      "dire": 1724,
      "शत": 1725,
      "सार्": 1726,
      "pow": 1727,
      "एमा": 1728,
      "specif": 1729,
      "read": 1730,
      "शहर": 1731,
      "संग": 1732,
      "इस्रा": 1733,
      "these": 1734,
      "चाह": 1735,
      "rough": 1736,
      "formation": 1737,
      "स्थानीय": 1738,
      "परी": 1739,
      "cil": 1740,
      "vided": 1741,
      "ial": 1742,
      "ters": 1743,
      "used": 1744,
      "mat": 1745,
      "विशेष": 1746,
      "मिक": 1747,
      "ath": 1748,
      "ari": 1749,
      "row": 1750,
      "issu": 1751,
      "पूर्व": 1752,
      "ses": 1753,
      "bas": 1754,
      "Plan": 1755,
      "recei": 1756,
      "gan": 1757,
      "प्रतिशत": 1758,
      "ak": 1759,
      "om": 1760,
      "जब": 1761,
      "अन्": 1762,
      "pol": 1763,
      "application": 1764,
      "अनुसार": 1765,
      "द्योग": 1766,
      "accord": 1767,
      "public": 1768,
      "ouncil": 1769,
      "अधिकारी": 1770,
      "ite": 1771,
      "get": 1772,
      "bu": 1773,
      "ca": 1774,
      "आफ्": 1775,
      "arch": 1776,
      "तब": 1777,
      "न्व": 1778,
      "आर्थ": 1779,
      "por": 1780,
      "पद": 1781,
      "केन्द": 1782,
      "through": 1783,
      "child": 1784,
      "Cha": 1785,
      "सित": 1786,
      "med": 1787,
      "आर्थिक": 1788,
      "law": 1789,
      "पानी": 1790,
      "दर्ता": 1791,
      "समितिको": 1792,
      "विधि": 1793,
      "uring": 1794,
      "It": 1795,
      "incre": 1796,
      "यार": 1797,
      "व्या": 1798,
      "द्र": 1799,
      "tab": 1800,
      "हरूमा": 1801,
      "शी": 1802,
      "दाय": 1803,
      "ken": 1804,
      "submit": 1805,
      "अस": 1806,
      "दृ": 1807,
      "had": 1808,
      "पन": 1809,
      "भाव": 1810,
      "dust": 1811,
      "ेमा": 1812,
      "चित": 1813,
      "ight": 1814,
      "मन्त्र": 1815,
      "भन्नाले": 1816,
      "यात": 1817,
      "स्थि": 1818,
      "sup": 1819,
      "ility": 1820,
      "cor": 1821,
      "cy": 1822,
      "cap": 1823,
      "पेश": 1824,
      "cted": 1825,
      "As": 1826,
      "hold": 1827,
      "rict": 1828,
      "लिक": 1829,
      "sur": 1830,
      "परिवर्": 1831,
      "म्भ": 1832,
      "select": 1833,
      "अभि": 1834,
      "्रे": 1835,
      "पे": 1836,
      "fir": 1837,
      "office": 1838,
      "Ch": 1839,
      "सक्ने": 1840,
      "Rules": 1841,
      "र्च": 1842,
      "कृति": 1843,
      "against": 1844,
      "एर": 1845,
      "इन्": 1846,
      "An": 1847,
      "list": 1848,
      "लमा": 1849,
      "institution": 1850,
      "जाँच": 1851,
      "गर्दछ": 1852,
      "only": 1853,
      "house": 1854,
      "सरकारले": 1855,
      "परिष": 1856,
      "und": 1857,
      "number": 1858,
      "ल्ड": 1859,
      "ress": 1860,
      "Council": 1861,
      "Me": 1862,
      "thing": 1863,
      "स्थापना": 1864,
      "लत": 1865,
      "सामा": 1866,
      "years": 1867,
      "post": 1868,
      "समूह": 1869,
      "thority": 1870,
      "En": 1871,
      "आयोजना": 1872,
      "दिने": 1873,
      "खर्च": 1874,
      "put": 1875,
      "भिन्न": 1876,
      "गरिने": 1877,
      "plan": 1878,
      "विक": 1879,
      "know": 1880,
      "पदा": 1881,
      "प्रस्ता": 1882,
      "परमप्रभुले": 1883,
      "त्व": 1884,
      "place": 1885,
      "न्या": 1886,
      "मानिसहरूले": 1887,
      "meet": 1888,
      "जग्": 1889,
      "rael": 1890,
      "Israel": 1891,
      "मह": 1892,
      "सम्बन्धमा": 1893,
      "जग्गा": 1894,
      "stem": 1895,
      "given": 1896,
      "युक्त": 1897,
      "दिइ": 1898,
      "पुर्": 1899,
      "ृत": 1900,
      "ural": 1901,
      "प्रका": 1902,
      "docu": 1903,
      "like": 1904,
      "कले": 1905,
      "छौ": 1906,
      "पी": 1907,
      "प्रकार": 1908,
      "तह": 1909,
      "then": 1910,
      "कोष": 1911,
      "ear": 1912,
      "धित": 1913,
      "क्षेत्रमा": 1914,
      "हरुलाई": 1915,
      "महि": 1916,
      "चत": 1917,
      "हू": 1918,
      "भर": 1919,
      "सिर्": 1920,
      "sector": 1921,
      "रहेका": 1922,
      "छोरा": 1923,
      "्यो": 1924,
      "constru": 1925,
      "सेट": 1926,
      "cation": 1927,
      "परिवर्तन": 1928,
      "घि": 1929,
      "level": 1930,
      "information": 1931,
      "ड्": 1932,
      "Min": 1933,
      "सङ्": 1934,
      "ness": 1935,
      "Ad": 1936,
      "urn": 1937,
      "तिनीहरूलाई": 1938,
      "istration": 1939,
      "टन": 1940,
      "शक्ति": 1941,
      "तीय": 1942,
      "जान": 1943,
      "काग": 1944,
      "percent": 1945,
      "बैठ": 1946,
      "vide": 1947,
      "fac": 1948,
      "key": 1949,
      "There": 1950,
      "play": 1951,
      "ancial": 1952,
      "येश": 1953,
      "days": 1954,
      "rent": 1955,
      "गर्दै": 1956,
      "नीति": 1957,
      "gy": 1958,
      "सिर्जना": 1959,
      "ust": 1960,
      "alth": 1961,
      "येशू": 1962,
      "छे": 1963,
      "body": 1964,
      "right": 1965,
      "mage": 1966,
      "ctive": 1967,
      "referred": 1968,
      "कुञ्": 1969,
      "less": 1970,
      "ave": 1971,
      "स्थिति": 1972,
      "tice": 1973,
      "date": 1974,
      "मर्": 1975,
      "मानिसहरूलाई": 1976,
      "सम्झनु": 1977,
      "विदेश": 1978,
      "ory": 1979,
      "add": 1980,
      "अघि": 1981,
      "ship": 1982,
      "ror": 1983,
      "कान": 1984,
      "फर्": 1985,
      "required": 1986,
      "भो": 1987,
      "अध्यक्ष": 1988,
      "air": 1989,
      "नका": 1990,
      "वार": 1991,
      "cons": 1992,
      "निर्ण": 1993,
      "ister": 1994,
      "कम्प": 1995,
      "view": 1996,
      "हरुमा": 1997,
      "off": 1998,
      "विद्या": 1999,
      "्रिय": 2000,
      "organ": 2001,
      "सुविधा": 2002,
      "program": 2003,
      "came": 2004,
      "संर": 2005,
      "सरकारी": 2006,
      "wr": 2007,
      "गरा": 2008,
      "विभिन्न": 2009,
      "pen": 2010,
      "त्रुटि": 2011,
      "परा": 2012,
      "तोकिए": 2013,
      "implement": 2014,
      "प्रस्ताव": 2015,
      ").": 2016,
      "Mo": 2017,
      "संशो": 2018,
      "म्या": 2019,
      "जात": 2020,
      "अधिक": 2021,
      "वेश": 2022,
      "अर्को": 2023,
      "license": 2024,
      "कुञ्जी": 2025,
      "ward": 2026,
      "प्रमुख": 2027,
      "employee": 2028,
      "pay": 2029,
      "कुल": 2030,
      "जस्तै": 2031,
      "dec": 2032,
      "मक": 2033,
      "ीय": 2034,
      "कृष": 2035,
      "went": 2036,
      "कार्यान्व": 2037,
      "खण्ड": 2038,
      "children": 2039,
      "संख्या": 2040,
      "व्यवसा": 2041,
      "१०": 2042,
      "वास": 2043,
      "Development": 2044,
      "राष्ट्रिय": 2045,
      "बचत": 2046,
      "स्थित": 2047,
      "cri": 2048,
      "Au": 2049,
      "नले": 2050,
      "those": 2051,
      "foreign": 2052,
      "न्ट": 2053,
      "ice": 2054,
      "ष्ठ": 2055,
      "Sh": 2056,
      "open": 2057,
      "should": 2058,
      "indust": 2059,
      "परमेश्वरले": 2060,
      "incl": 2061,
      "परिषद्": 2062,
      "gin": 2063,
      "पृ": 2064,
      "र्ड": 2065,
      "शिक्षा": 2066,
      "त्यहाँ": 2067,
      "निर्णय": 2068,
      "Am": 2069,
      "सन्देश": 2070,
      "नेछन्": 2071,
      "वज": 2072,
      "give": 2073,
      "take": 2074,
      "स्थ्य": 2075,
      "government": 2076,
      "लेखि": 2077,
      "दिए": 2078,
      "Rule": 2079,
      "ourt": 2080,
      "अवस्था": 2081,
      "reas": 2082,
      "वं": 2083,
      "national": 2084,
      "ीकरण": 2085,
      "sign": 2086,
      "system": 2087,
      "ute": 2088,
      "सकेन": 2089,
      "self": 2090,
      "ot": 2091,
      "while": 2092,
      "pass": 2093,
      "निर्देश": 2094,
      "तु": 2095,
      "mes": 2096,
      "water": 2097,
      "So": 2098,
      "गम": 2099,
      "म्ब": 2100,
      "les": 2101,
      "वारी": 2102,
      "भन्नु": 2103,
      "financial": 2104,
      "छवि": 2105,
      "सुरु": 2106,
      "br": 2107,
      "fo": 2108,
      "घट": 2109,
      "estab": 2110,
      "वजनिक": 2111,
      "सार्वजनिक": 2112,
      "स्रोत": 2113,
      "goods": 2114,
      "तिमीहरूले": 2115,
      "establish": 2116,
      "two": 2117,
      "व्यक्तिले": 2118,
      "Be": 2119,
      "र्ष": 2120,
      "down": 2121,
      "let": 2122,
      "निर्धारण": 2123,
      "स्प": 2124,
      "भन्ने": 2125,
      "fra": 2126,
      "खे": 2127,
      "विभाग": 2128,
      "vil": 2129,
      "vices": 2130,
      "tech": 2131,
      "मूल्य": 2132,
      "प्रदान": 2133,
      "char": 2134,
      "अदा": 2135,
      "pon": 2136,
      "does": 2137,
      "relating": 2138,
      "local": 2139,
      "ते": 2140,
      "लिका": 2141,
      "सुर": 2142,
      "indow": 2143,
      "तयार": 2144,
      "Office": 2145,
      "मध्ये": 2146,
      "च्च": 2147,
      "उद्योग": 2148,
      "hether": 2149,
      "पूरा": 2150,
      "che": 2151,
      "लिख": 2152,
      "ilities": 2153,
      "ext": 2154,
      "xt": 2155,
      "बाँ": 2156,
      "कागजात": 2157,
      "केन्द्र": 2158,
      "जसले": 2159,
      "ced": 2160,
      "विश्": 2161,
      "But": 2162,
      "वाद": 2163,
      "दू": 2164,
      "ils": 2165,
      "कार्यान्वयन": 2166,
      "high": 2167,
      "दिएको": 2168,
      "पूर्ति": 2169,
      "विस्त": 2170,
      "स्थान": 2171,
      "mention": 2172,
      "गरेमा": 2173,
      "termin": 2174,
      "वर्ग": 2175,
      "country": 2176,
      "valu": 2177,
      "इस्राएल": 2178,
      "आफ्ना": 2179,
      "अदालत": 2180,
      "committee": 2181,
      "comple": 2182,
      "णाली": 2183,
      "qual": 2184,
      "तपाईँको": 2185,
      "taken": 2186,
      "पत्ति": 2187,
      "They": 2188,
      "avail": 2189,
      "साथै": 2190,
      "स्ट": 2191,
      "मको": 2192,
      "member": 2193,
      "change": 2194,
      "स्वास्थ्य": 2195,
      "tal": 2196,
      "because": 2197,
      "Dist": 2198,
      "हार": 2199,
      "तर्फ": 2200,
      "योग्य": 2201,
      "ries": 2202,
      "उद्": 2203,
      "लगानी": 2204,
      "gre": 2205,
      "बन्द": 2206,
      "gener": 2207,
      "सहाय": 2208,
      "gu": 2209,
      "ठे": 2210,
      "प्रमाणपत्र": 2211,
      "about": 2212,
      "10": 2213,
      "mmes": 2214,
      "घर": 2215,
      "विष्ट": 2216,
      "विद्य": 2217,
      "even": 2218,
      "Sch": 2219,
      "क्रिया": 2220,
      "माल": 2221,
      "text": 2222,
      "tificate": 2223,
      "cti": 2224,
      "राख्": 2225,
      "road": 2226,
      "ese": 2227,
      "तोकिएको": 2228,
      "मन्त्रा": 2229,
      "proper": 2230,
      "condu": 2231,
      "हाल": 2232,
      "मन्त्रालय": 2233,
      "यहू": 2234,
      "enter": 2235,
      "सभा": 2236,
      "each": 2237,
      "current": 2238,
      "present": 2239,
      "acti": 2240,
      "पाठ": 2241,
      "import": 2242,
      "नियन्त्र": 2243,
      "िका": 2244,
      "selected": 2245,
      "प्रणाली": 2246,
      "फोल्ड": 2247,
      "वटा": 2248,
      "same": 2249,
      "cord": 2250,
      "inst": 2251,
      "ल्प": 2252,
      "विदेशी": 2253,
      "झ्या": 2254,
      "रङ": 2255,
      "वित्": 2256,
      "appoint": 2257,
      "ual": 2258,
      "Lo": 2259,
      "यसको": 2260,
      "itor": 2261,
      "स्तर": 2262,
      "ठाउँ": 2263,
      "illion": 2264,
      "area": 2265,
      "ature": 2266,
      "lease": 2267,
      "यर": 2268,
      "during": 2269,
      "लेखा": 2270,
      "ंक": 2271,
      "उल्लेख": 2272,
      "vo": 2273,
      "कृषि": 2274,
      "lt": 2275,
      "कन्": 2276,
      "ks": 2277,
      "roup": 2278,
      "ँचा": 2279,
      "ants": 2280,
      "mission": 2281,
      "ग्रा": 2282,
      "being": 2283,
      "perform": 2284,
      "दुई": 2285,
      "ऋण": 2286,
      "थप": 2287,
      "ैं": 2288,
      "वितरण": 2289,
      "az": 2290,
      "ner": 2291,
      "ाउनुहोस्": 2292,
      "eld": 2293,
      "provide": 2294,
      "प्रार": 2295,
      "हरूका": 2296,
      "्यु": 2297,
      "making": 2298,
      "available": 2299,
      "कृत": 2300,
      "meeting": 2301,
      "ining": 2302,
      "ization": 2303,
      "month": 2304,
      "first": 2305,
      "मित्": 2306,
      "command": 2307,
      "cret": 2308,
      "ital": 2309,
      "well": 2310,
      "St": 2311,
      "सम्पत्ति": 2312,
      "father": 2313,
      "found": 2314,
      "महा": 2315,
      "गरिएका": 2316,
      "among": 2317,
      "includ": 2318,
      "call": 2319,
      "specified": 2320,
      "जिक": 2321,
      "अनुस": 2322,
      "ources": 2323,
      "mbers": 2324,
      "प्रारम्भ": 2325,
      "some": 2326,
      "cus": 2327,
      "लाइ": 2328,
      "ates": 2329,
      "account": 2330,
      "programmes": 2331,
      "तापनि": 2332,
      "रुप": 2333,
      "according": 2334,
      "edule": 2335,
      "econ": 2336,
      "pa": 2337,
      "लक्ष": 2338,
      "istry": 2339,
      "reason": 2340,
      "प्रदर्": 2341,
      "without": 2342,
      "gation": 2343,
      "त्यसपछि": 2344,
      "ator": 2345,
      "vers": 2346,
      "ousand": 2347,
      "अनुमतिपत्र": 2348,
      "गठ": 2349,
      "गरेका": 2350,
      "सजा": 2351,
      "back": 2352,
      "संशोधन": 2353,
      "नगर": 2354,
      "report": 2355,
      "त्मक": 2356,
      "000": 2357,
      "Could": 2358,
      "Ar": 2359,
      "तव्य": 2360,
      "जत": 2361,
      "बृद्धि": 2362,
      "लिन": 2363,
      "उपयोग": 2364,
      "पाउने": 2365,
      "बस्": 2366,
      "दार": 2367,
      "हिले": 2368,
      "ular": 2369,
      "देश्य": 2370,
      "कूल": 2371,
      "तल": 2372,
      "tial": 2373,
      "सञ्झ्या": 2374,
      "construction": 2375,
      "वित्तीय": 2376,
      "window": 2377,
      "विद्यालय": 2378,
      "ents": 2379,
      "निर्धारित": 2380,
      "ire": 2381,
      "धितो": 2382,
      "see": 2383,
      "ative": 2384,
      "ठू": 2385,
      "received": 2386,
      "क्या": 2387,
      "bet": 2388,
      "अनुसूची": 2389,
      "tax": 2390,
      "bank": 2391,
      "तिम": 2392,
      "प्रो": 2393,
      "tor": 2394,
      "भई": 2395,
      "cho": 2396,
      "services": 2397,
      "District": 2398,
      "उद्देश्य": 2399,
      "उहाँले": 2400,
      "every": 2401,
      "ट्टा": 2402,
      "mess": 2403,
      "search": 2404,
      "health": 2405,
      "रिद": 2406,
      "समक्ष": 2407,
      "कर्तव्य": 2408,
      "ages": 2409,
      "सात": 2410,
      "addition": 2411,
      "tar": 2412,
      "til": 2413,
      "्याङ्क": 2414,
      "उसले": 2415,
      "Ser": 2416,
      "polic": 2417,
      "हेर्": 2418,
      "नियु": 2419,
      "खोल्": 2420,
      "प्रभाव": 2421,
      "proc": 2422,
      "सुधार": 2423,
      "हेक": 2424,
      "न्धा": 2425,
      "power": 2426,
      "२०४": 2427,
      "पुग": 2428,
      "provided": 2429,
      "साम": 2430,
      "serv": 2431,
      "lim": 2432,
      "टक": 2433,
      "गराउने": 2434,
      "सचि": 2435,
      "offer": 2436,
      "ited": 2437,
      "decision": 2438,
      "बिक": 2439,
      "top": 2440,
      "dat": 2441,
      "पठ": 2442,
      "did": 2443,
      "मै": 2444,
      "Not": 2445,
      "नेछु": 2446,
      "हुन्": 2447,
      "exce": 2448,
      "आवश्यकता": 2449,
      "ricult": 2450,
      "पक्ष": 2451,
      "मत": 2452,
      "ized": 2453,
      ":-": 2454,
      "१९": 2455,
      "किनभने": 2456,
      "कारबा": 2457,
      "mentioned": 2458,
      "विद्यु": 2459,
      "dif": 2460,
      "मू": 2461,
      "ret": 2462,
      "iness": 2463,
      "खरिद": 2464,
      "Ministry": 2465,
      "प्रशा": 2466,
      "invest": 2467,
      "सम्पादन": 2468,
      "edi": 2469,
      "ife": 2470,
      "ग्र": 2471,
      "तिमीले": 2472,
      "folder": 2473,
      "want": 2474,
      "विश्व": 2475,
      "जाजत": 2476,
      "ide": 2477,
      "गरेर": 2478,
      "cle": 2479,
      "ges": 2480,
      "Schedule": 2481,
      "यत": 2482,
      "समितिले": 2483,
      "ढाँचा": 2484,
      "Dep": 2485,
      "provision": 2486,
      "entit": 2487,
      "clo": 2488,
      "remo": 2489,
      "पर्दछ": 2490,
      "११": 2491,
      "sal": 2492,
      "अब": 2493,
      "प्रविष्ट": 2494,
      "हट": 2495,
      "सुकै": 2496,
      "जानकारी": 2497,
      "sed": 2498,
      "ारे": 2499,
      "consu": 2500,
      "इजाजत": 2501,
      "je": 2502,
      "carry": 2503,
      "धी": 2504,
      "notice": 2505,
      "तिमीहरूलाई": 2506,
      "कानून": 2507,
      "प्रचल": 2508,
      "लिखित": 2509,
      "वृद्धि": 2510,
      "परमप्रभुको": 2511,
      "कारबाही": 2512,
      "line": 2513,
      "इएको": 2514,
      "secur": 2515,
      "सम्झौ": 2516,
      "निवेदन": 2517,
      "exist": 2518,
      "bus": 2519,
      "sing": 2520,
      "तीन": 2521,
      "तिर": 2522,
      "षा": 2523,
      "lin": 2524,
      "having": 2525,
      "प्रतिवेदन": 2526,
      "rate": 2527,
      "need": 2528,
      "certificate": 2529,
      "standing": 2530,
      "कम्पनी": 2531,
      "वली": 2532,
      "म्मा": 2533,
      "don": 2534,
      "च्छे": 2535,
      "अनुसन्धा": 2536,
      "नामा": 2537,
      "ures": 2538,
      "चौ": 2539,
      "फार": 2540,
      "start": 2541,
      "rol": 2542,
      "condition": 2543,
      "कुराहरू": 2544,
      "अरू": 2545,
      "motion": 2546,
      "book": 2547,
      "Can": 2548,
      "बाहेक": 2549,
      "image": 2550,
      "पति": 2551,
      "स्या": 2552,
      "tern": 2553,
      "साइ": 2554,
      "commun": 2555,
      "परमेश्वरको": 2556,
      "ton": 2557,
      "appe": 2558,
      "नियन्त्रण": 2559,
      "सजाय": 2560,
      "cas": 2561,
      "allow": 2562,
      "tails": 2563,
      "लक्ष्य": 2564,
      "अति": 2565,
      "सवारी": 2566,
      "दाऊ": 2567,
      "होइन": 2568,
      "199": 2569,
      "जल": 2570,
      "लेखिएको": 2571,
      "चे": 2572,
      "वाला": 2573,
      "बाहि": 2574,
      "मेल": 2575,
      "Reg": 2576,
      "बलि": 2577,
      "Chair": 2578,
      "भव": 2579,
      "एन": 2580,
      "बीच": 2581,
      "दाऊद": 2582,
      "कल": 2583,
      "तिनी": 2584,
      "Select": 2585,
      "ठी": 2586,
      "hic": 2587,
      "ys": 2588,
      "यसलाई": 2589,
      "ऐनको": 2590,
      "Ap": 2591,
      "fect": 2592,
      "यास": 2593,
      "राष्ट्र": 2594,
      "आयोग": 2595,
      "distrib": 2596,
      "nor": 2597,
      "शब्": 2598,
      "ulation": 2599,
      "tim": 2600,
      "न्तर": 2601,
      "अध्ययन": 2602,
      "एवं": 2603,
      "णी": 2604,
      "head": 2605,
      "functions": 2606,
      "vate": 2607,
      "नलाई": 2608,
      "विस्तार": 2609,
      "group": 2610,
      "शै": 2611,
      "vari": 2612,
      "बाल": 2613,
      "register": 2614,
      "अधिकृत": 2615,
      "गर्छ": 2616,
      "प्रचलित": 2617,
      "ive": 2618,
      "ared": 2619,
      "फोल्डर": 2620,
      "Do": 2621,
      "million": 2622,
      "सहयोग": 2623,
      "ज्य": 2624,
      "sible": 2625,
      "ix": 2626,
      "cts": 2627,
      "सिल": 2628,
      "न्ड": 2629,
      "हजार": 2630,
      "शब्द": 2631,
      "केडी": 2632,
      "agement": 2633,
      "vehic": 2634,
      "आधारमा": 2635,
      "here": 2636,
      "process": 2637,
      "धारण": 2638,
      "Bank": 2639,
      "deem": 2640,
      "production": 2641,
      "तिम्रो": 2642,
      "artment": 2643,
      "सकेको": 2644,
      "बिक्री": 2645,
      "pees": 2646,
      "subject": 2647,
      "जुनसुकै": 2648,
      "Chairperson": 2649,
      "ft": 2650,
      "श्री": 2651,
      "किसि": 2652,
      "value": 2653,
      "डाइ": 2654,
      "तम": 2655,
      "vis": 2656,
      "नियमा": 2657,
      "field": 2658,
      "ग्री": 2659,
      "समयमा": 2660,
      "Cor": 2661,
      "व्यक्तिलाई": 2662,
      "basis": 2663,
      "increas": 2664,
      "केडीई": 2665,
      "document": 2666,
      "contra": 2667,
      "ween": 2668,
      "बजार": 2669,
      "pose": 2670,
      "आफू": 2671,
      "उपर": 2672,
      "त्या": 2673,
      "भार": 2674,
      "When": 2675,
      "vent": 2676,
      "जग": 2677,
      "हुनुहुन्छ": 2678,
      "tions": 2679,
      "determin": 2680,
      "गठन": 2681,
      "माग": 2682,
      "कारो": 2683,
      "प्राथ": 2684,
      "राम्रो": 2685,
      "very": 2686,
      "बोर्ड": 2687,
      "bro": 2688,
      "सक्छ": 2689,
      "कायम": 2690,
      "यौ": 2691,
      "could": 2692,
      "इस्राएलका": 2693,
      "color": 2694,
      "Member": 2695,
      "हरुले": 2696,
      "प्राथमिक": 2697,
      "long": 2698,
      "गराउन": 2699,
      "लागू": 2700,
      "अर्थ": 2701,
      "omic": 2702,
      "Ma": 2703,
      "मुद्": 2704,
      "format": 2705,
      "यहाँ": 2706,
      "१२": 2707,
      "vities": 2708,
      "पारि": 2709,
      "कहाँ": 2710,
      "between": 2711,
      "side": 2712,
      "मुख्य": 2713,
      "आएको": 2714,
      "मृ": 2715,
      "लोड": 2716,
      "च्छेद": 2717,
      "fig": 2718,
      "projects": 2719,
      "igh": 2720,
      "प्रयास": 2721,
      "Department": 2722,
      "सक्नुहुन्छ": 2723,
      "क्षेत्रको": 2724,
      "sin": 2725,
      "जारी": 2726,
      "सम्झौता": 2727,
      "पूजा": 2728,
      "range": 2729,
      "sent": 2730,
      "writ": 2731,
      "नियमावली": 2732,
      "Le": 2733,
      "arm": 2734,
      "says": 2735,
      "ठेगा": 2736,
      "राज्य": 2737,
      "200": 2738,
      "पत": 2739,
      "action": 2740,
      "prof": 2741,
      "ल्लो": 2742,
      "त्यसको": 2743,
      "नाको": 2744,
      "authority": 2745,
      "परीक्षण": 2746,
      "facilities": 2747,
      "मुद्दा": 2748,
      "ination": 2749,
      "ध्या": 2750,
      "फेला": 2751,
      "आय": 2752,
      "Commission": 2753,
      "ss": 2754,
      "चित्र": 2755,
      "१५": 2756,
      "विधिक": 2757,
      "बाटो": 2758,
      "ource": 2759,
      "असफल": 2760,
      "lection": 2761,
      "hol": 2762,
      "सक्षम": 2763,
      "मुद्र": 2764,
      "विषयमा": 2765,
      "mand": 2766,
      "raw": 2767,
      "इजाजतपत्र": 2768,
      "चु": 2769,
      "saying": 2770,
      "मेरा": 2771,
      "संरक्षण": 2772,
      "द्द": 2773,
      "उपकरण": 2774,
      "activities": 2775,
      "प्रदर्शन": 2776,
      "प्रे": 2777,
      "नौ": 2778,
      "हुँदैन": 2779,
      "jo": 2780,
      "operation": 2781,
      "fill": 2782,
      "यस्तो": 2783,
      "bi": 2784,
      "hel": 2785,
      "स्त्र": 2786,
      "load": 2787,
      "unish": 2788,
      "कृप": 2789,
      "valid": 2790,
      "आदि": 2791,
      "अनुसन्धान": 2792,
      "कृपया": 2793,
      "bit": 2794,
      "साधारण": 2795,
      "क्स": 2796,
      "done": 2797,
      "temp": 2798,
      "interest": 2799,
      "अवधिमा": 2800,
      "भनी": 2801,
      "र्त": 2802,
      "ँदैन": 2803,
      "गण": 2804,
      "persons": 2805,
      "व्यवसाय": 2806,
      "related": 2807,
      "record": 2808,
      "files": 2809,
      "fund": 2810,
      "ची": 2811,
      "अनुमान": 2812,
      "बोल": 2813,
      "पृष्ठ": 2814,
      "three": 2815,
      "cip": 2816,
      "षण": 2817,
      "निजी": 2818,
      "डान": 2819,
      "powers": 2820,
      "लिपि": 2821,
      "योजनाको": 2822,
      "economic": 2823,
      "ens": 2824,
      "cond": 2825,
      "build": 2826,
      "पुनरा": 2827,
      "would": 2828,
      "विकल्प": 2829,
      "ठेगाना": 2830,
      "ground": 2831,
      "Jud": 2832,
      "प्रकाशन": 2833,
      "onment": 2834,
      "owner": 2835,
      "समर्थ": 2836,
      "उनुहोस्": 2837,
      "तार": 2838,
      "region": 2839,
      "fault": 2840,
      "run": 2841,
      "डो": 2842,
      "पवि": 2843,
      "खास्त": 2844,
      "director": 2845,
      "याह": 2846,
      "undred": 2847,
      "ze": 2848,
      "गति": 2849,
      "works": 2850,
      "respon": 2851,
      "programme": 2852,
      "यसकारण": 2853,
      "type": 2854,
      "ply": 2855,
      "ended": 2856,
      "तोके": 2857,
      "पवित्र": 2858,
      "ars": 2859,
      "ried": 2860,
      "कसैले": 2861,
      "फेरि": 2862,
      "ency": 2863,
      "conne": 2864,
      "anything": 2865,
      "training": 2866,
      "पन्न": 2867,
      "डियो": 2868,
      "requ": 2869,
      "सर्व": 2870,
      "ंश": 2871,
      "ask": 2872,
      "क्षक": 2873,
      "using": 2874,
      "areas": 2875,
      "ष्टि": 2876,
      "ris": 2877,
      "Al": 2878,
      "भन्नुभयो": 2879,
      "क्टर": 2880,
      "ick": 2881,
      "resources": 2882,
      "another": 2883,
      "पाद": 2884,
      "रुपै": 2885,
      "prep": 2886,
      "total": 2887,
      "संस्थाको": 2888,
      "ia": 2889,
      "ket": 2890,
      "wise": 2891,
      "state": 2892,
      "साह": 2893,
      "Man": 2894,
      "ट्": 2895,
      "सचिव": 2896,
      "रोध": 2897,
      "cretary": 2898,
      "ie": 2899,
      "ged": 2900,
      "मार्ग": 2901,
      "support": 2902,
      "Dire": 2903,
      "One": 2904,
      "Gener": 2905,
      "तिनीहरूको": 2906,
      "differ": 2907,
      "chang": 2908,
      "पहिलो": 2909,
      "term": 2910,
      "soci": 2911,
      "Please": 2912,
      "eng": 2913,
      "समु": 2914,
      "purpose": 2915,
      "बता": 2916,
      "non": 2917,
      "members": 2918,
      "show": 2919,
      "agricult": 2920,
      "औष": 2921,
      "वृ": 2922,
      "यसले": 2923,
      "क्षित": 2924,
      "चालन": 2925,
      "कन्फि": 2926,
      "नेको": 2927,
      "publish": 2928,
      "ठूलो": 2929,
      "गरियो": 2930,
      "व्यवस्थापन": 2931,
      "देहायका": 2932,
      "प्या": 2933,
      "imum": 2934,
      "लग्न": 2935,
      "योजन": 2936,
      "develop": 2937,
      "contained": 2938,
      "पास": 2939,
      "धान": 2940,
      "बाहिर": 2941,
      "गि": 2942,
      "निश्": 2943,
      "techn": 2944,
      "25": 2945,
      "जस्तो": 2946,
      "बेला": 2947,
      "ready": 2948,
      "स्पष्ट": 2949,
      "increase": 2950,
      "अहिले": 2951,
      "Rel": 2952,
      "पढ": 2953,
      "company": 2954,
      "सञ्झ्याल": 2955,
      "हालको": 2956,
      "वर्षको": 2957,
      "Da": 2958,
      "sit": 2959,
      "things": 2960,
      "उँछ": 2961,
      "ublic": 2962,
      "यू": 2963,
      "tiz": 2964,
      "प्रयोगकर्ता": 2965,
      "सकिने": 2966,
      "उसको": 2967,
      "ित्व": 2968,
      "न्तरण": 2969,
      "vehicle": 2970,
      "शले": 2971,
      "हारी": 2972,
      "रिक्त": 2973,
      "…………": 2974,
      "प्रक्रिया": 2975,
      "रूप": 2976,
      "poration": 2977,
      "अवस्थामा": 2978,
      "mul": 2979,
      "म्याद": 2980,
      "business": 2981,
      "१३": 2982,
      "consid": 2983,
      "मित्त": 2984,
      "Cl": 2985,
      "Name": 2986,
      "ecu": 2987,
      "गै": 2988,
      "stud": 2989,
      "Authority": 2990,
      "निमित्त": 2991,
      "कारोबार": 2992,
      "tru": 2993,
      "जडान": 2994,
      "गुण": 2995,
      "दरखास्त": 2996,
      "भुक्ता": 2997,
      "तालि": 2998,
      "sure": 2999,
      "great": 3000,
      "spo": 3001,
      "Spe": 3002,
      "लिई": 3003,
      "प्रतिलिपि": 3004,
      "ध्": 3005,
      "पठा": 3006,
      "नाउँ": 3007,
      "als": 3008,
      "iry": 3009,
      "elect": 3010,
      "pric": 3011,
      "घा": 3012,
      "ize": 3013,
      "बनाउन": 3014,
      "motor": 3015,
      "registration": 3016,
      "दिष्ट": 3017,
      "lay": 3018,
      "प्राविधिक": 3019,
      "Now": 3020,
      "अझ": 3021,
      "स्वीकृति": 3022,
      "fam": 3023,
      "वाह": 3024,
      "details": 3025,
      "transport": 3026,
      "तिमीलाई": 3027,
      "prevail": 3028,
      "पदार्थ": 3029,
      "ini": 3030,
      "ption": 3031,
      "imm": 3032,
      "vir": 3033,
      "मौ": 3034,
      "मन्": 3035,
      "rest": 3036,
      "respe": 3037,
      "खाली": 3038,
      "sk": 3039,
      "चला": 3040,
      "data": 3041,
      "ability": 3042,
      "pra": 3043,
      "प्रकाश": 3044,
      "forth": 3045,
      "income": 3046,
      "reco": 3047,
      "निर्दिष्ट": 3048,
      "सहायता": 3049,
      "जम्मा": 3050,
      "योज": 3051,
      "urement": 3052,
      "परिच्छेद": 3053,
      "cut": 3054,
      "function": 3055,
      "must": 3056,
      "देखा": 3057,
      "five": 3058,
      "upon": 3059,
      "बैठक": 3060,
      "उपयुक्त": 3061,
      "राखि": 3062,
      "cop": 3063,
      "समाप्त": 3064,
      "बद्ध": 3065,
      "शर्त": 3066,
      "com": 3067,
      "निजको": 3068,
      "tre": 3069,
      "display": 3070,
      "सहित": 3071,
      "Chap": 3072,
      "established": 3073,
      "राजपत्र": 3074,
      "चन": 3075,
      "ily": 3076,
      "Court": 3077,
      "स्क": 3078,
      "गरिक": 3079,
      "तिक": 3080,
      "पर्य": 3081,
      "Er": 3082,
      "log": 3083,
      "install": 3084,
      "private": 3085,
      "नागरिक": 3086,
      "Provided": 3087,
      "issue": 3088,
      "ेका": 3089,
      "fix": 3090,
      "१८": 3091,
      "समावेश": 3092,
      "यहूदा": 3093,
      "बोलपत्र": 3094,
      "Director": 3095,
      "मती": 3096,
      "ल्य": 3097,
      "server": 3098,
      "पहिले": 3099,
      "ण्ट": 3100,
      "हात": 3101,
      "All": 3102,
      "sol": 3103,
      "exam": 3104,
      "what": 3105,
      "तपाईंले": 3106,
      "क्लिक": 3107,
      "पालन": 3108,
      "ither": 3109,
      "iah": 3110,
      "punish": 3111,
      "Rs": 3112,
      "जस्ता": 3113,
      "पाप": 3114,
      "सम्पूर्ण": 3115,
      "grow": 3116,
      "thousand": 3117,
      "एली": 3118,
      "198": 3119,
      "Chapter": 3120,
      "sto": 3121,
      "remain": 3122,
      "sons": 3123,
      "गए": 3124,
      "str": 3125,
      "ट्टी": 3126,
      "many": 3127,
      "लै": 3128,
      "matters": 3129,
      "क्ट": 3130,
      "संलग्न": 3131,
      "property": 3132,
      "मका": 3133,
      "provid": 3134,
      "11": 3135,
      "David": 3136,
      "away": 3137,
      "पशु": 3138,
      "र्ता": 3139,
      "enc": 3140,
      "जीवन": 3141,
      "भइ": 3142,
      "परिवार": 3143,
      "लोक": 3144,
      "मूल्याङ्क": 3145,
      "jud": 3146,
      "१४": 3147,
      "illage": 3148,
      "Officer": 3149,
      "सामान": 3150,
      "issued": 3151,
      "ered": 3152,
      "पाइ": 3153,
      "Chi": 3154,
      "fail": 3155,
      "पूर्वनिर्धारित": 3156,
      "control": 3157,
      "न्याय": 3158,
      "विश्वास": 3159,
      "oc": 3160,
      "officer": 3161,
      "Lord": 3162,
      "व्यक्तिको": 3163,
      "सड": 3164,
      "हस्ता": 3165,
      "taining": 3166,
      "ird": 3167,
      "न्छन्": 3168,
      "उनले": 3169,
      "पूजाहारी": 3170,
      "uch": 3171,
      "नभएको": 3172,
      "abo": 3173,
      "fine": 3174,
      "म्रा": 3175,
      "azet": 3176,
      "mer": 3177,
      "duties": 3178,
      "त्यसरी": 3179,
      "Then": 3180,
      "Error": 3181,
      "called": 3182,
      "यसरी": 3183,
      "submitted": 3184,
      "२०६": 3185,
      "ंग": 3186,
      "ification": 3187,
      "थे": 3188,
      "उनी": 3189,
      "ट्या": 3190,
      "भाषा": 3191,
      "rought": 3192,
      "Ac": 3193,
      "अगा": 3194,
      "withstanding": 3195,
      "चाहनुहुन्छ": 3196,
      "evalu": 3197,
      "यरू": 3198,
      "export": 3199,
      "pop": 3200,
      "हुला": 3201,
      "thereof": 3202,
      "बैंक": 3203,
      "अन्तिम": 3204,
      "different": 3205,
      "मन्दि": 3206,
      "sett": 3207,
      "र्षिक": 3208,
      "कू": 3209,
      "यसर्थ": 3210,
      "भुक्तानी": 3211,
      "cost": 3212,
      "टु": 3213,
      "पाँच": 3214,
      "investment": 3215,
      "force": 3216,
      "दाता": 3217,
      "Public": 3218,
      "ials": 3219,
      "whether": 3220,
      "har": 3221,
      "वाई": 3222,
      "Set": 3223,
      "15": 3224,
      "option": 3225,
      "इनेछ": 3226,
      "प्रविधि": 3227,
      "deemed": 3228,
      "already": 3229,
      "क्सा": 3230,
      "education": 3231,
      "महत्व": 3232,
      "various": 3233,
      "उच्च": 3234,
      "bor": 3235,
      "ying": 3236,
      "error": 3237,
      "भएपछि": 3238,
      "propos": 3239,
      "तपाईंको": 3240,
      "documents": 3241,
      "obje": 3242,
      "व्यापार": 3243,
      "Corporation": 3244,
      "Fund": 3245,
      "Jes": 3246,
      "पूर्वा": 3247,
      "Chief": 3248,
      "निजा": 3249,
      "rial": 3250,
      "four": 3251,
      "साधन": 3252,
      "until": 3253,
      "dele": 3254,
      "assist": 3255,
      "अधिकारीले": 3256,
      "निजामती": 3257,
      "संघ": 3258,
      "due": 3259,
      "mater": 3260,
      "user": 3261,
      "नेपाली": 3262,
      "खत": 3263,
      "फारि": 3264,
      "General": 3265,
      "Notwithstanding": 3266,
      "On": 3267,
      "हेर": 3268,
      "both": 3269,
      "design": 3270,
      "यरूशले": 3271,
      "keep": 3272,
      "रोड": 3273,
      "सकिँदैन": 3274,
      "मोशा": 3275,
      "earth": 3276,
      "गैर": 3277,
      "सिफारि": 3278,
      "civil": 3279,
      "Whi": 3280,
      "rin": 3281,
      "ममा": 3282,
      "समस्या": 3283,
      "mail": 3284,
      "light": 3285,
      "security": 3286,
      "laws": 3287,
      "aw": 3288,
      "ड्ढ": 3289,
      "ral": 3290,
      "चना": 3291,
      "city": 3292,
      "kind": 3293,
      "recomm": 3294,
      "प्रतिनि": 3295,
      "appropri": 3296,
      "12": 3297,
      "निरी": 3298,
      "lick": 3299,
      "conduct": 3300,
      "वार्षिक": 3301,
      "therefore": 3302,
      "सामान्य": 3303,
      "While": 3304,
      "left": 3305,
      "ctives": 3306,
      "least": 3307,
      "prevailing": 3308,
      "Pow": 3309,
      "हक": 3310,
      "ुवा": 3311,
      "पर्व": 3312,
      "पिता": 3313,
      "ivers": 3314,
      "चय": 3315,
      "ati": 3316,
      "approval": 3317,
      "उत्तर": 3318,
      "dest": 3319,
      "brought": 3320,
      "१६": 3321,
      "तामा": 3322,
      "तरिका": 3323,
      "उसलाई": 3324,
      "धितोपत्र": 3325,
      "डल": 3326,
      "enti": 3327,
      "ders": 3328,
      "lab": 3329,
      "ient": 3330,
      "जवा": 3331,
      "दस्तु": 3332,
      "Where": 3333,
      "Ag": 3334,
      "uty": 3335,
      "Jer": 3336,
      "०००": 3337,
      "entity": 3338,
      "शत्रु": 3339,
      "net": 3340,
      "प्ले": 3341,
      "ond": 3342,
      "create": 3343,
      "थो": 3344,
      "स्वीकृत": 3345,
      "तालिम": 3346,
      "हामीले": 3347,
      "हाम्रो": 3348,
      "त्यु": 3349,
      "राख्नु": 3350,
      "हामीलाई": 3351,
      "bility": 3352,
      "og": 3353,
      "तथ": 3354,
      "employees": 3355,
      "policy": 3356,
      "पटक": 3357,
      "करोड": 3358,
      "निम्न": 3359,
      "tification": 3360,
      "Af": 3361,
      "Use": 3362,
      "how": 3363,
      "ough": 3364,
      "विध": 3365,
      "रोजग": 3366,
      "सङ्ख्या": 3367,
      "ately": 3368,
      "कार्यविधि": 3369,
      "endment": 3370,
      "help": 3371,
      "लिने": 3372,
      "गर्नका": 3373,
      "स्वीकार": 3374,
      "carried": 3375,
      "heart": 3376,
      "conditions": 3377,
      "fied": 3378,
      "राख्न": 3379,
      "message": 3380,
      "hap": 3381,
      "वाता": 3382,
      "रेखा": 3383,
      "हुँदा": 3384,
      "bring": 3385,
      "यन्त्र": 3386,
      "निकायले": 3387,
      "contin": 3388,
      "मुद्रण": 3389,
      "खोजी": 3390,
      "bar": 3391,
      "दिन्छ": 3392,
      "special": 3393,
      "obtained": 3394,
      "प्ति": 3395,
      "स्वत": 3396,
      "Or": 3397,
      "भर्": 3398,
      "निकास": 3399,
      "उनेछ": 3400,
      "काठ": 3401,
      "impro": 3402,
      "कारणले": 3403,
      "ठौं": 3404,
      "mod": 3405,
      "कलाई": 3406,
      "ality": 3407,
      "पालिका": 3408,
      "limit": 3409,
      "might": 3410,
      "उपभो": 3411,
      "योजनामा": 3412,
      "पार्न": 3413,
      "आइ": 3414,
      "standard": 3415,
      "plac": 3416,
      "मानिसले": 3417,
      "घु": 3418,
      "वल": 3419,
      "जाने": 3420,
      "ज्या": 3421,
      "Date": 3422,
      "परेको": 3423,
      "याता": 3424,
      "court": 3425,
      "life": 3426,
      "anch": 3427,
      "मिश्र": 3428,
      "टिङ": 3429,
      "contract": 3430,
      "लाख": 3431,
      "ash": 3432,
      "default": 3433,
      "सरकारको": 3434,
      "Service": 3435,
      "rep": 3436,
      "mis": 3437,
      "चाइ": 3438,
      "endit": 3439,
      "गर्नको": 3440,
      "find": 3441,
      "board": 3442,
      "र्य": 3443,
      "matic": 3444,
      "logy": 3445,
      "management": 3446,
      "सेवाको": 3447,
      "मृत्यु": 3448,
      "unic": 3449,
      "दश": 3450,
      "object": 3451,
      "दायित्व": 3452,
      "मिला": 3453,
      "सर्भर": 3454,
      "sou": 3455,
      "ansa": 3456,
      "चाहे": 3457,
      "देखिन्छ": 3458,
      "Rupees": 3459,
      "मूल्याङ्कन": 3460,
      "वातावरण": 3461,
      "बहु": 3462,
      "ountain": 3463,
      "most": 3464,
      "accordance": 3465,
      "food": 3466,
      "estim": 3467,
      "cannot": 3468,
      "नन्": 3469,
      "विश्वविद्यालय": 3470,
      "brother": 3471,
      "यातायात": 3472,
      "पुर्या": 3473,
      "स्थायी": 3474,
      "admin": 3475,
      "हुलाक": 3476,
      "Dis": 3477,
      "reement": 3478,
      "क्य": 3479,
      "iversity": 3480,
      "Whether": 3481,
      "राब": 3482,
      "Local": 3483,
      "att": 3484,
      "निश्चित": 3485,
      "manner": 3486,
      "ष्ठा": 3487,
      "ey": 3488,
      "............": 3489,
      "दस्तुर": 3490,
      "लगइन": 3491,
      "विद्युत": 3492,
      "१७": 3493,
      "address": 3494,
      "cast": 3495,
      "last": 3496,
      "deli": 3497,
      ",\"": 3498,
      "regard": 3499,
      "Add": 3500,
      "16": 3501,
      "Jo": 3502,
      "send": 3503,
      "हुनेछन्": 3504,
      "शुल्": 3505,
      "unicip": 3506,
      "अक्षम": 3507,
      "Comp": 3508,
      "gg": 3509,
      "bal": 3510,
      "sm": 3511,
      "मले": 3512,
      "custo": 3513,
      "Jesus": 3514,
      "जरि": 3515,
      "वधि": 3516,
      "देशको": 3517,
      "depos": 3518,
      "Secretary": 3519,
      "icant": 3520,
      "डेटा": 3521,
      "ude": 3522,
      "priest": 3523,
      "Cannot": 3524,
      "बल": 3525,
      "साँ": 3526,
      "सिं": 3527,
      "rug": 3528,
      "गाउँ": 3529,
      "Po": 3530,
      "nam": 3531,
      "words": 3532,
      "request": 3533,
      "vey": 3534,
      "उनीहरू": 3535,
      "मनो": 3536,
      "वास्त": 3537,
      "uted": 3538,
      "एकजना": 3539,
      "Clause": 3540,
      "अथ": 3541,
      "सोही": 3542,
      "employ": 3543,
      "पुस्त": 3544,
      "क्रिय": 3545,
      "डाइरे": 3546,
      "उपभोक्ता": 3547,
      "fall": 3548,
      "वर्षमा": 3549,
      "धिकरण": 3550,
      "ways": 3551,
      "तोकेको": 3552,
      "आपूर्ति": 3553,
      "permission": 3554,
      "नियमित": 3555,
      "चिन्": 3556,
      "edures": 3557,
      "selves": 3558,
      "Relating": 3559,
      "प्रसार": 3560,
      "अतिरिक्त": 3561,
      "अन": 3562,
      "rop": 3563,
      "धिकारी": 3564,
      "provisions": 3565,
      "Go": 3566,
      "प्रतिष्ठा": 3567,
      "check": 3568,
      "आयात": 3569,
      "सको": 3570,
      "organization": 3571,
      "manag": 3572,
      "206": 3573,
      "भौ": 3574,
      "district": 3575,
      "appropriate": 3576,
      "घो": 3577,
      "button": 3578,
      "सुरक्षा": 3579,
      "bl": 3580,
      "योजनको": 3581,
      "हकमा": 3582,
      "second": 3583,
      "Col": 3584,
      "दण्ड": 3585,
      "कला": 3586,
      "ors": 3587,
      "सेना": 3588,
      "cases": 3589,
      "Other": 3590,
      "धनी": 3591,
      "अथवा": 3592,
      "कहरू": 3593,
      "रही": 3594,
      "स्वर्ग": 3595,
      "स्थानमा": 3596,
      "लाग्ने": 3597,
      "class": 3598,
      "चाँ": 3599,
      "रुपैयाँ": 3600,
      "13": 3601,
      "table": 3602,
      "मेर": 3603,
      "सीमा": 3604,
      "annu": 3605,
      "त्यही": 3606,
      "बारेमा": 3607,
      "ban": 3608,
      "kes": 3609,
      "eration": 3610,
      "क्षि": 3611,
      "देशमा": 3612,
      "ordin": 3613,
      "vironment": 3614,
      "above": 3615,
      "?\"": 3616,
      "acity": 3617,
      "नदी": 3618,
      "तीमा": 3619,
      "पार्नुहोस्": 3620,
      "महिला": 3621,
      "item": 3622,
      "tour": 3623,
      "प्रकाशित": 3624,
      "den": 3625,
      "थप्": 3626,
      "separ": 3627,
      "ched": 3628,
      "quiry": 3629,
      "additional": 3630,
      "hu": 3631,
      "hundred": 3632,
      "ls": 3633,
      "‍या": 3634,
      "राखी": 3635,
      "At": 3636,
      "सामग्री": 3637,
      "गराउनु": 3638,
      "ज्ञान": 3639,
      "recommend": 3640,
      "निकासी": 3641,
      "सम्पर्": 3642,
      "लन": 3643,
      "uration": 3644,
      "move": 3645,
      "Show": 3646,
      "थ्यो": 3647,
      "तिनीहरूका": 3648,
      "She": 3649,
      "We": 3650,
      "खारे": 3651,
      "तमा": 3652,
      "ism": 3653,
      "सामाजिक": 3654,
      "payment": 3655,
      "distribution": 3656,
      "ron": 3657,
      "vered": 3658,
      "न्दु": 3659,
      "parti": 3660,
      "ल्यै": 3661,
      "Per": 3662,
      "मन": 3663,
      "अवस्थित": 3664,
      "Tra": 3665,
      "ल्ने": 3666,
      "venth": 3667,
      "18": 3668,
      "च्या": 3669,
      "माध्य": 3670,
      "eding": 3671,
      "arrange": 3672,
      "संस्थाले": 3673,
      "प्राथमिकता": 3674,
      "semb": 3675,
      "teach": 3676,
      "charge": 3677,
      "नष्ट": 3678,
      "promotion": 3679,
      "नियुक्ति": 3680,
      "मोड": 3681,
      "Res": 3682,
      "दृष्टि": 3683,
      "डाइरेक्ट": 3684,
      "बनेको": 3685,
      "वृत्": 3686,
      "DE": 3687,
      "फत": 3688,
      "ding": 3689,
      "thor": 3690,
      "prior": 3691,
      "कसू": 3692,
      "held": 3693,
      "२५": 3694,
      "वर्ण": 3695,
      "Sa": 3696,
      "cour": 3697,
      "Provision": 3698,
      "अन्त्य": 3699,
      "registered": 3700,
      "लिनु": 3701,
      "----": 3702,
      "appointed": 3703,
      "विकासको": 3704,
      "possible": 3705,
      "market": 3706,
      "आई": 3707,
      "research": 3708,
      "ites": 3709,
      "श्रे": 3710,
      "technical": 3711,
      "Tr": 3712,
      "communication": 3713,
      "कानु": 3714,
      "Ab": 3715,
      "Te": 3716,
      "प्रयोजनको": 3717,
      "खाने": 3718,
      "prin": 3719,
      "रहने": 3720,
      "ather": 3721,
      "mountain": 3722,
      "resu": 3723,
      "Cre": 3724,
      "क्का": 3725,
      "फिल्": 3726,
      "collect": 3727,
      "उल्लिखित": 3728,
      "व्यवसायी": 3729,
      "paid": 3730,
      "निजले": 3731,
      "ances": 3732,
      "chi": 3733,
      "संस्": 3734,
      "लिएको": 3735,
      "follows": 3736,
      "येशूले": 3737,
      "Are": 3738,
      "शुल्क": 3739,
      "New": 3740,
      "तिमीहरूका": 3741,
      "सङ्के": 3742,
      "भवन": 3743,
      "share": 3744,
      "तिमीहरूको": 3745,
      "transa": 3746,
      "copy": 3747,
      "औद्योग": 3748,
      "tili": 3749,
      "University": 3750,
      "करार": 3751,
      "पुर्‍या": 3752,
      "offering": 3753,
      "नं": 3754,
      "शू": 3755,
      "mid": 3756,
      "nal": 3757,
      "चो": 3758,
      "Therefore": 3759,
      "frame": 3760,
      "proble": 3761,
      "देखाउनुहोस्": 3762,
      "जन्": 3763,
      "terms": 3764,
      "bid": 3765,
      "vol": 3766,
      "पुर": 3767,
      "आत्": 3768,
      "took": 3769,
      "sha": 3770,
      "rigation": 3771,
      "whom": 3772,
      "dom": 3773,
      "14": 3774,
      "Par": 3775,
      "निका": 3776,
      "रोग": 3777,
      "etc": 3778,
      "जुमा": 3779,
      "prote": 3780,
      "urned": 3781,
      "Moses": 3782,
      "भनि": 3783,
      "posi": 3784,
      "wit": 3785,
      "बचा": 3786,
      "सै": 3787,
      "inspe": 3788,
      "बैङ्क": 3789,
      "ग्रह": 3790,
      "expendit": 3791,
      "डाइरेक्टरी": 3792,
      "जहाँ": 3793,
      "दुष्ट": 3794,
      "effe": 3795,
      "months": 3796,
      "didn": 3797,
      "साइज": 3798,
      "संगठ": 3799,
      "drin": 3800,
      "लाइन": 3801,
      "along": 3802,
      "तर्जुमा": 3803,
      "नगरपालिका": 3804,
      "Gazet": 3805,
      "cred": 3806,
      "da": 3807,
      "न्यून": 3808,
      "वेद": 3809,
      "trade": 3810,
      "जनसंख्या": 3811,
      "म्बर": 3812,
      "Lic": 3813,
      "mode": 3814,
      "दिई": 3815,
      "vesti": 3816,
      "invol": 3817,
      "cir": 3818,
      "छै": 3819,
      "सेटिङ": 3820,
      "face": 3821,
      "ML": 3822,
      "ठारी": 3823,
      "roy": 3824,
      "विचार": 3825,
      "हाम्रा": 3826,
      "completed": 3827,
      "uses": 3828,
      "venue": 3829,
      "सञ्चार": 3830,
      "corpor": 3831,
      "मर्श": 3832,
      "तको": 3833,
      "देशिक": 3834,
      "उहाँको": 3835,
      "Village": 3836,
      "dit": 3837,
      "फर": 3838,
      "encement": 3839,
      "गएको": 3840,
      "पक": 3841,
      "expe": 3842,
      "usal": 3843,
      "implementation": 3844,
      "Judah": 3845,
      "पैठारी": 3846,
      "स्त्री": 3847,
      "price": 3848,
      "भै": 3849,
      "ple": 3850,
      "कर्मचारीको": 3851,
      "capacity": 3852,
      "सही": 3853,
      "ines": 3854,
      "सडक": 3855,
      "just": 3856,
      "नवी": 3857,
      "देव": 3858,
      "taking": 3859,
      "परियोजना": 3860,
      "महिना": 3861,
      "These": 3862,
      "प्रतिनिधि": 3863,
      "duty": 3864,
      "max": 3865,
      "उत्पाद": 3866,
      "struct": 3867,
      "Unable": 3868,
      "draw": 3869,
      "oura": 3870,
      "प्रबन्ध": 3871,
      "mple": 3872,
      "गरिन्छ": 3873,
      "Enter": 3874,
      "commit": 3875,
      "निर्देशन": 3876,
      "केन्द्री": 3877,
      "Body": 3878,
      "पर्दा": 3879,
      "augh": 3880,
      "answ": 3881,
      "अरु": 3882,
      "बारे": 3883,
      "पृथ": 3884,
      "population": 3885,
      "scho": 3886,
      "depart": 3887,
      "agreement": 3888,
      "school": 3889,
      "anim": 3890,
      "bear": 3891,
      "lock": 3892,
      "resid": 3893,
      "नियुक्त": 3894,
      "dri": 3895,
      "sen": 3896,
      "जू": 3897,
      "सङ्ग": 3898,
      "Five": 3899,
      "gl": 3900,
      "increased": 3901,
      "त्यस्ता": 3902,
      "supply": 3903,
      "industries": 3904,
      "»»": 3905,
      "उठ": 3906,
      "stitute": 3907,
      "based": 3908,
      "दिइएको": 3909,
      "wenty": 3910,
      "happen": 3911,
      "कर्मचारीले": 3912,
      "सुरक्षित": 3913,
      "including": 3914,
      "Jerusal": 3915,
      "Jerusalem": 3916,
      "पहा": 3917,
      "ब्या": 3918,
      "मित": 3919,
      "meas": 3920,
      "save": 3921,
      "जाँचबुझ": 3922,
      "परामर्श": 3923,
      "full": 3924,
      "general": 3925,
      "ठीक": 3926,
      "क्रमण": 3927,
      "मितिले": 3928,
      "प्रशासन": 3929,
      "sti": 3930,
      "Cent": 3931,
      "ben": 3932,
      "eds": 3933,
      "study": 3934,
      "equ": 3935,
      "द्रा": 3936,
      "फ्रे": 3937,
      "सक": 3938,
      "सुल": 3939,
      "................................": 3940,
      "electric": 3941,
      "दिनभित्र": 3942,
      "box": 3943,
      "bre": 3944,
      "पश्": 3945,
      "environment": 3946,
      "परे": 3947,
      "config": 3948,
      "औद्योगिक": 3949,
      "ai": 3950,
      "लका": 3951,
      "चीज": 3952,
      "औषधि": 3953,
      "आज्ञा": 3954,
      "ख्री": 3955,
      "nology": 3956,
      "print": 3957,
      "matter": 3958,
      "क्षर": 3959,
      "राख्ने": 3960,
      "reng": 3961,
      "written": 3962,
      "कम्तीमा": 3963,
      "सम्पर्क": 3964,
      "उपा": 3965,
      "३०": 3966,
      "भनेर": 3967,
      "ख्रीष्ट": 3968,
      "काश": 3969,
      "क्रो": 3970,
      "यात्र": 3971,
      "कार्यमा": 3972,
      "खास": 3973,
      "रहनेछ": 3974,
      "क्षमता": 3975,
      "Behold": 3976,
      "मूर्": 3977,
      "situ": 3978,
      "lar": 3979,
      "्वी": 3980,
      "alog": 3981,
      "फिर्ता": 3982,
      "umn": 3983,
      "खोल्न": 3984,
      "Egy": 3985,
      "तत्": 3986,
      "प्रवेश": 3987,
      "गमन": 3988,
      "बाँकी": 3989,
      "किता": 3990,
      "रूद्ध": 3991,
      "न्तु": 3992,
      "अप": 3993,
      "मीण": 3994,
      "प्रस्तु": 3995,
      "chair": 3996,
      "मानिसहरूको": 3997,
      "employment": 3998,
      "regular": 3999,
      "building": 4000,
      "respect": 4001,
      "materials": 4002,
      "small": 4003,
      "bil": 4004,
      "बटन": 4005,
      "गर्नुपर्ने": 4006,
      "असल": 4007,
      "पदाधिकारी": 4008,
      "म्मे": 4009,
      "Six": 4010,
      "tizen": 4011,
      "Municip": 4012,
      "roll": 4013,
      "dep": 4014,
      "contain": 4015,
      "acce": 4016,
      "भाइ": 4017,
      "effect": 4018,
      "प्रमाणित": 4019,
      "गराई": 4020,
      "घटना": 4021,
      "ग्रामीण": 4022,
      "सब": 4023,
      "दृश्य": 4024,
      "growth": 4025,
      "evaluation": 4026,
      "चालित": 4027,
      "जोड": 4028,
      "कसै": 4029,
      "ecutive": 4030,
      "social": 4031,
      "creen": 4032,
      "दृढ": 4033,
      "capital": 4034,
      "लम्ब": 4035,
      "योग्यता": 4036,
      "ब्र": 4037,
      "यि": 4038,
      "पुनः": 4039,
      "गणना": 4040,
      "अपना": 4041,
      "UR": 4042,
      "मानिनेछ": 4043,
      "return": 4044,
      "war": 4045,
      "मना": 4046,
      "वक्ता": 4047,
      "दानी": 4048,
      "डर": 4049,
      "साय": 4050,
      "procurement": 4051,
      "clear": 4052,
      "अगम": 4053,
      "लामा": 4054,
      "forest": 4055,
      "लाग्": 4056,
      "लोकन": 4057,
      "लियन": 4058,
      "After": 4059,
      "ट्र": 4060,
      "छैनन्": 4061,
      "surance": 4062,
      "मालिक": 4063,
      "industrial": 4064,
      "50": 4065,
      "Des": 4066,
      "National": 4067,
      "५०": 4068,
      "lie": 4069,
      "hal": 4070,
      "जति": 4071,
      "sell": 4072,
      "inten": 4073,
      "इस्राएली": 4074,
      "पृथ्वी": 4075,
      "एस": 4076,
      "मान्य": 4077,
      "17": 4078,
      "कति": 4079,
      "बापत": 4080,
      "सकिनेछ": 4081,
      "effective": 4082,
      "Sy": 4083,
      "हुँदै": 4084,
      "Gazette": 4085,
      "How": 4086,
      "बैं": 4087,
      "?”": 4088,
      "साना": 4089,
      "हरेक": 4090,
      "procedures": 4091,
      "नवीकरण": 4092,
      "assistance": 4093,
      "न्स": 4094,
      "परिषद्को": 4095,
      "hear": 4096,
      "women": 4097,
      "existing": 4098,
      "राजपत्रमा": 4099,
      "nomin": 4100,
      "leave": 4101,
      "tool": 4102,
      "त्साह": 4103,
      "टाइ": 4104,
      "firm": 4105,
      "source": 4106,
      "छौं": 4107,
      "भरि": 4108,
      "विरूद्ध": 4109,
      "become": 4110,
      "कार्यको": 4111,
      "निर्यात": 4112,
      "known": 4113,
      "किताब": 4114,
      "Pre": 4115,
      "रुवा": 4116,
      "maintain": 4117,
      "न्याया": 4118,
      "chief": 4119,
      "टको": 4120,
      "षित": 4121,
      "वर्ड": 4122,
      "working": 4123,
      "ancell": 4124,
      "आफ्नै": 4125,
      "न्तरिक": 4126,
      "आन्तरिक": 4127,
      "झा": 4128,
      "सय": 4129,
      "stat": 4130,
      "otherwise": 4131,
      "स्थल": 4132,
      "Ta": 4133,
      "wa": 4134,
      "लले": 4135,
      "angu": 4136,
      "mal": 4137,
      "annual": 4138,
      "प्रश": 4139,
      "around": 4140,
      "किना": 4141,
      "अनुप्रयोग": 4142,
      "corre": 4143,
      "दिइनेछ": 4144,
      "fif": 4145,
      "ones": 4146,
      "व्यहो": 4147,
      "sive": 4148,
      "बिन्दु": 4149,
      "सैनिक": 4150,
      "जर": 4151,
      "नहुने": 4152,
      "dio": 4153,
      "सहभाग": 4154,
      "Amendment": 4155,
      "qualification": 4156,
      "ठाउँमा": 4157,
      "Open": 4158,
      "आर": 4159,
      "भी": 4160,
      "तिनले": 4161,
      "क्षति": 4162,
      "framed": 4163,
      "sembly": 4164,
      "vity": 4165,
      "श्रम": 4166,
      "दिनेछ": 4167,
      "test": 4168,
      "सम्पन्न": 4169,
      "कार्यकारी": 4170,
      "सम्मको": 4171,
      "196": 4172,
      "त्र्": 4173,
      "लिएर": 4174,
      "operate": 4175,
      "grant": 4176,
      "eat": 4177,
      "हरूबाट": 4178,
      "ending": 4179,
      "30": 4180,
      "drug": 4181,
      "हाज": 4182,
      "changes": 4183,
      "tiliz": 4184,
      "maj": 4185,
      "समर्थन": 4186,
      "Emp": 4187,
      "fl": 4188,
      "उन्": 4189,
      "comes": 4190,
      "session": 4191,
      "Ne": 4192,
      "थु": 4193,
      "यहो": 4194,
      "सोको": 4195,
      "fire": 4196,
      "camp": 4197,
      "Any": 4198,
      "यहूदी": 4199,
      "cational": 4200,
      "उक्त": 4201,
      "पञ्": 4202,
      "त्ता": 4203,
      "पुरा": 4204,
      "हरी": 4205,
      "म्प": 4206,
      "छोरो": 4207,
      "column": 4208,
      "कृतिक": 4209,
      "नोक्सा": 4210,
      "देहायको": 4211,
      "agricultural": 4212,
      "Pri": 4213,
      "दछन्": 4214,
      "ering": 4215,
      "auto": 4216,
      "fee": 4217,
      "immedi": 4218,
      "धर्": 4219,
      "inquiry": 4220,
      "laim": 4221,
      "tical": 4222,
      "युद्ध": 4223,
      "खेल": 4224,
      "पुनरावेदन": 4225,
      "Admin": 4226,
      "ised": 4227,
      "ark": 4228,
      "course": 4229,
      "KDE": 4230,
      "bond": 4231,
      "san": 4232,
      "वरि": 4233,
      "Some": 4234,
      "मालसामान": 4235,
      "exchange": 4236,
      "Pr": 4237,
      "सञ्चालक": 4238,
      ".,": 4239,
      "सिक": 4240,
      "सन्द": 4241,
      "ढाँचामा": 4242,
      "directory": 4243,
      ".'": 4244,
      "mone": 4245,
      "संवाद": 4246,
      "दुवै": 4247,
      "relation": 4248,
      "determined": 4249,
      "आए": 4250,
      "नल": 4251,
      "हित": 4252,
      "graph": 4253,
      "प्रभावकारी": 4254,
      "जवाफ": 4255,
      "consult": 4256,
      "met": 4257,
      "दुइ": 4258,
      "particip": 4259,
      "gether": 4260,
      "abled": 4261,
      "neither": 4262,
      "त्यसलाई": 4263,
      "With": 4264,
      "सक्रिय": 4265,
      "दिनुहोस्": 4266,
      "version": 4267,
      "size": 4268,
      "Rep": 4269,
      "conf": 4270,
      "gal": 4271,
      "र्या": 4272,
      "बनाउने": 4273,
      "cription": 4274,
      "चिन्ह": 4275,
      "ences": 4276,
      "lip": 4277,
      "direct": 4278,
      "family": 4279,
      "र्ट": 4280,
      "महत्वपूर्ण": 4281,
      "His": 4282,
      "Let": 4283,
      "व्": 4284,
      "proce": 4285,
      "irty": 4286,
      "IM": 4287,
      "पट्टी": 4288,
      "author": 4289,
      "डलर": 4290,
      "Fail": 4291,
      "थाहा": 4292,
      "स्तम्भ": 4293,
      "teen": 4294,
      "himself": 4295,
      "aven": 4296,
      "kill": 4297,
      "न्ने": 4298,
      "toward": 4299,
      "dialog": 4300,
      "accounts": 4301,
      "जाति": 4302,
      "अभिलेख": 4303,
      "mil": 4304,
      "णि": 4305,
      "तालिका": 4306,
      "hor": 4307,
      "२१": 4308,
      "Create": 4309,
      "नेपालको": 4310,
      "daugh": 4311,
      "पित": 4312,
      "enses": 4313,
      "गर्दैन": 4314,
      "सम्भा": 4315,
      "tell": 4316,
      "together": 4317,
      "सुदृढ": 4318,
      "renew": 4319,
      "पर्यटन": 4320,
      "फिल्टर": 4321,
      "gold": 4322,
      "टाढा": 4323,
      "प्रशास": 4324,
      "prepared": 4325,
      "loss": 4326,
      "निकायको": 4327,
      "fulfill": 4328,
      "evid": 4329,
      "धु": 4330,
      "अन्तर्राष्ट्रिय": 4331,
      "implemented": 4332,
      "दूर": 4333,
      "२०५": 4334,
      "इने": 4335,
      "मबाट": 4336,
      "failed": 4337,
      "\",": 4338,
      "मय": 4339,
      "products": 4340,
      "wid": 4341,
      "six": 4342,
      "Seventh": 4343,
      "भूमिमा": 4344,
      "वर": 4345,
      "अगाडि": 4346,
      "tif": 4347,
      "तान": 4348,
      "मानिसको": 4349,
      "commer": 4350,
      "policies": 4351,
      "सिफारिस": 4352,
      "पहु": 4353,
      "cul": 4354,
      "।’": 4355,
      "seven": 4356,
      "saw": 4357,
      "commencement": 4358,
      "वैदेशिक": 4359,
      "चिक": 4360,
      "्रय": 4361,
      "सक्नु": 4362,
      "भूत": 4363,
      "spital": 4364,
      "उदा": 4365,
      "ढु": 4366,
      "मद्द": 4367,
      "विनि": 4368,
      "दूत": 4369,
      "सातौं": 4370,
      "Save": 4371,
      "gate": 4372,
      "ential": 4373,
      "शुद्ध": 4374,
      "पदमा": 4375,
      "स्थितिमा": 4376,
      "पासवर्ड": 4377,
      "Power": 4378,
      "vable": 4379,
      "प्ट": 4380,
      "indi": 4381,
      "yet": 4382,
      "चढ": 4383,
      "represent": 4384,
      "short": 4385,
      "formed": 4386,
      "संचालन": 4387,
      "यसै": 4388,
      "गे": 4389,
      "look": 4390,
      "देऊ": 4391,
      "lines": 4392,
      "नम्बर": 4393,
      "tis": 4394,
      "evil": 4395,
      "वासी": 4396,
      "teous": 4397,
      "obtain": 4398,
      "ticular": 4399,
      "राष्टि": 4400,
      "निजलाई": 4401,
      "providing": 4402,
      "next": 4403,
      "उनको": 4404,
      "गर्छन्": 4405,
      "धारा": 4406,
      "fact": 4407,
      "205": 4408,
      "international": 4409,
      "उजु": 4410,
      "।।": 4411,
      "पर्या": 4412,
      "Inter": 4413,
      "try": 4414,
      "झैं": 4415,
      "stu": 4416,
      "righ": 4417,
      "ends": 4418,
      "शिक्षण": 4419,
      "marks": 4420,
      "प्रस्तुत": 4421,
      "बसे": 4422,
      "चाहि": 4423,
      "ल्याउन": 4424,
      "AP": 4425,
      "Cer": 4426,
      "accomp": 4427,
      "मेट": 4428,
      "कामको": 4429,
      "Mr": 4430,
      "भोग": 4431,
      "निष्": 4432,
      "प्रकारको": 4433,
      "maximum": 4434,
      "मद्दत": 4435,
      "Ph": 4436,
      "heard": 4437,
      "lood": 4438,
      "अनुरोध": 4439,
      "204": 4440,
      "मार्फत": 4441,
      "कोषको": 4442,
      "remove": 4443,
      "पहुँच": 4444,
      "technology": 4445,
      "Ho": 4446,
      "िता": 4447,
      "half": 4448,
      "bur": 4449,
      "ition": 4450,
      "survey": 4451,
      "write": 4452,
      "demand": 4453,
      "गर्नुहुन्छ": 4454,
      "nel": 4455,
      "मुद्रा": 4456,
      "punishment": 4457,
      "License": 4458,
      "राष्टि्रय": 4459,
      "धिकार": 4460,
      "cade": 4461,
      "निरीक्षण": 4462,
      "expected": 4463,
      "Municipality": 4464,
      "टमा": 4465,
      "छोरी": 4466,
      "irit": 4467,
      "प्रार्थ": 4468,
      "cum": 4469,
      "शीर्ष": 4470,
      "investi": 4471,
      "rid": 4472,
      "हटाउन": 4473,
      "प्याके": 4474,
      "सुन": 4475,
      "भन्नुहुन्छ": 4476,
      "page": 4477,
      "map": 4478,
      "प्राधिकरण": 4479,
      "सरह": 4480,
      "target": 4481,
      "destroy": 4482,
      "वर्णन": 4483,
      "चिकित्": 4484,
      "य्": 4485,
      "वलोकन": 4486,
      "published": 4487,
      "righteous": 4488,
      "समन्व": 4489,
      "जनशक्ति": 4490,
      "organiz": 4491,
      "श्रेणी": 4492,
      "pack": 4493,
      "न्दा": 4494,
      "immediately": 4495,
      "भ्र": 4496,
      "न्नु": 4497,
      "खाद्य": 4498,
      "ङ्गा": 4499,
      "शाखा": 4500,
      "बराब": 4501,
      "फोटो": 4502,
      "industry": 4503,
      "ysical": 4504,
      "कन्फिगर": 4505,
      "estimated": 4506,
      "certain": 4507,
      "Egypt": 4508,
      "आउने": 4509,
      "सक्दैन": 4510,
      "कानू": 4511,
      "exceeding": 4512,
      "हस्तान्तरण": 4513,
      "chairperson": 4514,
      "उचित": 4515,
      "छल": 4516,
      "ples": 4517,
      "themselves": 4518,
      "farm": 4519,
      "जिष्ट": 4520,
      "Thousand": 4521,
      "stock": 4522,
      "mor": 4523,
      "२४": 4524,
      "प्रगति": 4525,
      "लागेको": 4526,
      "197": 4527,
      "Cont": 4528,
      "recommendation": 4529,
      "decl": 4530,
      "सम्भव": 4531,
      "irrigation": 4532,
      "यसो": 4533,
      "inte": 4534,
      "speak": 4535,
      "छुट्ट": 4536,
      "पुस्तक": 4537,
      "cing": 4538,
      "Land": 4539,
      "lit": 4540,
      "सध": 4541,
      "institutions": 4542,
      "conducted": 4543,
      "कसूर": 4544,
      "स्तरमा": 4545,
      "access": 4546,
      "खुला": 4547,
      "काठमा": 4548,
      "places": 4549,
      "rural": 4550,
      "अफ": 4551,
      "Thus": 4552,
      "except": 4553,
      "खारेज": 4554,
      "Failed": 4555,
      "outh": 4556,
      "वेक्षण": 4557,
      "compla": 4558,
      "बस्ने": 4559,
      "File": 4560,
      "आँ": 4561,
      "vious": 4562,
      "performance": 4563,
      "Pol": 4564,
      "नजिक": 4565,
      "तीस": 4566,
      "dies": 4567,
      "कर्मचारीलाई": 4568,
      "बैठकको": 4569,
      "examination": 4570,
      "आत्मा": 4571,
      "ined": 4572,
      "स्क्रि": 4573,
      "streng": 4574,
      "अनुगमन": 4575,
      "equip": 4576,
      "अत्य": 4577,
      "पण": 4578,
      "मानिसलाई": 4579,
      "श्रमिक": 4580,
      "mark": 4581,
      "quality": 4582,
      "प्रोत्साह": 4583,
      "prepare": 4584,
      "Kath": 4585,
      "बैठकमा": 4586,
      "manager": 4587,
      "रजिष्ट": 4588,
      "transfer": 4589,
      "फर्का": 4590,
      "पठाउनु": 4591,
      "ँजी": 4592,
      "अस्प": 4593,
      "२२": 4594,
      "ref": 4595,
      "ession": 4596,
      "हरा": 4597,
      "ल्न": 4598,
      "My": 4599,
      "plu": 4600,
      "अस्पता": 4601,
      "आमा": 4602,
      "जानु": 4603,
      "परिमाण": 4604,
      "central": 4605,
      "भेट": 4606,
      "official": 4607,
      "What": 4608,
      "संस्करण": 4609,
      "Don": 4610,
      "अङ्क": 4611,
      "ठो": 4612,
      "मुलु": 4613,
      "statement": 4614,
      "AR": 4615,
      "associ": 4616,
      "ift": 4617,
      "अवै": 4618,
      "सकिन्छ": 4619,
      "शुरु": 4620,
      "Che": 4621,
      "ृह": 4622,
      "susp": 4623,
      "२०३": 4624,
      "शासन": 4625,
      "particular": 4626,
      "तोक्": 4627,
      "काठमाड": 4628,
      "अधी": 4629,
      "position": 4630,
      "णिज्य": 4631,
      "wal": 4632,
      "कोण": 4633,
      "सानो": 4634,
      "ध्यान": 4635,
      "connection": 4636,
      "अगमवक्ता": 4637,
      "गर्यो": 4638,
      "दिनेछु": 4639,
      "हरुबाट": 4640,
      "sibility": 4641,
      "acts": 4642,
      "objectives": 4643,
      "Ja": 4644,
      "mic": 4645,
      "ped": 4646,
      "आउँ": 4647,
      "thod": 4648,
      "death": 4649,
      "वरिपरि": 4650,
      "Your": 4651,
      "langu": 4652,
      "तन्त्र": 4653,
      "permit": 4654,
      "प्रमाणीकरण": 4655,
      "ori": 4656,
      "क्षिक": 4657,
      "thentic": 4658,
      "Edu": 4659,
      "बद": 4660,
      "खाता": 4661,
      "servant": 4662,
      "cies": 4663,
      "जहाज": 4664,
      "प्रहरी": 4665,
      "दाखि": 4666,
      "गर्नुभयो": 4667,
      "adv": 4668,
      "क्रा": 4669,
      "path": 4670,
      "वधिक": 4671,
      "promo": 4672,
      "ides": 4673,
      "स्वचालित": 4674,
      "शिक्षक": 4675,
      "phe": 4676,
      "vation": 4677,
      "परेमा": 4678,
      "achie": 4679,
      "mandu": 4680,
      "प्रसारण": 4681,
      "Trans": 4682,
      "Fin": 4683,
      "दायाँ": 4684,
      "बमोजिमका": 4685,
      "यात्रा": 4686,
      "प्रार्थना": 4687,
      "कार्यालयमा": 4688,
      "priority": 4689,
      "सले": 4690,
      "काल": 4691,
      "सामु": 4692,
      "improve": 4693,
      "Acade": 4694,
      "लाभ": 4695,
      "atch": 4696,
      "भन्सार": 4697,
      "setting": 4698,
      "expenditure": 4699,
      "Ba": 4700,
      "gress": 4701,
      "adop": 4702,
      "factor": 4703,
      "portun": 4704,
      "rene": 4705,
      "शेयर": 4706,
      "medi": 4707,
      "यहूदाका": 4708,
      "encoura": 4709,
      "circum": 4710,
      "24": 4711,
      "ons": 4712,
      "हिसा": 4713,
      "दोस्रो": 4714,
      "messages": 4715,
      "spoke": 4716,
      "ng": 4717,
      "शाऊ": 4718,
      "बोला": 4719,
      "receip": 4720,
      "included": 4721,
      "असर": 4722,
      "अनुकूल": 4723,
      "पुग्": 4724,
      "संगठित": 4725,
      "commercial": 4726,
      "ricts": 4727,
      "offence": 4728,
      "tele": 4729,
      "किलो": 4730,
      "Imp": 4731,
      "chan": 4732,
      "curred": 4733,
      "Kathmandu": 4734,
      "Fif": 4735,
      "claim": 4736,
      "२३": 4737,
      "odies": 4738,
      "बढुवा": 4739,
      "देखिएमा": 4740,
      "प्याकेज": 4741,
      "During": 4742,
      "Sign": 4743,
      "जित": 4744,
      "ins": 4745,
      "प्रधान": 4746,
      "वाना": 4747,
      "rodu": 4748,
      "fees": 4749,
      "require": 4750,
      "समन्वय": 4751,
      "event": 4752,
      "erc": 4753,
      "मेनु": 4754,
      "पुगेको": 4755,
      "continu": 4756,
      "काठमाडौं": 4757,
      "rit": 4758,
      "aster": 4759,
      "active": 4760,
      "तपाईँलाई": 4761,
      "receive": 4762,
      "fixed": 4763,
      "aled": 4764,
      "सारा": 4765,
      "मर्मत": 4766,
      "Bir": 4767,
      "sc": 4768,
      "astra": 4769,
      "न्छु": 4770,
      "बैड्ढ": 4771,
      "password": 4772,
      "रूपले": 4773,
      "far": 4774,
      "rist": 4775,
      "पथ": 4776,
      "रद्द": 4777,
      "increasing": 4778,
      "केन्द्रीय": 4779,
      "reneur": 4780,
      "eas": 4781,
      "पाएको": 4782,
      "cell": 4783,
      "यसका": 4784,
      "near": 4785,
      "भएर": 4786,
      "ञ्चल": 4787,
      "opportun": 4788,
      "सुरुआ": 4789,
      "higher": 4790,
      "Two": 4791,
      "न्ति": 4792,
      "पात": 4793,
      "संयुक्त": 4794,
      "Indi": 4795,
      "समाचार": 4796,
      "प्रविष्टि": 4797,
      "कन्फिगरे": 4798,
      "corporate": 4799,
      "situation": 4800,
      "अवैध": 4801,
      "प्लगइन": 4802,
      "सकिएन": 4803,
      "ensation": 4804,
      "फन्ट": 4805,
      "स्तरको": 4806,
      "फाँ": 4807,
      "खुशी": 4808,
      "nations": 4809,
      "third": 4810,
      "expenses": 4811,
      "वास्तविक": 4812,
      "अधीनमा": 4813,
      "aid": 4814,
      "नौट": 4815,
      "खानेपानी": 4816,
      "वाणिज्य": 4817,
      "वर्षसम्म": 4818,
      "शैक्षिक": 4819,
      "agriculture": 4820,
      "Four": 4821,
      "बू": 4822,
      "संविधा": 4823,
      "citizen": 4824,
      "mother": 4825,
      "घन": 4826,
      "हासिल": 4827,
      "हुन्छन्": 4828,
      "संस्थान": 4829,
      "मात्रा": 4830,
      "gave": 4831,
      "कैद": 4832,
      "स्वामित्": 4833,
      "Emplo": 4834,
      "चरण": 4835,
      "झे": 4836,
      "शरी": 4837,
      "काली": 4838,
      "लेको": 4839,
      "वायु": 4840,
      "जान्द": 4841,
      "saving": 4842,
      "कर्जा": 4843,
      "कामदार": 4844,
      "Nu": 4845,
      "पचा": 4846,
      "times": 4847,
      "redu": 4848,
      "context": 4849,
      "plant": 4850,
      "अनुरुप": 4851,
      "correct": 4852,
      "खनिज": 4853,
      "र्मि": 4854,
      "suc": 4855,
      "भएकोले": 4856,
      "काममा": 4857,
      "देखे": 4858,
      "fully": 4859,
      "Executive": 4860,
      "bud": 4861,
      "ktop": 4862,
      "lack": 4863,
      "वस्तुको": 4864,
      "सङ्केत": 4865,
      "electricity": 4866,
      "ont": 4867,
      "ley": 4868,
      "entry": 4869,
      "ified": 4870,
      "clean": 4871,
      "किसिमको": 4872,
      "मन्दिर": 4873,
      "eyes": 4874,
      "ade": 4875,
      "लामो": 4876,
      "तिहा": 4877,
      "डाटा": 4878,
      "tender": 4879,
      "आगो": 4880,
      "कक्ष": 4881,
      "वचन": 4882,
      "छोड": 4883,
      "fathers": 4884,
      "ट्रे": 4885,
      "मिटर": 4886,
      "approved": 4887,
      "governmental": 4888,
      "अद्या": 4889,
      "super": 4890,
      "आधारित": 4891,
      "monitor": 4892,
      "रोजगारी": 4893,
      "mi": 4894,
      "lia": 4895,
      "कुराको": 4896,
      "applicant": 4897,
      "Christ": 4898,
      "free": 4899,
      "एम": 4900,
      "फु": 4901,
      "राखिएको": 4902,
      "hy": 4903,
      "सुले": 4904,
      "नेपालमा": 4905,
      "स्ट्रि": 4906,
      "लम्बन": 4907,
      "card": 4908,
      "sound": 4909,
      "व्यवहार": 4910,
      "Wor": 4911,
      "burn": 4912,
      "wife": 4913,
      "deb": 4914,
      "ety": 4915,
      "giving": 4916,
      "कोही": 4917,
      "लगाउन": 4918,
      "Je": 4919,
      "बर": 4920,
      "behold": 4921,
      "selection": 4922,
      "बायाँ": 4923,
      "यसमा": 4924,
      "दुर्": 4925,
      "maintained": 4926,
      "entitled": 4927,
      "HT": 4928,
      "अगु": 4929,
      "न्सी": 4930,
      "उपस्थित": 4931,
      "whose": 4932,
      "प्रेम": 4933,
      "records": 4934,
      "receipt": 4935,
      "स्वामित्व": 4936,
      "utiliz": 4937,
      "त्यस्तै": 4938,
      "गर्दैछ": 4939,
      "अझै": 4940,
      "पश्चि": 4941,
      "amounts": 4942,
      "lead": 4943,
      "लागत": 4944,
      "world": 4945,
      "चिनो": 4946,
      "indic": 4947,
      "जरिवाना": 4948,
      "छैठौं": 4949,
      "King": 4950,
      "ead": 4951,
      "मण": 4952,
      "ancy": 4953,
      "iscal": 4954,
      "exerc": 4955,
      "live": 4956,
      "कसरी": 4957,
      "रुपले": 4958,
      "ber": 4959,
      "छनौट": 4960,
      "सत्य": 4961,
      "ताली": 4962,
      "mages": 4963,
      "जाल": 4964,
      "ills": 4965,
      "अनुभव": 4966,
      "educational": 4967,
      "दिइने": 4968,
      "multi": 4969,
      "nominated": 4970,
      "21": 4971,
      "Fun": 4972,
      "much": 4973,
      "सदस्यले": 4974,
      "still": 4975,
      "पर्याप्त": 4976,
      "hous": 4977,
      "servants": 4978,
      "र्जा": 4979,
      "तिनका": 4980,
      "atta": 4981,
      "चलचित्र": 4982,
      "भेडा": 4983,
      "स्वि": 4984,
      "विभा": 4985,
      "सुने": 4986,
      "विभागले": 4987,
      "Click": 4988,
      "सफा": 4989,
      "itation": 4990,
      "cting": 4991,
      "operated": 4992,
      "अन्तर": 4993,
      "स्कट": 4994,
      "भौतिक": 4995,
      "अद्यावधिक": 4996,
      "दारी": 4997,
      "वाही": 4998,
      "ross": 4999,
      "ques": 5000,
      "ished": 5001,
      "voice": 5002,
      "किनारा": 5003,
      "ig": 5004,
      "screen": 5005,
      "झु": 5006,
      "बन्दी": 5007,
      "nat": 5008,
      "तृ": 5009,
      "inf": 5010,
      "Nepalese": 5011,
      "अधिकतम": 5012,
      "separate": 5013,
      "आज": 5014,
      "सफल": 5015,
      "ारा": 5016,
      "लाम": 5017,
      "प्रथ": 5018,
      "साझे": 5019,
      "exe": 5020,
      "जेट": 5021,
      "दाऊदले": 5022,
      "Education": 5023,
      "%.": 5024,
      "loan": 5025,
      "users": 5026,
      "खाना": 5027,
      "Who": 5028,
      "व्याव": 5029,
      "appear": 5030,
      "evidence": 5031,
      "fare": 5032,
      "भण्ड": 5033,
      "wel": 5034,
      "rust": 5035,
      "purch": 5036,
      "physical": 5037,
      "दोष": 5038,
      "brothers": 5039,
      "past": 5040,
      "कहि": 5041,
      "तत्व": 5042,
      "दय": 5043,
      "गर्छु": 5044,
      "apan": 5045,
      "भएकोमा": 5046,
      "वेदी": 5047,
      "डेस्कट": 5048,
      "कूब": 5049,
      "नोक्सानी": 5050,
      "हिसाब": 5051,
      "role": 5052,
      "पाउनेछ": 5053,
      "साध": 5054,
      "conta": 5055,
      "पर्न": 5056,
      "परमेश्वरलाई": 5057,
      "छुट्टै": 5058,
      "कन्फिगरेसन": 5059,
      "Ci": 5060,
      "प्रि": 5061,
      "created": 5062,
      "happened": 5063,
      "Cop": 5064,
      "pes": 5065,
      "बाबु": 5066,
      "mach": 5067,
      "कानुन": 5068,
      "निस्": 5069,
      "लागेमा": 5070,
      "previous": 5071,
      "आफूले": 5072,
      "ek": 5073,
      "जमा": 5074,
      "चान": 5075,
      "पछिल्लो": 5076,
      "सरकारबाट": 5077,
      "ँचो": 5078,
      "लुका": 5079,
      "विनिमय": 5080,
      "Rastra": 5081,
      "नगर्ने": 5082,
      "र्न": 5083,
      "कामा": 5084,
      "reli": 5085,
      "review": 5086,
      "ict": 5087,
      "menu": 5088,
      "तिम्रा": 5089,
      "labour": 5090,
      "सेयर": 5091,
      "title": 5092,
      "संरचना": 5093,
      "तलब": 5094,
      "गुणस्तर": 5095,
      "large": 5096,
      "क्षतिपूर्ति": 5097,
      "money": 5098,
      "organizations": 5099,
      "हवाई": 5100,
      "below": 5101,
      "याकूब": 5102,
      "mobil": 5103,
      "formul": 5104,
      "reasonable": 5105,
      "ंसा": 5106,
      "करी": 5107,
      "फै": 5108,
      "यक": 5109,
      "२६": 5110,
      "२८": 5111,
      "Progra": 5112,
      "हेर्न": 5113,
      "enem": 5114,
      "introdu": 5115,
      "Dele": 5116,
      "तथ्याङ्क": 5117,
      "reach": 5118,
      "itself": 5119,
      "ticle": 5120,
      "countries": 5121,
      "carrying": 5122,
      "भण्डार": 5123,
      "ery": 5124,
      "young": 5125,
      "पूँजी": 5126,
      "cities": 5127,
      "पूर्वक": 5128,
      "appointment": 5129,
      "DM": 5130,
      "Fil": 5131,
      "राई": 5132,
      "गर्नेछन्": 5133,
      "holding": 5134,
      "विस्तृत": 5135,
      "्यू": 5136,
      "२०७": 5137,
      "filed": 5138,
      "installed": 5139,
      "आपू": 5140,
      "सट्टा": 5141,
      "नुसार": 5142,
      "जाऊ": 5143,
      "बनाए": 5144,
      "securities": 5145,
      "holy": 5146,
      "छलफल": 5147,
      "कट": 5148,
      "कोे": 5149,
      "हरण": 5150,
      "curren": 5151,
      "मध्यस्थ": 5152,
      "pan": 5153,
      "serve": 5154,
      "रहेछ": 5155,
      "थिएन": 5156,
      "Special": 5157,
      "Provisions": 5158,
      "loc": 5159,
      "उत्पन्न": 5160,
      "च्छा": 5161,
      "दिनुभयो": 5162,
      "charact": 5163,
      "complaint": 5164,
      "Of": 5165,
      "नग": 5166,
      "विगत": 5167,
      "exten": 5168,
      "recogn": 5169,
      "सोध": 5170,
      "laun": 5171,
      "ancellor": 5172,
      "uter": 5173,
      "जमी": 5174,
      "prophe": 5175,
      "ledge": 5176,
      "आएमा": 5177,
      "सङ्क": 5178,
      "लेवी": 5179,
      "पुत्र": 5180,
      "बनाउनु": 5181,
      "प्रत्यक्ष": 5182,
      "districts": 5183,
      "direction": 5184,
      "23": 5185,
      "प्रत्या": 5186,
      "द्रष्ट": 5187,
      "तेस्रो": 5188,
      "आपूm": 5189,
      "चर": 5190,
      "यस्ता": 5191,
      "२७": 5192,
      "though": 5193,
      "method": 5194,
      "उपचार": 5195,
      "space": 5196,
      "परीक्षा": 5197,
      "ज्यू": 5198,
      "मनासि": 5199,
      "Ob": 5200,
      "utes": 5201,
      "Assembly": 5202,
      "twenty": 5203,
      "ँदा": 5204,
      "छन": 5205,
      "rem": 5206,
      "नाममा": 5207,
      "sets": 5208,
      "कम्प्यु": 5209,
      "completion": 5210,
      "inde": 5211,
      "since": 5212,
      "configuration": 5213,
      "कहिल्यै": 5214,
      "भन": 5215,
      "abase": 5216,
      "workers": 5217,
      "ternal": 5218,
      "चेला": 5219,
      "समुदाय": 5220,
      "Administration": 5221,
      "ारो": 5222,
      "दाख": 5223,
      "जिम्मे": 5224,
      "rupees": 5225,
      "र्थी": 5226,
      "viol": 5227,
      "ME": 5228,
      "bodies": 5229,
      "र्भ": 5230,
      "स्ति": 5231,
      "irst": 5232,
      "छेउ": 5233,
      "letter": 5234,
      "Management": 5235,
      "treat": 5236,
      "NO": 5237,
      "ruct": 5238,
      "कार्यालयको": 5239,
      "servation": 5240,
      "allowed": 5241,
      "न्यूनतम": 5242,
      "ढो": 5243,
      "अगुवा": 5244,
      "Ro": 5245,
      "bread": 5246,
      "ased": 5247,
      "mental": 5248,
      "discus": 5249,
      "अध्यक्षले": 5250,
      "कुलपति": 5251,
      "sale": 5252,
      "developed": 5253,
      "फ्": 5254,
      "location": 5255,
      "rative": 5256,
      "going": 5257,
      "शील": 5258,
      "origin": 5259,
      "sci": 5260,
      "step": 5261,
      "Project": 5262,
      "proceed": 5263,
      "individ": 5264,
      "प्रथम": 5265,
      "tri": 5266,
      "हन": 5267,
      "ह्या": 5268,
      "Health": 5269,
      "आयोगको": 5270,
      "Gu": 5271,
      "तै": 5272,
      "ently": 5273,
      "संसार": 5274,
      "लुगा": 5275,
      "values": 5276,
      "कम्प्युटर": 5277,
      "god": 5278,
      "आवा": 5279,
      "विमान": 5280,
      "stor": 5281,
      "प्रतिमा": 5282,
      "aff": 5283,
      "effor": 5284,
      "proposal": 5285,
      "answered": 5286,
      "fiscal": 5287,
      "ison": 5288,
      "legal": 5289,
      "फाइलमा": 5290,
      "परिषद": 5291,
      "complete": 5292,
      "important": 5293,
      "समुद्र": 5294,
      "उजुरी": 5295,
      "घरमा": 5296,
      "नुभयो": 5297,
      "क्षेत्रीय": 5298,
      "च्चा": 5299,
      "Sixth": 5300,
      "सल्ला": 5301,
      "रहनु": 5302,
      "settings": 5303,
      "sil": 5304,
      "त्रि": 5305,
      "स्तरी": 5306,
      "istrative": 5307,
      "मध्येबाट": 5308,
      "profession": 5309,
      "transaction": 5310,
      "equipment": 5311,
      "rules": 5312,
      "आएका": 5313,
      "revenue": 5314,
      "यसैले": 5315,
      "खान": 5316,
      "satis": 5317,
      "whole": 5318,
      "faith": 5319,
      "शहरमा": 5320,
      "Number": 5321,
      "turn": 5322,
      "अस्थायी": 5323,
      "iting": 5324,
      "रजिष्ट्र": 5325,
      "Signature": 5326,
      "उभि": 5327,
      "सृ": 5328,
      "heaven": 5329,
      "बाबे": 5330,
      "uneration": 5331,
      "स्थापित": 5332,
      "ऐनमा": 5333,
      "woman": 5334,
      "ilt": 5335,
      "peace": 5336,
      "फाइलहरू": 5337,
      "ID": 5338,
      "टै": 5339,
      "काँ": 5340,
      "निर": 5341,
      "entrep": 5342,
      "dead": 5343,
      "acqui": 5344,
      "परिमार्": 5345,
      "लगायत": 5346,
      "शैली": 5347,
      "entrepreneur": 5348,
      "Sp": 5349,
      "राय": 5350,
      "ram": 5351,
      "compensation": 5352,
      "पत्नी": 5353,
      "Appl": 5354,
      "benef": 5355,
      "Japan": 5356,
      "blood": 5357,
      "ling": 5358,
      "कद": 5359,
      "contrib": 5360,
      "icked": 5361,
      "URL": 5362,
      "Sen": 5363,
      "दल": 5364,
      "sum": 5365,
      "बाकस": 5366,
      "constit": 5367,
      "निर्वा": 5368,
      "concerning": 5369,
      "सन्तान": 5370,
      "opened": 5371,
      "गृह": 5372,
      "ीत": 5373,
      "म्बा": 5374,
      "जीव": 5375,
      "व्यक्तिगत": 5376,
      "पचास": 5377,
      "स्तरीय": 5378,
      "ier": 5379,
      "बर्": 5380,
      "Amount": 5381,
      "commanded": 5382,
      "Check": 5383,
      "By": 5384,
      "कल्या": 5385,
      "गयो": 5386,
      "makes": 5387,
      "सेव": 5388,
      "कीय": 5389,
      "पञ्चा": 5390,
      "सम्भाव्य": 5391,
      "कालमा": 5392,
      "Indust": 5393,
      "tity": 5394,
      "दैछ": 5395,
      "prepar": 5396,
      "hands": 5397,
      "शीर्षक": 5398,
      "सुलेमान": 5399,
      "late": 5400,
      "परिचालन": 5401,
      "भिडियो": 5402,
      "Constitution": 5403,
      "राजाले": 5404,
      "क्यारे": 5405,
      "bs": 5406,
      "निवेद": 5407,
      "suppl": 5408,
      "layer": 5409,
      "अत्यन्त": 5410,
      "plugin": 5411,
      "ह्र": 5412,
      "२९": 5413,
      "यान": 5414,
      "output": 5415,
      "कार्यक्रमहरु": 5416,
      "result": 5417,
      "natural": 5418,
      "belie": 5419,
      "tage": 5420,
      "quan": 5421,
      "शान्ति": 5422,
      "उनलाई": 5423,
      "सूचीमा": 5424,
      "पार्ने": 5425,
      "जग्गाको": 5426,
      "sectors": 5427,
      "छोराहरू": 5428,
      "Ter": 5429,
      "गल": 5430,
      "मिल्": 5431,
      "प्राकृतिक": 5432,
      "poses": 5433,
      "....................": 5434,
      "Post": 5435,
      "border": 5436,
      "ging": 5437,
      "ring": 5438,
      "नक्": 5439,
      "लिङ्क": 5440,
      "त्यसले": 5441,
      "कार्यक्रमको": 5442,
      "प्रतिशतले": 5443,
      "initi": 5444,
      "कल्याण": 5445,
      "\".": 5446,
      "omy": 5447,
      "अपा": 5448,
      "plans": 5449,
      "हेक्टर": 5450,
      "Area": 5451,
      "Employe": 5452,
      "28": 5453,
      "ian": 5454,
      "नेट": 5455,
      "expres": 5456,
      "रुद्ध": 5457,
      "lives": 5458,
      "expedi": 5459,
      "Enable": 5460,
      "रोजगार": 5461,
      "ग्रहण": 5462,
      "देवता": 5463,
      "अंश": 5464,
      "tition": 5465,
      "दिनको": 5466,
      "गर्नुपर्छ": 5467,
      "internal": 5468,
      "सहायक": 5469,
      "पारिश्रमिक": 5470,
      "matically": 5471,
      "credit": 5472,
      "सल्लाह": 5473,
      "def": 5474,
      "Academy": 5475,
      "sor": 5476,
      "रै": 5477,
      "too": 5478,
      "हान": 5479,
      "urther": 5480,
      "tail": 5481,
      "लगाउने": 5482,
      "कार्यालयले": 5483,
      "जसलाई": 5484,
      "चौथो": 5485,
      "changed": 5486,
      "फरक": 5487,
      "):": 5488,
      "Mar": 5489,
      "एजे": 5490,
      "bel": 5491,
      "टेलि": 5492,
      "roads": 5493,
      "pat": 5494,
      "scri": 5495,
      "४०": 5496,
      "मन्त्रालयले": 5497,
      "ठूला": 5498,
      "link": 5499,
      "ध्व": 5500,
      "intenance": 5501,
      "Qu": 5502,
      "झू": 5503,
      "पुनर्": 5504,
      "enterpr": 5505,
      "labor": 5506,
      "individual": 5507,
      "Sim": 5508,
      "tow": 5509,
      "क्वे": 5510,
      "defin": 5511,
      "संसद": 5512,
      "प्रारम्भिक": 5513,
      "Address": 5514,
      "click": 5515,
      "gar": 5516,
      "दक्षि": 5517,
      "िएको": 5518,
      "देख्": 5519,
      "विष्य": 5520,
      "portion": 5521,
      "mary": 5522,
      "क्रममा": 5523,
      "वंश": 5524,
      "बीचमा": 5525,
      "writing": 5526,
      "involved": 5527,
      "job": 5528,
      "भविष्य": 5529,
      "presid": 5530,
      "आधारभूत": 5531,
      "गर्नेछु": 5532,
      "party": 5533,
      "istrar": 5534,
      "keys": 5535,
      "प्लेट": 5536,
      "फ्रेम": 5537,
      "Val": 5538,
      "ger": 5539,
      "hon": 5540,
      "बखत": 5541,
      "esti": 5542,
      "बिना": 5543,
      "cedure": 5544,
      "90": 5545,
      "Cus": 5546,
      "Ty": 5547,
      "scal": 5548,
      "ंदा": 5549,
      "जला": 5550,
      "verse": 5551,
      "else": 5552,
      "छुट": 5553,
      "उहाँलाई": 5554,
      "outside": 5555,
      "desi": 5556,
      "तुल्या": 5557,
      "bitr": 5558,
      "problems": 5559,
      "उदाहरण": 5560,
      "Custo": 5561,
      "real": 5562,
      "विविध": 5563,
      "राम": 5564,
      "नेछौ": 5565,
      "experi": 5566,
      "quot": 5567,
      "affect": 5568,
      "विशेषज्ञ": 5569,
      "facility": 5570,
      "हस्ताक्षर": 5571,
      "ट्याब": 5572,
      "dwell": 5573,
      "आकाश": 5574,
      "पङ्": 5575,
      "रका": 5576,
      "lot": 5577,
      "consist": 5578,
      "Account": 5579,
      "altar": 5580,
      "नियमहरू": 5581,
      "wicked": 5582,
      "आठौं": 5583,
      "बाली": 5584,
      "क्रमश": 5585,
      "पुर्खा": 5586,
      "community": 5587,
      "network": 5588,
      "!\"": 5589,
      "dra": 5590,
      "tt": 5591,
      "आर्": 5592,
      "खडा": 5593,
      "कुन": 5594,
      "रोक्": 5595,
      "aged": 5596,
      "lower": 5597,
      "Three": 5598,
      "सँगै": 5599,
      "requires": 5600,
      "इन्टर": 5601,
      "includes": 5602,
      "२०४८": 5603,
      "चेता": 5604,
      "पढ्न": 5605,
      "string": 5606,
      "designated": 5607,
      "AN": 5608,
      "User": 5609,
      "broad": 5610,
      "shown": 5611,
      "images": 5612,
      "आवास": 5613,
      "खेत": 5614,
      "anal": 5615,
      "प्रकृति": 5616,
      "arti": 5617,
      "impris": 5618,
      "ittees": 5619,
      "वस्तुहरू": 5620,
      "coming": 5621,
      "committed": 5622,
      "dy": 5623,
      "अस्वीकार": 5624,
      "encies": 5625,
      "क्षेत्रका": 5626,
      "सम्ममा": 5627,
      "Functions": 5628,
      "inary": 5629,
      "िकी": 5630,
      "मिलियन": 5631,
      "राखेको": 5632,
      "effic": 5633,
      "सदस्यको": 5634,
      "language": 5635,
      "ior": 5636,
      "task": 5637,
      "हुन्न": 5638,
      "tention": 5639,
      "लेखापरीक्षण": 5640,
      "participation": 5641,
      "Li": 5642,
      "resol": 5643,
      "esty": 5644,
      "obtaining": 5645,
      "मन्त्री": 5646,
      "close": 5647,
      "regional": 5648,
      "supported": 5649,
      "क्षिप्त": 5650,
      "drinking": 5651,
      "व्यहोरा": 5652,
      "circumst": 5653,
      "कालीन": 5654,
      "gt": 5655,
      "vac": 5656,
      "पन्ध": 5657,
      "समान": 5658,
      "पाटी": 5659,
      "दिएमा": 5660,
      "उनका": 5661,
      "तुल": 5662,
      ",–": 5663,
      "care": 5664,
      "dro": 5665,
      "umb": 5666,
      "home": 5667,
      "caused": 5668,
      "knowledge": 5669,
      "needs": 5670,
      "चाहेमा": 5671,
      "protection": 5672,
      "सन्दर्भ": 5673,
      "डेस्कटप": 5674,
      "Vi": 5675,
      "थर": 5676,
      "ल्यु": 5677,
      "ाा": 5678,
      "inion": 5679,
      "atory": 5680,
      "आफै": 5681,
      "विकासका": 5682,
      "परमप्रभुलाई": 5683,
      "rights": 5684,
      "अधिकृतले": 5685,
      "hara": 5686,
      "अस्पताल": 5687,
      "आब": 5688,
      "progress": 5689,
      "संस्थानको": 5690,
      "expand": 5691,
      "specify": 5692,
      "फर्म": 5693,
      "currently": 5694,
      "instead": 5695,
      "स्ट्रिङ": 5696,
      "Meet": 5697,
      "तोकिएबमोजिम": 5698,
      "खोल्नुहोस्": 5699,
      "22": 5700,
      "बाधा": 5701,
      "पहिला": 5702,
      "आयोगले": 5703,
      "भइरहेको": 5704,
      "मूर्ति": 5705,
      "daughter": 5706,
      "First": 5707,
      "विवाह": 5708,
      "ayat": 5709,
      "execu": 5710,
      "धार्": 5711,
      "हुनुपर्छ": 5712,
      "विद्यार्थी": 5713,
      "प्रदर्श": 5714,
      "रुपैयाँसम्म": 5715,
      "वृत्ति": 5716,
      "सुरुआत": 5717,
      "mouth": 5718,
      "नमू": 5719,
      "हृ": 5720,
      "प्रश्": 5721,
      "संक्षिप्त": 5722,
      "vention": 5723,
      "अन्यत्र": 5724,
      "अब्रा": 5725,
      "तरिकाले": 5726,
      "स्वर्गदूत": 5727,
      "दृष्टिकोण": 5728,
      "क्यारेक्टर": 5729,
      "fal": 5730,
      "pted": 5731,
      "uel": 5732,
      "फ्ट": 5733,
      "resource": 5734,
      "गरिरहेका": 5735,
      "computer": 5736,
      "अदालतले": 5737,
      "guar": 5738,
      "पृष्ठभूमि": 5739,
      "liament": 5740,
      "क्रमशः": 5741,
      "ik": 5742,
      "आयो": 5743,
      "दक्ष": 5744,
      "हद": 5745,
      "hect": 5746,
      "पालना": 5747,
      "purposes": 5748,
      "followed": 5749,
      "human": 5750,
      "आशा": 5751,
      "ढी": 5752,
      "्रह": 5753,
      "identi": 5754,
      "बनाएको": 5755,
      "बुझाउनु": 5756,
      "built": 5757,
      "द्रष्टव्य": 5758,
      "अन्न": 5759,
      "भत्ता": 5760,
      "विज्ञान": 5761,
      "केर": 5762,
      "kept": 5763,
      "endar": 5764,
      "थिएँ": 5765,
      "signed": 5766,
      "performed": 5767,
      "salary": 5768,
      "Copy": 5769,
      "100": 5770,
      "crop": 5771,
      "दस्त": 5772,
      "मरे": 5773,
      "became": 5774,
      "team": 5775,
      "न्यो": 5776,
      "सूचक": 5777,
      "जनता": 5778,
      "herit": 5779,
      "पहिचान": 5780,
      "exists": 5781,
      "40": 5782,
      "High": 5783,
      "तियार": 5784,
      "हरुका": 5785,
      "परिचय": 5786,
      "living": 5787,
      "doesn": 5788,
      "soul": 5789,
      "Color": 5790,
      "Hundred": 5791,
      "यम": 5792,
      "कोठा": 5793,
      "चाहने": 5794,
      "cash": 5795,
      "stood": 5796,
      "names": 5797,
      "पन्ध्र": 5798,
      "आम्": 5799,
      "चढा": 5800,
      "हौ": 5801,
      "काको": 5802,
      "क्लि": 5803,
      "अनुदान": 5804,
      "प्रकारले": 5805,
      "Appe": 5806,
      "dedu": 5807,
      "fru": 5808,
      "अभाव": 5809,
      "डाउन": 5810,
      "यथा": 5811,
      "षणा": 5812,
      "सत्र": 5813,
      "र्नु": 5814,
      "शाली": 5815,
      "compe": 5816,
      "संस्थालाई": 5817,
      "tics": 5818,
      "सीमित": 5819,
      "parts": 5820,
      "व्यावसाय": 5821,
      "फिक": 5822,
      "tock": 5823,
      "gets": 5824,
      "बीमा": 5825,
      "तपाईंलाई": 5826,
      "ownership": 5827,
      "ime": 5828,
      "sword": 5829,
      "minimum": 5830,
      "गुप्ति": 5831,
      "economy": 5832,
      "remote": 5833,
      "started": 5834,
      "items": 5835,
      "hour": 5836,
      "ग्रि": 5837,
      "मण्ड": 5838,
      "लगत": 5839,
      "भएन": 5840,
      "विकासमा": 5841,
      "forever": 5842,
      "एउटै": 5843,
      "सर्वेक्षण": 5844,
      "energy": 5845,
      "उपलव्": 5846,
      "विश्ले": 5847,
      "अदालतमा": 5848,
      "जलस्रोत": 5849,
      "anchayat": 5850,
      "AT": 5851,
      "पान्तरण": 5852,
      "ustice": 5853,
      "व्यवस्थाप": 5854,
      "बनाउँ": 5855,
      "Proc": 5856,
      "prac": 5857,
      "टुक्रा": 5858,
      "Saul": 5859,
      "Pe": 5860,
      "Sur": 5861,
      "base": 5862,
      "ga": 5863,
      "inc": 5864,
      "पाए": 5865,
      "ify": 5866,
      "समाधान": 5867,
      "host": 5868,
      "सिलसि": 5869,
      "60": 5870,
      "ns": 5871,
      "पारी": 5872,
      "व्यवस्थित": 5873,
      "मानिसहरूका": 5874,
      "cles": 5875,
      "basic": 5876,
      "अध्यक्षता": 5877,
      "संशोधित": 5878,
      "shares": 5879,
      "investigation": 5880,
      "furn": 5881,
      "साँचो": 5882,
      "abilities": 5883,
      "बढा": 5884,
      "नभए": 5885,
      "ream": 5886,
      "love": 5887,
      "abs": 5888,
      "audit": 5889,
      "२००": 5890,
      "impo": 5891,
      "बोर्डको": 5892,
      "Fol": 5893,
      "Vice": 5894,
      "इच्छा": 5895,
      "ठहर": 5896,
      "पट्ट": 5897,
      "रत": 5898,
      "प्रचार": 5899,
      "receiving": 5900,
      "अपरा": 5901,
      "description": 5902,
      "Chancellor": 5903,
      "budget": 5904,
      "From": 5905,
      "gen": 5906,
      "instru": 5907,
      "सम्पाद": 5908,
      "cept": 5909,
      "ists": 5910,
      "ordination": 5911,
      "बनाई": 5912,
      "appeal": 5913,
      "कसैलाई": 5914,
      "व्यावसायिक": 5915,
      "amp": 5916,
      "नराम्रो": 5917,
      "४७": 5918,
      "asi": 5919,
      "delete": 5920,
      "ढुङ्गा": 5921,
      "स्क्रिप्ट": 5922,
      "adopted": 5923,
      "imprisonment": 5924,
      "हृदय": 5925,
      "cult": 5926,
      "thirty": 5927,
      "ल्ट": 5928,
      "rast": 5929,
      "एक्स": 5930,
      "reform": 5931,
      "गरिरहेको": 5932,
      "served": 5933,
      "अवधिको": 5934,
      "posts": 5935,
      "status": 5936,
      "extension": 5937,
      "SL": 5938,
      "कष्ट": 5939,
      "सम्मान": 5940,
      "perman": 5941,
      "प्रतिकूल": 5942,
      "sky": 5943,
      "nation": 5944,
      "ख्": 5945,
      "यही": 5946,
      "ern": 5947,
      "मैला": 5948,
      "ighth": 5949,
      "priests": 5950,
      "rastruct": 5951,
      "gment": 5952,
      "jour": 5953,
      "खरी": 5954,
      "यं": 5955,
      "begin": 5956,
      "respective": 5957,
      "objective": 5958,
      "deposit": 5959,
      "भ्रमण": 5960,
      "काई": 5961,
      "विदा": 5962,
      "विरुद्ध": 5963,
      "rie": 5964,
      "भावना": 5965,
      "night": 5966,
      "उमेर": 5967,
      "जन्य": 5968,
      "वट": 5969,
      "sea": 5970,
      "agency": 5971,
      "जनक": 5972,
      "बढाउन": 5973,
      "running": 5974,
      "धार्मिक": 5975,
      "Sam": 5976,
      "तया": 5977,
      "४९": 5978,
      "द्र्": 5979,
      "opinion": 5980,
      "त्यसैले": 5981,
      "शाला": 5982,
      "specific": 5983,
      "holder": 5984,
      "balance": 5985,
      "false": 5986,
      "कहिले": 5987,
      "––": 5988,
      "वारको": 5989,
      "maintenance": 5990,
      "exper": 5991,
      "प्रतिज्ञा": 5992,
      "मूल्या": 5993,
      "anger": 5994,
      "भूमिका": 5995,
      "घोषणा": 5996,
      "integr": 5997,
      "wall": 5998,
      "रेडियो": 5999,
      "Config": 6000,
      "बढीमा": 6001,
      "reasons": 6002,
      "logical": 6003,
      "administrative": 6004,
      "निरन्तर": 6005,
      "पङ्क्ति": 6006,
      "input": 6007,
      "orary": 6008,
      "पाउ": 6009,
      "बढ्": 6010,
      "1991": 6011,
      "मेट्न": 6012,
      "डाटाबे": 6013,
      "पञ्चायत": 6014,
      "जान्छ": 6015,
      "domes": 6016,
      "ब्जा": 6017,
      "नोट": 6018,
      "छाडि": 6019,
      "जेल": 6020,
      "गराइनेछ": 6021,
      "पहाड": 6022,
      "आम्दानी": 6023,
      "domestic": 6024,
      "Cur": 6025,
      "List": 6026,
      "अमेर": 6027,
      "प्रशिक्षण": 6028,
      "tee": 6029,
      "रुन्त": 6030,
      "offices": 6031,
      "hospital": 6032,
      "खुलाई": 6033,
      "हारून": 6034,
      "संविधान": 6035,
      "US": 6036,
      "reign": 6037,
      "सक्त": 6038,
      "saved": 6039,
      "Forest": 6040,
      "Maj": 6041,
      "स्वतन्त्र": 6042,
      "depend": 6043,
      "सिलसिलामा": 6044,
      "ample": 6045,
      "गलत": 6046,
      "दया": 6047,
      "कुरामा": 6048,
      "तुरुन्त": 6049,
      "Region": 6050,
      "प्रशंसा": 6051,
      "HTML": 6052,
      "पट्टि": 6053,
      "Sha": 6054,
      "vest": 6055,
      "सुफ": 6056,
      "fair": 6057,
      "disci": 6058,
      "licensee": 6059,
      "निर्देशक": 6060,
      "सभाको": 6061,
      "database": 6062,
      "यूसुफ": 6063,
      "पहाडी": 6064,
      "ares": 6065,
      "nature": 6066,
      "वापत": 6067,
      "coll": 6068,
      "निर्भर": 6069,
      "एकी": 6070,
      "dic": 6071,
      "नगरेमा": 6072,
      "urban": 6073,
      "Insurance": 6074,
      "एकै": 6075,
      "चालक": 6076,
      "पत्ता": 6077,
      "determine": 6078,
      "casting": 6079,
      "डरा": 6080,
      "मल": 6081,
      "प्रदाय": 6082,
      "ull": 6083,
      "Secur": 6084,
      "कर्ताको": 6085,
      "अवसर": 6086,
      "travel": 6087,
      "सबैभन्दा": 6088,
      "sheet": 6089,
      "medical": 6090,
      "Centre": 6091,
      "मही": 6092,
      "तिनलाई": 6093,
      "विवाद": 6094,
      "रिया": 6095,
      "दैनिक": 6096,
      "match": 6097,
      "true": 6098,
      "trust": 6099,
      "damage": 6100,
      "Image": 6101,
      "नाप": 6102,
      "ल्नु": 6103,
      "final": 6104,
      "ण्डा": 6105,
      "देखेमा": 6106,
      "pho": 6107,
      "सहितको": 6108,
      "witch": 6109,
      "glory": 6110,
      "Print": 6111,
      "डु": 6112,
      "तरी": 6113,
      "नसक्ने": 6114,
      "org": 6115,
      "ises": 6116,
      "icial": 6117,
      "क्षी": 6118,
      "निर्गत": 6119,
      "quar": 6120,
      "commission": 6121,
      "आयोजनाको": 6122,
      "constructed": 6123,
      "हेर्नुहोस्": 6124,
      "Parliament": 6125,
      "efforts": 6126,
      "Edit": 6127,
      "Su": 6128,
      "bless": 6129,
      "tle": 6130,
      "tree": 6131,
      "वालय": 6132,
      "nothing": 6133,
      "प्राय": 6134,
      "कामहरू": 6135,
      "police": 6136,
      "signature": 6137,
      "गुप्तिकरण": 6138,
      "tw": 6139,
      "conver": 6140,
      "filter": 6141,
      "हालै": 6142,
      "Registration": 6143,
      "तारो": 6144,
      "ब्राउ": 6145,
      "Tax": 6146,
      "Jaco": 6147,
      "OR": 6148,
      "जको": 6149,
      "बग": 6150,
      "cover": 6151,
      "मुक्त": 6152,
      "added": 6153,
      "मोशाले": 6154,
      "custom": 6155,
      "arrangements": 6156,
      "problem": 6157,
      "remuneration": 6158,
      "26": 6159,
      "band": 6160,
      "simil": 6161,
      "manu": 6162,
      "कोषमा": 6163,
      "शब्दले": 6164,
      "आफूलाई": 6165,
      "exercise": 6166,
      "oth": 6167,
      "sold": 6168,
      "sche": 6169,
      "trib": 6170,
      "ग्रे": 6171,
      "पलि": 6172,
      "यौं": 6173,
      "thin": 6174,
      "रोज्": 6175,
      "laid": 6176,
      "छाप": 6177,
      "Change": 6178,
      "येशूलाई": 6179,
      "Pho": 6180,
      "fut": 6181,
      "sty": 6182,
      "मेट्": 6183,
      "Associ": 6184,
      "पूर्वाधार": 6185,
      "resident": 6186,
      "साधनको": 6187,
      "रजिष्ट्रार": 6188,
      "Bu": 6189,
      "fles": 6190,
      "टल": 6191,
      "धू": 6192,
      "रक्षा": 6193,
      "हरूसँग": 6194,
      "success": 6195,
      "ffer": 6196,
      "gis": 6197,
      "घण्ट": 6198,
      "६०": 6199,
      "ale": 6200,
      "साल": 6201,
      "उपभोग": 6202,
      "ports": 6203,
      "सहमति": 6204,
      "programs": 6205,
      "Phil": 6206,
      "Import": 6207,
      "विभाजन": 6208,
      "दक्षिण": 6209,
      "यारी": 6210,
      "लित": 6211,
      "seen": 6212,
      "quid": 6213,
      "authentic": 6214,
      "पोर्ट": 6215,
      "पठाउन": 6216,
      "hereby": 6217,
      "विश्वविद्यालयको": 6218,
      "चाँदी": 6219,
      "infrastruct": 6220,
      "Jacob": 6221,
      "Sup": 6222,
      "cra": 6223,
      "game": 6224,
      "han": 6225,
      "invalid": 6226,
      "मारि": 6227,
      "orient": 6228,
      "lear": 6229,
      "अनुप": 6230,
      "primary": 6231,
      "सर्भ": 6232,
      "रहन": 6233,
      "शहरहरू": 6234,
      "groups": 6235,
      "remaining": 6236,
      "directly": 6237,
      "उपलव्ध": 6238,
      ".)": 6239,
      "IN": 6240,
      "आउ": 6241,
      "घरे": 6242,
      "alter": 6243,
      "ought": 6244,
      "rific": 6245,
      "अधिराज्य": 6246,
      "डिजा": 6247,
      "amongst": 6248,
      "सचिवालय": 6249,
      "विद्युत्": 6250,
      "Agricult": 6251,
      "मान्यता": 6252,
      "sess": 6253,
      "प्रकार्य": 6254,
      "परिभा": 6255,
      "श्ती": 6256,
      "युवा": 6257,
      "वैध": 6258,
      "वृत्त": 6259,
      "प्रबन्धक": 6260,
      "animal": 6261,
      "परेन": 6262,
      "treatment": 6263,
      "proceedings": 6264,
      "flesh": 6265,
      "May": 6266,
      "ba": 6267,
      "क्से": 6268,
      "नीत": 6269,
      "स्थापन": 6270,
      "यसबाट": 6271,
      "नैतिक": 6272,
      "presence": 6273,
      "postal": 6274,
      "सवारीको": 6275,
      "न्यायाधी": 6276,
      "walk": 6277,
      "अङ्ग": 6278,
      "आकार": 6279,
      "वाइ": 6280,
      "मोही": 6281,
      "habit": 6282,
      "Note": 6283,
      "अपाङ्ग": 6284,
      "Meeting": 6285,
      "घरेलु": 6286,
      "forward": 6287,
      "परिभाषा": 6288,
      "etent": 6289,
      "समितिमा": 6290,
      "choose": 6291,
      "responsibility": 6292,
      "Group": 6293,
      "अभ": 6294,
      "उन्न": 6295,
      "kets": 6296,
      "manpower": 6297,
      "च्छ": 6298,
      "स्थिर": 6299,
      "Photo": 6300,
      "fy": 6301,
      "ये": 6302,
      "श्रा": 6303,
      "Search": 6304,
      "त्यसै": 6305,
      "दर्श": 6306,
      "........................": 6307,
      "शहरी": 6308,
      "major": 6309,
      "सक्तैन": 6310,
      "BAR": 6311,
      "Trust": 6312,
      "cate": 6313,
      "कथा": 6314,
      "वान": 6315,
      "रूख": 6316,
      "operating": 6317,
      "मूल्यमा": 6318,
      "कम्पनीको": 6319,
      "धर्म": 6320,
      "सुदृढीकरण": 6321,
      "जिम्मेवारी": 6322,
      "constituted": 6323,
      "similar": 6324,
      "XML": 6325,
      "सन्तु": 6326,
      "र्स": 6327,
      "arbitr": 6328,
      "device": 6329,
      "दाज्यू": 6330,
      "चाई": 6331,
      "न्द्र": 6332,
      "सकेका": 6333,
      "ाउँछ": 6334,
      "सम्पत्तिको": 6335,
      "उद्देश्यले": 6336,
      "Powers": 6337,
      "arrangement": 6338,
      "midst": 6339,
      "structure": 6340,
      "परिभाषित": 6341,
      "cry": 6342,
      "नभएमा": 6343,
      "रचना": 6344,
      "once": 6345,
      "गराउ": 6346,
      "code": 6347,
      "योजनावधि": 6348,
      "subst": 6349,
      "सेवामा": 6350,
      "Minister": 6351,
      "Short": 6352,
      "returned": 6353,
      "fields": 6354,
      "Display": 6355,
      "Certificate": 6356,
      "India": 6357,
      "actions": 6358,
      "atter": 6359,
      "याद": 6360,
      "दुः": 6361,
      "passed": 6362,
      "मनोनीत": 6363,
      "tourism": 6364,
      "थप्नुहोस्": 6365,
      "equal": 6366,
      "na": 6367,
      "wra": 6368,
      "स्को": 6369,
      "बास": 6370,
      "sight": 6371,
      "सक्छौ": 6372,
      "पहिल्यै": 6373,
      "लिखत": 6374,
      "continue": 6375,
      "However": 6376,
      "मनासिब": 6377,
      "अमेरिकी": 6378,
      "font": 6379,
      "आन": 6380,
      "बहाल": 6381,
      "यल": 6382,
      "नाश": 6383,
      "essential": 6384,
      "liable": 6385,
      "बिमा": 6386,
      "बनाउनुहोस्": 6387,
      "lands": 6388,
      "समेतलाई": 6389,
      "पको": 6390,
      "मञ्": 6391,
      "सम्भार": 6392,
      "ung": 6393,
      "क्षेत्रलाई": 6394,
      "els": 6395,
      "रकमको": 6396,
      "background": 6397,
      "windows": 6398,
      "proposed": 6399,
      "Pres": 6400,
      "aron": 6401,
      "लिए": 6402,
      "प्ला": 6403,
      "रोटी": 6404,
      "empty": 6405,
      "दीर्": 6406,
      "तेल": 6407,
      "Law": 6408,
      "वादी": 6409,
      "नाफा": 6410,
      "sever": 6411,
      "कारवाही": 6412,
      "कर्पो": 6413,
      "सञ्जाल": 6414,
      "entered": 6415,
      "considered": 6416,
      "achieve": 6417,
      "पलिश्ती": 6418,
      "PG": 6419,
      "फ्या": 6420,
      "necessity": 6421,
      "२०६६": 6422,
      "metric": 6423,
      "Key": 6424,
      "Ten": 6425,
      "hist": 6426,
      "ँदै": 6427,
      "ऊर्जा": 6428,
      "कियाह": 6429,
      "safe": 6430,
      "वेब": 6431,
      "upto": 6432,
      "भोल्यु": 6433,
      "पर्वतारो": 6434,
      "मात्रामा": 6435,
      "photo": 6436,
      "cub": 6437,
      "ded": 6438,
      "इला": 6439,
      "कमी": 6440,
      "३९": 6441,
      "ension": 6442,
      "ष्टा": 6443,
      "que": 6444,
      "नामकरण": 6445,
      "desktop": 6446,
      "listen": 6447,
      "परिषद्ले": 6448,
      "seek": 6449,
      "strong": 6450,
      "चेताव": 6451,
      "ping": 6452,
      "यस्तै": 6453,
      "seem": 6454,
      "गरें": 6455,
      "ney": 6456,
      "हिं": 6457,
      "ेशन": 6458,
      "ditional": 6459,
      "उत्पादनमा": 6460,
      "खेती": 6461,
      "कर्पोरे": 6462,
      "Dat": 6463,
      "बजेट": 6464,
      "माइ": 6465,
      "ename": 6466,
      "विज्ञा": 6467,
      "न्छौ": 6468,
      "liability": 6469,
      "died": 6470,
      "press": 6471,
      "planning": 6472,
      "regarding": 6473,
      "resul": 6474,
      "बराबर": 6475,
      "Polic": 6476,
      "३२": 6477,
      "विरोध": 6478,
      "खाद्या": 6479,
      "render": 6480,
      "Why": 6481,
      "joint": 6482,
      "houses": 6483,
      "दुःख": 6484,
      "Aud": 6485,
      "Out": 6486,
      "ield": 6487,
      "site": 6488,
      "इमेल": 6489,
      "कट्टी": 6490,
      "गाउ": 6491,
      "तः": 6492,
      "बहि": 6493,
      "कालो": 6494,
      "काउन्": 6495,
      "tified": 6496,
      "stri": 6497,
      "कार्यरत": 6498,
      "Information": 6499,
      "fear": 6500,
      "माथिको": 6501,
      "appears": 6502,
      "आउनु": 6503,
      "ठि": 6504,
      "पट": 6505,
      "बसो": 6506,
      "४८": 6507,
      "निको": 6508,
      "assi": 6509,
      "परम्": 6510,
      "हीन": 6511,
      "सूल": 6512,
      "जीवित": 6513,
      "ध्यक्ष": 6514,
      "महसुल": 6515,
      "स्पष्टीकरण": 6516,
      "born": 6517,
      "शरीर": 6518,
      "प्रत्यायोजन": 6519,
      "further": 6520,
      "pict": 6521,
      "सदा": 6522,
      "क्षेत्रभित्र": 6523,
      "video": 6524,
      "filled": 6525,
      "deliver": 6526,
      "contact": 6527,
      "gs": 6528,
      "अपे": 6529,
      "ane": 6530,
      "told": 6531,
      "प्रवाह": 6532,
      "bey": 6533,
      "extra": 6534,
      "कार्यहरू": 6535,
      "स्वयं": 6536,
      "drink": 6537,
      "उत्पादक": 6538,
      "discussion": 6539,
      "चेतावनी": 6540,
      "Aaron": 6541,
      "Du": 6542,
      "Pa": 6543,
      "mouse": 6544,
      "va": 6545,
      "levi": 6546,
      "पाउन": 6547,
      "पुनरावलोकन": 6548,
      "encry": 6549,
      "inspection": 6550,
      "fifty": 6551,
      "सधैं": 6552,
      "स्विच": 6553,
      "ds": 6554,
      "ps": 6555,
      "stop": 6556,
      "अचल": 6557,
      "aries": 6558,
      "secretary": 6559,
      "profit": 6560,
      "यरूशलेम": 6561,
      "studies": 6562,
      "later": 6563,
      "कका": 6564,
      "नगरेको": 6565,
      "विपरी": 6566,
      "बालिका": 6567,
      "waste": 6568,
      "सार्नुहोस्": 6569,
      "Registrar": 6570,
      "चाहेको": 6571,
      "परम्परा": 6572,
      "Bus": 6573,
      "Wel": 6574,
      "फेर": 6575,
      "dev": 6576,
      "जिम्मा": 6577,
      "रुको": 6578,
      "gradu": 6579,
      "pread": 6580,
      "few": 6581,
      "विशेषता": 6582,
      "च्ची": 6583,
      "regions": 6584,
      "अगावै": 6585,
      "delivered": 6586,
      "जन्म": 6587,
      "ढुवा": 6588,
      "गर्यौ": 6589,
      "ste": 6590,
      "परिणा": 6591,
      "कुराहरु": 6592,
      "Third": 6593,
      "250": 6594,
      "Speak": 6595,
      "वास्तव": 6596,
      "परिमार्जन": 6597,
      "Jan": 6598,
      "turned": 6599,
      "एलको": 6600,
      "गल्": 6601,
      "sequ": 6602,
      "summ": 6603,
      "हाइ": 6604,
      "दिनमा": 6605,
      "प्रकारका": 6606,
      "Association": 6607,
      "बस": 6608,
      "ani": 6609,
      "क्वा": 6610,
      "poor": 6611,
      "समायोजन": 6612,
      "expan": 6613,
      "आयोजनाहरु": 6614,
      "शक्तिशाली": 6615,
      "पुग्न": 6616,
      "limited": 6617,
      "burnt": 6618,
      "सङ्कलन": 6619,
      "ढुवानी": 6620,
      "पाउँ": 6621,
      "स्वदेश": 6622,
      "समाविष्ट": 6623,
      "collection": 6624,
      "Auto": 6625,
      "फारा": 6626,
      "prices": 6627,
      "little": 6628,
      "ध्वनि": 6629,
      "नमूना": 6630,
      "आनन्द": 6631,
      "ँडा": 6632,
      "अडियो": 6633,
      "नगरी": 6634,
      "न्नुहोस्": 6635,
      "सम्व": 6636,
      "conferred": 6637,
      "produced": 6638,
      "दरले": 6639,
      "transactions": 6640,
      "authorized": 6641,
      "renewal": 6642,
      "आवाज": 6643,
      "१००": 6644,
      "thus": 6645,
      "alty": 6646,
      "न्यु": 6647,
      "got": 6648,
      "अघिल्लो": 6649,
      "silver": 6650,
      "hid": 6651,
      "आधा": 6652,
      "ब्रे": 6653,
      "insurance": 6654,
      "प्रवर्": 6655,
      "agent": 6656,
      "types": 6657,
      "फोहर": 6658,
      "Exp": 6659,
      "accompan": 6660,
      "Program": 6661,
      "विश्लेषण": 6662,
      "27": 6663,
      "गई": 6664,
      "दिएका": 6665,
      "आफैं": 6666,
      "पार्नु": 6667,
      "ariat": 6668,
      "प्रोफाइल": 6669,
      "atives": 6670,
      "दाखिला": 6671,
      "lon": 6672,
      "won": 6673,
      "पर्खा": 6674,
      "भागमा": 6675,
      "syn": 6676,
      "repair": 6677,
      "named": 6678,
      "cup": 6679,
      "उठा": 6680,
      "assets": 6681,
      "थाले": 6682,
      "lived": 6683,
      "titude": 6684,
      "Details": 6685,
      "possess": 6686,
      "शुरू": 6687,
      "उल्ल": 6688,
      "administration": 6689,
      "contains": 6690,
      "Up": 6691,
      "आरो": 6692,
      "३५": 6693,
      "deal": 6694,
      "uly": 6695,
      "kings": 6696,
      "परमेश्वरका": 6697,
      "feasi": 6698,
      "And": 6699,
      "cretariat": 6700,
      "mighty": 6701,
      "--------": 6702,
      "*.": 6703,
      "इएका": 6704,
      "icon": 6705,
      "ided": 6706,
      "ham": 6707,
      "plain": 6708,
      "सिका": 6709,
      "undertaken": 6710,
      "Book": 6711,
      "ज्ञात": 6712,
      "accompanied": 6713,
      "Mon": 6714,
      "eering": 6715,
      "seed": 6716,
      "dig": 6717,
      "गरिनेछन्": 6718,
      "1990": 6719,
      "famil": 6720,
      "माध्यमबाट": 6721,
      "absence": 6722,
      "धना": 6723,
      "सल": 6724,
      "बाना": 6725,
      "notification": 6726,
      "पुस्ति": 6727,
      "ference": 6728,
      "विभागीय": 6729,
      "चलाउन": 6730,
      "चाहिने": 6731,
      "द्र्धन": 6732,
      "ff": 6733,
      "km": 6734,
      "rele": 6735,
      "youth": 6736,
      "लगि": 6737,
      "calendar": 6738,
      "Under": 6739,
      "पर्वत": 6740,
      "चीजहरू": 6741,
      "package": 6742,
      "अब्राहा": 6743,
      "diction": 6744,
      "ditor": 6745,
      "pie": 6746,
      "sac": 6747,
      "ince": 6748,
      "देशका": 6749,
      "प्ता": 6750,
      "others": 6751,
      "मूलक": 6752,
      "produce": 6753,
      "spirit": 6754,
      "विषयवस्तु": 6755,
      "measures": 6756,
      "break": 6757,
      "index": 6758,
      "sources": 6759,
      "agencies": 6760,
      "अदालतको": 6761,
      "generation": 6762,
      "फाँट": 6763,
      "character": 6764,
      "Application": 6765,
      "Majesty": 6766,
      "gisl": 6767,
      "Mail": 6768,
      "छ्या": 6769,
      "पावल": 6770,
      "unit": 6771,
      "द्धा": 6772,
      "सुन्द": 6773,
      "ङ्‍": 6774,
      "देखिएको": 6775,
      "राखे": 6776,
      "hibi": 6777,
      "phone": 6778,
      "कागज": 6779,
      "View": 6780,
      "guaran": 6781,
      "Water": 6782,
      "river": 6783,
      "जनाउँछ": 6784,
      "disabled": 6785,
      "बीस": 6786,
      "contents": 6787,
      "बुझा": 6788,
      "tons": 6789,
      "कानूनी": 6790,
      "प्रोत्साहन": 6791,
      "विपरीत": 6792,
      "29": 6793,
      "ele": 6794,
      "oil": 6795,
      "निलम्बन": 6796,
      "संकल": 6797,
      "plic": 6798,
      "तरवार": 6799,
      "Second": 6800,
      "Notification": 6801,
      "operations": 6802,
      "राजाको": 6803,
      "पदावधि": 6804,
      "मुद्दाको": 6805,
      "सहभागिता": 6806,
      "righteousness": 6807,
      "advance": 6808,
      "utilization": 6809,
      "expression": 6810,
      "Type": 6811,
      "योजनावधिमा": 6812,
      "expansion": 6813,
      "जसो": 6814,
      "र्ई": 6815,
      "मारे": 6816,
      "track": 6817,
      "ल्याउनु": 6818,
      "issuing": 6819,
      "folders": 6820,
      "allowance": 6821,
      "hydro": 6822,
      "दस्तखत": 6823,
      "दीर्घ": 6824,
      "GDM": 6825,
      "आक्रमण": 6826,
      "ट्रा": 6827,
      "ब्य": 6828,
      "enabled": 6829,
      "तिनको": 6830,
      "coven": 6831,
      "समितिका": 6832,
      "struction": 6833,
      "सचिवले": 6834,
      "पठाए": 6835,
      "Only": 6836,
      "elsewhere": 6837,
      "brid": 6838,
      "वाट": 6839,
      "दियो": 6840,
      "भन्न": 6841,
      "asked": 6842,
      "ordinate": 6843,
      "aver": 6844,
      "अल्": 6845,
      "तस्वी": 6846,
      "माउस": 6847,
      "परेका": 6848,
      "फोन": 6849,
      "प्रतिष्ठानको": 6850,
      "either": 6851,
      "flow": 6852,
      "gun": 6853,
      "नर": 6854,
      "स्पर्": 6855,
      "ising": 6856,
      "room": 6857,
      "योजनाकालमा": 6858,
      "छिटो": 6859,
      "बिरुवा": 6860,
      "खर्चको": 6861,
      "भारत": 6862,
      "अर्थतन्त्र": 6863,
      "joy": 6864,
      "temporary": 6865,
      "सृजना": 6866,
      "execute": 6867,
      "sacrific": 6868,
      "Ben": 6869,
      "More": 6870,
      "जर्": 6871,
      "पल्ट": 6872,
      "सक्छन्": 6873,
      "disp": 6874,
      "worker": 6875,
      "देखाउने": 6876,
      "लेखन": 6877,
      "struck": 6878,
      "Unless": 6879,
      "Control": 6880,
      "scale": 6881,
      "डाटाबेस": 6882,
      "80": 6883,
      "billion": 6884,
      "lu": 6885,
      "oh": 6886,
      "ड्रा": 6887,
      "submission": 6888,
      "centre": 6889,
      "ateral": 6890,
      "ज्ञानिक": 6891,
      "हटाउनुहोस्": 6892,
      "हेरफेर": 6893,
      "यरूशलेममा": 6894,
      "hectares": 6895,
      "Fe": 6896,
      "Ir": 6897,
      "रक": 6898,
      "मानिने": 6899,
      "die": 6900,
      "जोर": 6901,
      "ल्याउने": 6902,
      "colle": 6903,
      "ators": 6904,
      "वालाले": 6905,
      "औषध": 6906,
      "princip": 6907,
      "farmers": 6908,
      "drop": 6909,
      "village": 6910,
      "wat": 6911,
      "खराब": 6912,
      "केवल": 6913,
      "संस्थागत": 6914,
      "लेख्": 6915,
      "दायरा": 6916,
      "पदार्थको": 6917,
      "Fourth": 6918,
      "covenant": 6919,
      "IS": 6920,
      "गन": 6921,
      "मरू": 6922,
      "ali": 6923,
      "radio": 6924,
      "example": 6925,
      "पत्रको": 6926,
      "व्यवस्थाको": 6927,
      "लेख्न": 6928,
      "राजस्व": 6929,
      "तपाईंका": 6930,
      "पानीको": 6931,
      "मालपो": 6932,
      "banks": 6933,
      "हुन्थ्यो": 6934,
      "चौडाइ": 6935,
      "ध्वंश": 6936,
      "collected": 6937,
      "»»»»": 6938,
      "तालीम": 6939,
      "खरीद": 6940,
      "`'": 6941,
      "न्थे": 6942,
      "ilder": 6943,
      "बाँच": 6944,
      "manage": 6945,
      "clud": 6946,
      "Form": 6947,
      "जिल्लामा": 6948,
      "जसको": 6949,
      "अधिकारीको": 6950,
      "सर्वो": 6951,
      "Father": 6952,
      "aim": 6953,
      "io": 6954,
      "pi": 6955,
      "note": 6956,
      "कार्यहरु": 6957,
      "Inspe": 6958,
      "personal": 6959,
      "doing": 6960,
      "आफ्नोे": 6961,
      "wood": 6962,
      "रुपैया": 6963,
      "skill": 6964,
      "professional": 6965,
      "Oper": 6966,
      "धर": 6967,
      "पक्र": 6968,
      "क्रियाकला": 6969,
      "महान": 6970,
      "consideration": 6971,
      "जरिबाना": 6972,
      "अपराध": 6973,
      "Eighth": 6974,
      "Son": 6975,
      "ured": 6976,
      "भन्यो": 6977,
      "रस": 6978,
      "क्षकको": 6979,
      "दिशा": 6980,
      "त्यति": 6981,
      "त्यसमा": 6982,
      "नियममा": 6983,
      "दर्ताको": 6984,
      "पेट": 6985,
      "Start": 6986,
      "Tech": 6987,
      "मूर्ख": 6988,
      "System": 6989,
      "GNO": 6990,
      "hill": 6991,
      "असुल": 6992,
      "चेत": 6993,
      "भ्": 6994,
      "नेर": 6995,
      "लिया": 6996,
      "उपहार": 6997,
      "uting": 6998,
      "route": 6999,
      "बेच": 7000,
      "तत्काल": 7001,
      "automatically": 7002,
      "Bar": 7003,
      "Lab": 7004,
      "TE": 7005,
      "Window": 7006,
      "तला": 7007,
      "उपे": 7008,
      "टिप्": 7009,
      "देखिने": 7010,
      "fell": 7011,
      "Move": 7012,
      "बेलामा": 7013,
      "ट्याग": 7014,
      "यहोशू": 7015,
      "killed": 7016,
      "आँखा": 7017,
      "Spirit": 7018,
      "bound": 7019,
      "gone": 7020,
      "अलग": 7021,
      "धै": 7022,
      "रगत": 7023,
      "३७": 7024,
      "४२": 7025,
      "परित": 7026,
      "चालू": 7027,
      "महिमा": 7028,
      "धितोको": 7029,
      "Order": 7030,
      "Organ": 7031,
      "Trade": 7032,
      "teachers": 7033,
      "monitoring": 7034,
      "डाउनलोड": 7035,
      "none": 7036,
      "always": 7037,
      "stay": 7038,
      "क्री": 7039,
      "पत्रिका": 7040,
      "options": 7041,
      "publication": 7042,
      "volution": 7043,
      "quantity": 7044,
      "31": 7045,
      "TP": 7046,
      "please": 7047,
      "टिक": 7048,
      "तिमा": 7049,
      "ases": 7050,
      "थिच्": 7051,
      "extent": 7052,
      "deems": 7053,
      "connect": 7054,
      "towards": 7055,
      "future": 7056,
      "GNOME": 7057,
      "coun": 7058,
      "lord": 7059,
      "sch": 7060,
      "inherit": 7061,
      "फाइलको": 7062,
      "प्रस्तावित": 7063,
      "branch": 7064,
      "तारा": 7065,
      "House": 7066,
      "master": 7067,
      "कन": 7068,
      "षे": 7069,
      "resh": 7070,
      "prob": 7071,
      "ols": 7072,
      "गरीब": 7073,
      "सकेमा": 7074,
      "फिर": 7075,
      "असक्षम": 7076,
      "Make": 7077,
      "punished": 7078,
      "black": 7079,
      "Central": 7080,
      "purchase": 7081,
      "currency": 7082,
      "Such": 7083,
      "hus": 7084,
      "गर्छौ": 7085,
      "liquid": 7086,
      "मानव": 7087,
      "सकेपछि": 7088,
      "ल्याए": 7089,
      "परिषद््": 7090,
      "responsible": 7091,
      "spoken": 7092,
      "manufact": 7093,
      "Mis": 7094,
      "Pra": 7095,
      "Time": 7096,
      "करि": 7097,
      "तँ": 7098,
      "तराई": 7099,
      "नसकेको": 7100,
      "thered": 7101,
      "पुल": 7102,
      "आफैले": 7103,
      "points": 7104,
      "Because": 7105,
      "Server": 7106,
      "initial": 7107,
      "२०६३": 7108,
      "objects": 7109,
      "original": 7110,
      "steps": 7111,
      "cance": 7112,
      "इरहेको": 7113,
      "एल्": 7114,
      "नपर्ने": 7115,
      "हण": 7116,
      "प्रशो": 7117,
      "राह": 7118,
      "loans": 7119,
      "lobal": 7120,
      "चाहनु": 7121,
      "समूहमा": 7122,
      "विद्यमान": 7123,
      "बालबालिका": 7124,
      "साँच्च": 7125,
      "Tele": 7126,
      "zz": 7127,
      "अज्ञात": 7128,
      "कठि": 7129,
      "दास": 7130,
      "दाबी": 7131,
      "गर्नुभएको": 7132,
      "सक्दछ": 7133,
      "fav": 7134,
      "व्यापक": 7135,
      "attle": 7136,
      "deposited": 7137,
      "ट्रेड": 7138,
      "Customs": 7139,
      "==": 7140,
      "Gra": 7141,
      "Vo": 7142,
      "htt": 7143,
      "डको": 7144,
      "mption": 7145,
      "द्वि": 7146,
      "नोकर": 7147,
      "Default": 7148,
      "assess": 7149,
      "मालवस्तु": 7150,
      "सभामा": 7151,
      "गठित": 7152,
      "standards": 7153,
      "सेवक": 7154,
      "resolution": 7155,
      "bes": 7156,
      "wish": 7157,
      "असूल": 7158,
      "इतिहा": 7159,
      "३६": 7160,
      "sun": 7161,
      "भनेको": 7162,
      "जनताको": 7163,
      "Defin": 7164,
      "feet": 7165,
      "खोज": 7166,
      "देखाउन": 7167,
      "planation": 7168,
      "levels": 7169,
      "publishing": 7170,
      "bidder": 7171,
      "प्य": 7172,
      "incurred": 7173,
      "पाना": 7174,
      "िकरण": 7175,
      "लियत": 7176,
      "लगाई": 7177,
      "हेर्ने": 7178,
      "accept": 7179,
      "पुरानो": 7180,
      "प्रश्न": 7181,
      "500": 7182,
      "IF": 7183,
      "Twenty": 7184,
      "gain": 7185,
      "sec": 7186,
      "procedure": 7187,
      "जिनो": 7188,
      "throughout": 7189,
      "pension": 7190,
      "cording": 7191,
      "अनुमतिपत्रको": 7192,
      "schools": 7193,
      "भविष्यमा": 7194,
      "न्यायाधीश": 7195,
      "ule": 7196,
      "औजार": 7197,
      "ट्रि": 7198,
      "प्रेर": 7199,
      "केको": 7200,
      "फाइ": 7201,
      "week": 7202,
      "कृया": 7203,
      "भेला": 7204,
      "Solo": 7205,
      "placed": 7206,
      "चिकित्सा": 7207,
      "Financial": 7208,
      "enemies": 7209,
      "hibition": 7210,
      ":–": 7211,
      "van": 7212,
      "असमर्थ": 7213,
      "बनि": 7214,
      "श्या": 7215,
      "thi": 7216,
      "recent": 7217,
      "स्टे": 7218,
      "staff": 7219,
      "पर्दैन": 7220,
      "geo": 7221,
      "भन्‍": 7222,
      "Export": 7223,
      "imported": 7224,
      "loading": 7225,
      "estimate": 7226,
      "Cho": 7227,
      "Fore": 7228,
      "Yes": 7229,
      "pix": 7230,
      "नक्सा": 7231,
      "४५": 7232,
      "enco": 7233,
      "नानीहरू": 7234,
      "रोक्का": 7235,
      "रूपान्तरण": 7236,
      "fails": 7237,
      "cured": 7238,
      "ग्लो": 7239,
      "printer": 7240,
      "consent": 7241,
      "clearly": 7242,
      "fulfilled": 7243,
      "style": 7244,
      "Solomon": 7245,
      "gazet": 7246,
      "reed": 7247,
      "rela": 7248,
      "लेर": 7249,
      "उपत्य": 7250,
      "प्रतिस्पर्": 7251,
      "अन्तर्गतको": 7252,
      "प्रस्तावको": 7253,
      "signif": 7254,
      "removed": 7255,
      "बीचको": 7256,
      "ength": 7257,
      "husband": 7258,
      "brow": 7259,
      "ker": 7260,
      "rise": 7261,
      "wind": 7262,
      "अश्": 7263,
      "अञ्चल": 7264,
      "टगल": 7265,
      "पछाडि": 7266,
      "दिंदा": 7267,
      "product": 7268,
      "partner": 7269,
      "pray": 7270,
      "2063": 7271,
      "circumstances": 7272,
      "एकीकृत": 7273,
      "परिणाम": 7274,
      "नलागेमा": 7275,
      "यनको": 7276,
      "३१": 7277,
      "plants": 7278,
      "बिदा": 7279,
      "स्टक": 7280,
      "किसिमका": 7281,
      "displayed": 7282,
      "Baby": 7283,
      "execut": 7284,
      "guarantee": 7285,
      "तस्वीर": 7286,
      "फिरऊ": 7287,
      "ler": 7288,
      "wilder": 7289,
      "शपथ": 7290,
      "stone": 7291,
      "संसूचक": 7292,
      "neigh": 7293,
      "ets": 7294,
      "aily": 7295,
      "शिक्षाको": 7296,
      "।।।।": 7297,
      "waters": 7298,
      "Babylon": 7299,
      "CD": 7300,
      "lad": 7301,
      "mies": 7302,
      "निया": 7303,
      "aspe": 7304,
      "लागु": 7305,
      "सुझा": 7306,
      "bot": 7307,
      "बोर्डले": 7308,
      "improved": 7309,
      "संकलन": 7310,
      "wilderness": 7311,
      "Tour": 7312,
      "jur": 7313,
      "डित": 7314,
      "ह्रा": 7315,
      "प्रव": 7316,
      "ats": 7317,
      "ices": 7318,
      "केा": 7319,
      "योगदान": 7320,
      "izing": 7321,
      "पैं": 7322,
      "paper": 7323,
      "पुर्‍याउने": 7324,
      "खाद्यान्न": 7325,
      "मालपोत": 7326,
      "75": 7327,
      ";)": 7328,
      "ived": 7329,
      "nn": 7330,
      "जमान": 7331,
      "३३": 7332,
      "tom": 7333,
      "esh": 7334,
      "estern": 7335,
      "Nepali": 7336,
      "रहनेछन्": 7337,
      "वैज्ञानिक": 7338,
      "Exchange": 7339,
      "offense": 7340,
      "conducting": 7341,
      "culti": 7342,
      "35": 7343,
      "cand": 7344,
      "सरुवा": 7345,
      "कारा": 7346,
      "न्टा": 7347,
      "suffic": 7348,
      "amendment": 7349,
      "माथिल्लो": 7350,
      "लेखिए": 7351,
      "profile": 7352,
      "drugs": 7353,
      "भण्डारण": 7354,
      "ible": 7355,
      "स्मृ": 7356,
      "एकद": 7357,
      "क्रमबद्ध": 7358,
      "clim": 7359,
      "आयोजनाहरुको": 7360,
      "organis": 7361,
      "establishment": 7362,
      "Docu": 7363,
      "Lev": 7364,
      "1989": 7365,
      "पुग्ने": 7366,
      "hard": 7367,
      "smo": 7368,
      "घृ": 7369,
      "तस": 7370,
      "यति": 7371,
      "edit": 7372,
      "लार्ई": 7373,
      "रामी": 7374,
      "detail": 7375,
      "सीप": 7376,
      "सर्वसाधारण": 7377,
      "म्यादभित्र": 7378,
      "checked": 7379,
      "थप्न": 7380,
      "opportunity": 7381,
      "घण्टा": 7382,
      "Philist": 7383,
      "उन्नत": 7384,
      "उपेक्षा": 7385,
      "Jew": 7386,
      "TR": 7387,
      "ँउ": 7388,
      "repe": 7389,
      "possession": 7390,
      "chem": 7391,
      "२०४७": 7392,
      "पढ्": 7393,
      "consider": 7394,
      "उपाय": 7395,
      "representative": 7396,
      "accomplish": 7397,
      "विमानस्थल": 7398,
      "imposed": 7399,
      "categ": 7400,
      "अड्": 7401,
      "गर्दछन्": 7402,
      "नापी": 7403,
      "जानुहोस्": 7404,
      "iring": 7405,
      "गुठी": 7406,
      "हुनुपर्दछ": 7407,
      "closed": 7408,
      "According": 7409,
      "PS": 7410,
      "clip": 7411,
      "wi": 7412,
      "टर्मि": 7413,
      "धन्य": 7414,
      "aren": 7415,
      "propon": 7416,
      "गरिनु": 7417,
      "उँदै": 7418,
      "ङ्कन": 7419,
      "apply": 7420,
      "वीर": 7421,
      "निकायमा": 7422,
      "कर्ताले": 7423,
      "महिनाको": 7424,
      "फोल्डरमा": 7425,
      "सञ्झ्यालमा": 7426,
      "students": 7427,
      "witness": 7428,
      "enterprise": 7429,
      "सर्भरमा": 7430,
      "families": 7431,
      "average": 7432,
      "Ge": 7433,
      "झिक": 7434,
      "भरी": 7435,
      "र्ने": 7436,
      "argu": 7437,
      "audio": 7438,
      "शिष्ट": 7439,
      "।”‘": 7440,
      "अधिकारको": 7441,
      "Armies": 7442,
      "पर्यटक": 7443,
      "सिंचाइ": 7444,
      "पुस्तकचिनो": 7445,
      "suspension": 7446,
      "प्रेरित": 7447,
      "reti": 7448,
      "निषे": 7449,
      "attention": 7450,
      "गरेपछि": 7451,
      "valent": 7452,
      "सञ्चालित": 7453,
      "वस्तुहरुको": 7454,
      "लगाइएको": 7455,
      "टेम्": 7456,
      "राख्नुहोस्": 7457,
      "पठाउने": 7458,
      "atis": 7459,
      "mountaineering": 7460,
      "बैंकले": 7461,
      "opportunities": 7462,
      "Employee": 7463,
      "pattern": 7464,
      "fruit": 7465,
      "aving": 7466,
      "ovable": 7467,
      "४१": 7468,
      "सान": 7469,
      "ames": 7470,
      "सरकारलाई": 7471,
      "कार्यक्रममा": 7472,
      "सामाग्री": 7473,
      "सफाई": 7474,
      "Ke": 7475,
      "iency": 7476,
      "panchayat": 7477,
      "इकाई": 7478,
      "म्र": 7479,
      "किङ्ग": 7480,
      "छैनौ": 7481,
      "miner": 7482,
      "रेख": 7483,
      "gives": 7484,
      "तहमा": 7485,
      "कुञ्जीपाटी": 7486,
      "transportation": 7487,
      "दाताले": 7488,
      "ggle": 7489,
      "destroyed": 7490,
      "डिजाइन": 7491,
      "gislature": 7492,
      "(#": 7493,
      "Right": 7494,
      "श्रो": 7495,
      "सजि": 7496,
      "न्ती": 7497,
      "स्कार": 7498,
      "हुनाले": 7499,
      "defic": 7500,
      "गर्नमा": 7501,
      "adjust": 7502,
      "कर्मी": 7503,
      "संस्थाबाट": 7504,
      "क्याम्प": 7505,
      "Related": 7506,
      "मन्दिरको": 7507,
      "recognized": 7508,
      "oriented": 7509,
      "El": 7510,
      "bow": 7511,
      "ners": 7512,
      "आकर्": 7513,
      "भत्": 7514,
      "सौ": 7515,
      "ौटी": 7516,
      "मापद": 7517,
      "सम्बद्ध": 7518,
      "abroad": 7519,
      "prevent": 7520,
      "Commun": 7521,
      "सकिदैन": 7522,
      "corru": 7523,
      "Eng": 7524,
      "meetings": 7525,
      "जग्गामा": 7526,
      "include": 7527,
      "extend": 7528,
      "लगानीको": 7529,
      "Article": 7530,
      "offerings": 7531,
      "ysis": 7532,
      "judge": 7533,
      "occurred": 7534,
      "दिन्छु": 7535,
      "ronic": 7536,
      "ब्याज": 7537,
      "ट्रया": 7538,
      "Senate": 7539,
      "39": 7540,
      "45": 7541,
      "Every": 7542,
      "Phara": 7543,
      "email": 7544,
      "कब्जा": 7545,
      "सला": 7546,
      "नेका": 7547,
      "रात": 7548,
      "stain": 7549,
      "Invalid": 7550,
      "center": 7551,
      "फिल्ड": 7552,
      "media": 7553,
      "कृषक": 7554,
      "ंशिक": 7555,
      "majority": 7556,
      "साझेदार": 7557,
      "ढोका": 7558,
      "ह्यान्ड": 7559,
      "क्लिप": 7560,
      "मापदण्ड": 7561,
      "Pharaoh": 7562,
      "dou": 7563,
      "spread": 7564,
      "कल्प": 7565,
      "aring": 7566,
      "army": 7567,
      "वार्य": 7568,
      "root": 7569,
      "belong": 7570,
      "height": 7571,
      "stab": 7572,
      "हानी": 7573,
      "साव": 7574,
      "yourself": 7575,
      "बीउ": 7576,
      "दोहो": 7577,
      "transferred": 7578,
      "loaded": 7579,
      "Securities": 7580,
      "अपाङ्गता": 7581,
      "candid": 7582,
      "ious": 7583,
      "र्वाद": 7584,
      "होम": 7585,
      "covered": 7586,
      "किका": 7587,
      "समितिलाई": 7588,
      "फाइलनाम": 7589,
      "content": 7590,
      "शहरको": 7591,
      "इस्राएलको": 7592,
      "articles": 7593,
      "`%.": 7594,
      "round": 7595,
      "yes": 7596,
      "पचार": 7597,
      "स्पे": 7598,
      "नात्मक": 7599,
      "ilar": 7600,
      "मानिसहरु": 7601,
      "अन्यथा": 7602,
      "उसका": 7603,
      "तर्क": 7604,
      "तहकिका": 7605,
      "भोजन": 7606,
      "sw": 7607,
      "हटा": 7608,
      "ुस": 7609,
      "सम्भावना": 7610,
      "साक्षी": 7611,
      "कारवाई": 7612,
      "पर्यो": 7613,
      "preser": 7614,
      "subs": 7615,
      "regul": 7616,
      "खोली": 7617,
      "खोज्": 7618,
      "immovable": 7619,
      "मनोन": 7620,
      "bed": 7621,
      "ttage": 7622,
      "uent": 7623,
      "छाउ": 7624,
      "पं": 7625,
      "बन्": 7626,
      "३८": 7627,
      "माझ": 7628,
      "attemp": 7629,
      "unal": 7630,
      "competent": 7631,
      "Acts": 7632,
      "लगाउनुहोस्": 7633,
      "द्वार": 7634,
      "दायिक": 7635,
      "कोषले": 7636,
      "कारबाहीको": 7637,
      "वातावरणीय": 7638,
      "ारोपण": 7639,
      "Similar": 7640,
      "Policy": 7641,
      "http": 7642,
      "RB": 7643,
      "dle": 7644,
      "length": 7645,
      "है": 7646,
      "३४": 7647,
      "serving": 7648,
      "चालु": 7649,
      "कैदी": 7650,
      "news": 7651,
      "लाइट": 7652,
      "accordingly": 7653,
      "Specif": 7654,
      "हेरचाह": 7655,
      "Hospital": 7656,
      "सामुदायिक": 7657,
      "सुझाव": 7658,
      "Bill": 7659,
      "Fo": 7660,
      "ume": 7661,
      "वस्था": 7662,
      "ह्": 7663,
      "खानी": 7664,
      "lies": 7665,
      "कसित": 7666,
      "पैसा": 7667,
      "opening": 7668,
      "greater": 7669,
      "books": 7670,
      "Legislature": 7671,
      "मोशालाई": 7672,
      "फोहरमैला": 7673,
      "Ctr": 7674,
      "जै": 7675,
      "राइ": 7676,
      "क्षकले": 7677,
      "डिया": 7678,
      "छोड्": 7679,
      "देख्न": 7680,
      "१९८": 7681,
      "recover": 7682,
      "मन्दिरमा": 7683,
      "beginning": 7684,
      "Ctrl": 7685,
      "ON": 7686,
      "Sta": 7687,
      "पय": 7688,
      "र्क": 7689,
      "raid": 7690,
      "raised": 7691,
      "जापा": 7692,
      "अनिवार्य": 7693,
      "compan": 7694,
      "answer": 7695,
      "छेउमा": 7696,
      "defined": 7697,
      "Mess": 7698,
      "ww": 7699,
      "आयु": 7700,
      "आशी": 7701,
      "inform": 7702,
      "होस": 7703,
      "त्यसो": 7704,
      "ञ्छ": 7705,
      "प्रतिस्थापन": 7706,
      "Thirty": 7707,
      "ctors": 7708,
      "वितरणको": 7709,
      "उपाध्यक्ष": 7710,
      "प्रशस्त": 7711,
      "सधै": 7712,
      "AL": 7713,
      "\\\\": 7714,
      "fri": 7715,
      "एफ": 7716,
      "ग्या": 7717,
      "भरण": 7718,
      "९०": 7719,
      "eric": 7720,
      "राम्रा": 7721,
      "suit": 7722,
      "anyone": 7723,
      "figu": 7724,
      "commod": 7725,
      "हुनेछैन": 7726,
      "kingdom": 7727,
      "मानचित्र": 7728,
      "दुबै": 7729,
      "sections": 7730,
      "centres": 7731,
      "tenant": 7732,
      "उहाँका": 7733,
      "सार्न": 7734,
      "प्रणालीको": 7735,
      "बलिको": 7736,
      "Judicial": 7737,
      "महिनाभित्र": 7738,
      "कतिपय": 7739,
      "medium": 7740,
      "respectively": 7741,
      "ired": 7742,
      "अना": 7743,
      "अध्या": 7744,
      "आप": 7745,
      "एक्": 7746,
      "खरा": 7747,
      "।\"": 7748,
      "mem": 7749,
      "द्धन": 7750,
      "parame": 7751,
      "अभिवृद्धि": 7752,
      "Members": 7753,
      "केन्द्रको": 7754,
      "सभापति": 7755,
      "Directors": 7756,
      "प्रविधिको": 7757,
      "animals": 7758,
      "environmental": 7759,
      "roller": 7760,
      "किलोमिटर": 7761,
      "launched": 7762,
      "Eli": 7763,
      "Trib": 7764,
      "oples": 7765,
      "पणी": 7766,
      "विश्रा": 7767,
      "deput": 7768,
      "राजमार्ग": 7769,
      "आवश्यकतानुसार": 7770,
      "न्यायाधिकरण": 7771,
      "सन्दू": 7772,
      "debt": 7773,
      "कदम": 7774,
      "experience": 7775,
      "significant": 7776,
      "कल्पिक": 7777,
      "flo": 7778,
      "कच्चा": 7779,
      "सत": 7780,
      "हरूसित": 7781,
      "वाल": 7782,
      "stra": 7783,
      "सां": 7784,
      "unless": 7785,
      "external": 7786,
      "शास्त्र": 7787,
      "सेवाका": 7788,
      "preview": 7789,
      "सहकारी": 7790,
      "देखाउनु": 7791,
      "भूमिसुधार": 7792,
      "valuation": 7793,
      "single": 7794,
      "ज्ये": 7795,
      "टाइप": 7796,
      "encouraged": 7797,
      "expedition": 7798,
      "gathered": 7799,
      "पर्खाल": 7800,
      "bir": 7801,
      "fast": 7802,
      "अय": 7803,
      "बजा": 7804,
      "ौँ": 7805,
      "‍यो": 7806,
      "suffer": 7807,
      "reser": 7808,
      "वर्त": 7809,
      "वर्षीय": 7810,
      "reading": 7811,
      "Child": 7812,
      "स्तरका": 7813,
      "diffic": 7814,
      "holders": 7815,
      "भइसकेको": 7816,
      "स्मृति": 7817,
      "Ra": 7818,
      "उम्मे": 7819,
      "thening": 7820,
      "मासु": 7821,
      "behalf": 7822,
      "हानि": 7823,
      "त्न": 7824,
      "colors": 7825,
      "engaged": 7826,
      "व्यापारिक": 7827,
      "खारेजी": 7828,
      "सङ्केतन": 7829,
      "प्रशासकीय": 7830,
      "width": 7831,
      "tify": 7832,
      "प्रोत्साहित": 7833,
      "तोक्न": 7834,
      "channel": 7835,
      "जमीन": 7836,
      "satisfied": 7837,
      "मनोनयन": 7838,
      "equi": 7839,
      "gree": 7840,
      "सव": 7841,
      "theme": 7842,
      "editor": 7843,
      "shop": 7844,
      "जानी": 7845,
      "लागे": 7846,
      "fication": 7847,
      "रूपै": 7848,
      "रहन्छ": 7849,
      "poll": 7850,
      "सामानको": 7851,
      "tifying": 7852,
      "शाऊल": 7853,
      "Fifty": 7854,
      "Cal": 7855,
      "council": 7856,
      "क्सी": 7857,
      "seas": 7858,
      "दाताको": 7859,
      "ल्चा": 7860,
      "गाई": 7861,
      "बढाउने": 7862,
      "classi": 7863,
      "कारणबाट": 7864,
      "पेशा": 7865,
      "terminal": 7866,
      "2066": 7867,
      "त्र्चाइ": 7868,
      "tribe": 7869,
      "85": 7870,
      "AS": 7871,
      "Back": 7872,
      "Press": 7873,
      "daily": 7874,
      "निवृत्त": 7875,
      "कार्ड": 7876,
      "लिलाम": 7877,
      "never": 7878,
      "ङ्ध": 7879,
      "Institute": 7880,
      "अवकाश": 7881,
      "स्वरुप": 7882,
      "emphas": 7883,
      "State": 7884,
      "everyone": 7885,
      "किसिम": 7886,
      "जगे": 7887,
      "विधे": 7888,
      ".'\"": 7889,
      "टाढाको": 7890,
      "Delete": 7891,
      "Configure": 7892,
      "प्रतिस्पर्धा": 7893,
      "आधु": 7894,
      "आंशिक": 7895,
      "चम्": 7896,
      "लाल": 7897,
      "समी": 7898,
      "कुरो": 7899,
      "peoples": 7900,
      "हिस्": 7901,
      "पिक्से": 7902,
      "extended": 7903,
      "प्रणालीमा": 7904,
      "void": 7905,
      "needed": 7906,
      "north": 7907,
      "सम्झौतामा": 7908,
      "नियमावलीमा": 7909,
      "however": 7910,
      "associated": 7911,
      "उम्मेद": 7912,
      "iod": 7913,
      "ua": 7914,
      "अम्": 7915,
      "रिक": 7916,
      "षक": 7917,
      "५००": 7918,
      "enable": 7919,
      "altern": 7920,
      "cher": 7921,
      "cially": 7922,
      "That": 7923,
      "better": 7924,
      "recovered": 7925,
      "princes": 7926,
      "morning": 7927,
      "दाखिल": 7928,
      "सम्भाव्यता": 7929,
      "धरौटी": 7930,
      "घृणा": 7931,
      "पचारिक": 7932,
      "Similarly": 7933,
      "Upon": 7934,
      "rejo": 7935,
      "arms": 7936,
      "usic": 7937,
      "division": 7938,
      "Revenue": 7939,
      "निकै": 7940,
      "tenure": 7941,
      "मन्त्रालयको": 7942,
      "२०४६": 7943,
      "developing": 7944,
      "पाइने": 7945,
      "customs": 7946,
      "male": 7947,
      "adequ": 7948,
      "vacant": 7949,
      "आशीर्वाद": 7950,
      "32": 7951,
      "wine": 7952,
      "पप": 7953,
      "ीको": 7954,
      "inhabit": 7955,
      "माटो": 7956,
      "ored": 7957,
      "orter": 7958,
      "reme": 7959,
      "वाञ्छ": 7960,
      "सिन्दा": 7961,
      "ards": 7962,
      "afraid": 7963,
      "जोखि": 7964,
      "posed": 7965,
      "Union": 7966,
      "अर्था": 7967,
      "पोष्ट": 7968,
      "getting": 7969,
      "येशूको": 7970,
      "वर्गीकरण": 7971,
      "तर्फबाट": 7972,
      "पुगे": 7973,
      "truth": 7974,
      "wait": 7975,
      "साझेदारी": 7976,
      "acquired": 7977,
      "Choose": 7978,
      "Philistines": 7979,
      "वर्तमान": 7980,
      "IP": 7981,
      "Jose": 7982,
      "aper": 7983,
      "उद्य": 7984,
      "तले": 7985,
      "रर": 7986,
      "लू": 7987,
      "काट": 7988,
      "प्रै": 7989,
      "sustain": 7990,
      "मोन": 7991,
      "परिवारको": 7992,
      "चारै": 7993,
      "छुट्या": 7994,
      "तोकिदिएको": 7995,
      "activity": 7996,
      "पूर्वावलोकन": 7997,
      "requested": 7998,
      "promote": 7999,
      "question": 8000,
      "believe": 8001,
      "Levites": 8002,
      "stablish": 8003,
      "ज्येष्ठ": 8004,
      "Here": 8005,
      "Ret": 8006,
      "तका": 8007,
      "गर्भ": 8008,
      "गराउँ": 8009,
      "coordination": 8010,
      "pet": 8011,
      "सुम्": 8012,
      "सिय्": 8013,
      "ager": 8014,
      "भनेका": 8015,
      "ferences": 8016,
      "surname": 8017,
      "ctivity": 8018,
      "दाऊदलाई": 8019,
      "judgment": 8020,
      "Whereas": 8021,
      "उत्पादनको": 8022,
      "factory": 8023,
      "Jeho": 8024,
      "Foreign": 8025,
      "Year": 8026,
      "अख्": 8027,
      "नति": 8028,
      "यर्मि": 8029,
      "सघ": 8030,
      "्यौ": 8031,
      "ताल्चा": 8032,
      "सालको": 8033,
      "rain": 8034,
      "थियौ": 8035,
      "quity": 8036,
      "web": 8037,
      "herself": 8038,
      "clause": 8039,
      "............................": 8040,
      "tizens": 8041,
      "analysis": 8042,
      "picture": 8043,
      "जिनोम": 8044,
      "Pla": 8045,
      "itions": 8046,
      "उजू": 8047,
      "पात्र": 8048,
      "white": 8049,
      "संभा": 8050,
      "takes": 8051,
      "सुपरि": 8052,
      "poten": 8053,
      "दर्शन": 8054,
      "likely": 8055,
      "clothe": 8056,
      "daughters": 8057,
      "सफलता": 8058,
      "Duties": 8059,
      "Business": 8060,
      "फाराम": 8061,
      "टिप्पणी": 8062,
      "\"'": 8063,
      "Establish": 8064,
      "Rest": 8065,
      "जरु": 8066,
      "तौ": 8067,
      "पच्ची": 8068,
      "began": 8069,
      "क्षमा": 8070,
      "टाँ": 8071,
      "preci": 8072,
      "उद्योगको": 8073,
      "वालाको": 8074,
      "ध्यानमा": 8075,
      "बताए": 8076,
      "deleted": 8077,
      "welve": 8078,
      "machine": 8079,
      "prophet": 8080,
      "स्वदेशी": 8081,
      "CC": 8082,
      "घटन": 8083,
      "oud": 8084,
      "ably": 8085,
      "भाडा": 8086,
      "रहेकोमा": 8087,
      "feed": 8088,
      "numbers": 8089,
      "तहको": 8090,
      "Couldn": 8091,
      "kindness": 8092,
      "expenditures": 8093,
      "IMAP": 8094,
      "particulars": 8095,
      "्यूब": 8096,
      "मञ्जू": 8097,
      "hidden": 8098,
      "bottom": 8099,
      "Joseph": 8100,
      "Bye": 8101,
      "Evolution": 8102,
      "Wo": 8103,
      "pal": 8104,
      "wis": 8105,
      "अबी": 8106,
      "भय": 8107,
      "सफ्ट": 8108,
      "न्वित": 8109,
      "statis": 8110,
      "proved": 8111,
      "भएतापनि": 8112,
      "ago": 8113,
      "वेयर": 8114,
      "parties": 8115,
      "सर्भे": 8116,
      "buy": 8117,
      "भर्ना": 8118,
      "reached": 8119,
      "नगद": 8120,
      "disciples": 8121,
      "memory": 8122,
      "birth": 8123,
      "70": 8124,
      "dark": 8125,
      "pit": 8126,
      "rul": 8127,
      "alarm": 8128,
      "weight": 8129,
      "worth": 8130,
      "door": 8131,
      "operative": 8132,
      "………": 8133,
      "Except": 8134,
      "institutional": 8135,
      "vote": 8136,
      "बाटोमा": 8137,
      "बतायो": 8138,
      "fifteen": 8139,
      "several": 8140,
      "av": 8141,
      "rates": 8142,
      "uary": 8143,
      "अशुद्ध": 8144,
      "एच": 8145,
      "नसकेमा": 8146,
      "फूल": 8147,
      "वाणी": 8148,
      "seeds": 8149,
      "ञ्ज": 8150,
      "एकल": 8151,
      "क्षेत्रबाट": 8152,
      "बुद्धि": 8153,
      "जसरी": 8154,
      "directives": 8155,
      "बाँड": 8156,
      "पाठ्य": 8157,
      "chosen": 8158,
      "प्रतिष्ठान": 8159,
      "bearer": 8160,
      "International": 8161,
      "located": 8162,
      "रोज्नुहोस्": 8163,
      "छाउनी": 8164,
      "Since": 8165,
      "ease": 8166,
      "अह": 8167,
      "र्द": 8168,
      "स्कृतिक": 8169,
      "लाभा": 8170,
      "ilo": 8171,
      "हावा": 8172,
      "कार्यसम्पादन": 8173,
      "बनाइ": 8174,
      "वैकल्पिक": 8175,
      "causes": 8176,
      "इन्जि": 8177,
      "अनुसरण": 8178,
      "बस्न": 8179,
      "Allow": 8180,
      "multitude": 8181,
      "iniquity": 8182,
      "जवान": 8183,
      "Abra": 8184,
      "Civil": 8185,
      "gradually": 8186,
      "250s": 8187,
      "plicate": 8188,
      "sufficient": 8189,
      "टेम्प्लेट": 8190,
      "92": 8191,
      "Rese": 8192,
      "उनेछु": 8193,
      "माना": 8194,
      "काले": 8195,
      "बाह्र": 8196,
      "imal": 8197,
      "auction": 8198,
      "impact": 8199,
      "poli": 8200,
      "सहायताको": 8201,
      "provider": 8202,
      "घुसा": 8203,
      "dispute": 8204,
      "principal": 8205,
      "neighbor": 8206,
      "Jews": 8207,
      "जगेडा": 8208,
      "Abraham": 8209,
      "Research": 8210,
      "units": 8211,
      "कार्यलाई": 8212,
      "committees": 8213,
      "छिमे": 8214,
      "grade": 8215,
      "दैनन्": 8216,
      "landowner": 8217,
      "Construction": 8218,
      "बुझ्ने": 8219,
      "साइट": 8220,
      "installation": 8221,
      "कसैको": 8222,
      "सहभागी": 8223,
      "permanent": 8224,
      "यर्मिया": 8225,
      "Air": 8226,
      "CP": 8227,
      "Car": 8228,
      "Id": 8229,
      "ually": 8230,
      "झि": 8231,
      "ेे": 8232,
      "verty": 8233,
      "Secretariat": 8234,
      "thereto": 8235,
      "समाज": 8236,
      "लेखी": 8237,
      "छात्र": 8238,
      "consumer": 8239,
      "citizenship": 8240,
      "preparing": 8241,
      "नक्कल": 8242,
      "पुस्तिका": 8243,
      "Sit": 8244,
      "dated": 8245,
      "tary": 8246,
      "यर्": 8247,
      "काशन": 8248,
      "होस्ट": 8249,
      "poverty": 8250,
      "disk": 8251,
      "निकायका": 8252,
      "expiry": 8253,
      "अवधिभित्र": 8254,
      "transmission": 8255,
      "किनकि": 8256,
      "istrator": 8257,
      "rows": 8258,
      "brary": 8259,
      "guide": 8260,
      "decisions": 8261,
      "किसिमले": 8262,
      "राजपत्रा": 8263,
      "सोधे": 8264,
      "झूटो": 8265,
      "wrath": 8266,
      "वास्तवमा": 8267,
      "33": 8268,
      "element": 8269,
      "hn": 8270,
      "तक": 8271,
      "नलिई": 8272,
      "७५": 8273,
      "inqui": 8274,
      "मासिक": 8275,
      "adverse": 8276,
      "गरिए": 8277,
      "मानित": 8278,
      "llate": 8279,
      "लगे": 8280,
      "actual": 8281,
      "applications": 8282,
      "अभिबृद्धि": 8283,
      "समूहको": 8284,
      "समूहका": 8285,
      "कागजातमा": 8286,
      "वालालाई": 8287,
      "गणतन्त्र": 8288,
      "च्यानल": 8289,
      "माध्यम": 8290,
      "जनशक्तिको": 8291,
      "श्रेणीको": 8292,
      "strength": 8293,
      "ड्राइ": 8294,
      "inheritance": 8295,
      "करिब": 8296,
      "xy": 8297,
      "चलि": 8298,
      "यूह": 8299,
      "नाथ": 8300,
      "sement": 8301,
      "ident": 8302,
      "न्यू": 8303,
      "auditor": 8304,
      "movable": 8305,
      "rich": 8306,
      "उँछन्": 8307,
      "Remove": 8308,
      "अभिव्यक्ति": 8309,
      "विदेशमा": 8310,
      "Report": 8311,
      "Transport": 8312,
      "riter": 8313,
      "contribution": 8314,
      "Survey": 8315,
      "सुन्दर": 8316,
      "आउन": 8317,
      "गीत": 8318,
      "नसकिने": 8319,
      "ताकि": 8320,
      "mean": 8321,
      "raise": 8322,
      "ठाडो": 8323,
      "छान": 8324,
      "surer": 8325,
      "Most": 8326,
      "cript": 8327,
      "तिनीहरु": 8328,
      "प्रतिनिध": 8329,
      "Training": 8330,
      "पृथ्वीमा": 8331,
      "prophets": 8332,
      "gods": 8333,
      "aneous": 8334,
      "थिच्नुहोस्": 8335,
      "equivalent": 8336,
      "potential": 8337,
      "पच्चीस": 8338,
      "बौ": 8339,
      "रङ्ग": 8340,
      "वहन": 8341,
      "ero": 8342,
      "लाको": 8343,
      "विशिष्ट": 8344,
      "ताले": 8345,
      "agar": 8346,
      "payable": 8347,
      "छविको": 8348,
      "मौका": 8349,
      "examine": 8350,
      "स्वतः": 8351,
      "inspect": 8352,
      "प्राधिकरणले": 8353,
      "राहदानी": 8354,
      "जमानत": 8355,
      "तसर्थ": 8356,
      "Table": 8357,
      "cution": 8358,
      "अग्र": 8359,
      "भन्छन्": 8360,
      "सन्त": 8361,
      "क्ने": 8362,
      "नाइ": 8363,
      "unclean": 8364,
      "vert": 8365,
      "प्रयोगशाला": 8366,
      "बुल": 8367,
      "साथी": 8368,
      "राजालाई": 8369,
      "तेर्": 8370,
      "उल्लेखित": 8371,
      "मेलमिला": 8372,
      "drawn": 8373,
      "सन्दर्भमा": 8374,
      "मेट्नुहोस्": 8375,
      "प्रशोधन": 8376,
      "OF": 8377,
      "swe": 8378,
      "vant": 8379,
      "अल्प": 8380,
      "isha": 8381,
      "विक्री": 8382,
      "dece": 8383,
      "loved": 8384,
      "unable": 8385,
      "मेरि": 8386,
      "क्षेप": 8387,
      "रेकर्": 8388,
      "therein": 8389,
      "ctition": 8390,
      "temple": 8391,
      "panel": 8392,
      "आर्जन": 8393,
      "Procurement": 8394,
      "क्रियाकलाप": 8395,
      "gazetted": 8396,
      "//": 8397,
      "Eph": 8398,
      "hind": 8399,
      "sat": 8400,
      "vine": 8401,
      "आश": 8402,
      "खन": 8403,
      "डै": 8404,
      "लम्": 8405,
      "वडा": 8406,
      "स्मा": 8407,
      "Inser": 8408,
      "acted": 8409,
      "cape": 8410,
      "ऋणको": 8411,
      "विद्युतीय": 8412,
      "broken": 8413,
      "मुद्रक": 8414,
      "failure": 8415,
      "departmental": 8416,
      "science": 8417,
      "सुलेमानले": 8418,
      "रेखदेख": 8419,
      "निवृत्तभरण": 8420,
      "यूहन्": 8421,
      "watch": 8422,
      "अंग": 8423,
      "आऊ": 8424,
      "आगत": 8425,
      "नानी": 8426,
      "lost": 8427,
      "sole": 8428,
      "Institution": 8429,
      "lauses": 8430,
      "owned": 8431,
      "खुल्ला": 8432,
      "listed": 8433,
      "संख्यामा": 8434,
      "entire": 8435,
      "senior": 8436,
      "hearing": 8437,
      "निष्काशन": 8438,
      "महीना": 8439,
      "दीर्घकालीन": 8440,
      "रूपैयाँ": 8441,
      "Switch": 8442,
      "justice": 8443,
      "अत्या": 8444,
      "एँ": 8445,
      "औसत": 8446,
      "नभएका": 8447,
      "बम": 8448,
      "anti": 8449,
      "भएकोछ": 8450,
      "प्रतिक्रिया": 8451,
      "लगाउनु": 8452,
      "निकायलाई": 8453,
      "लगानीकर्ता": 8454,
      "तथ्या": 8455,
      "पुर्याउने": 8456,
      "infrastructure": 8457,
      "deficit": 8458,
      "La": 8459,
      "remember": 8460,
      "shed": 8461,
      "mag": 8462,
      "conven": 8463,
      "conservation": 8464,
      "common": 8465,
      "2010": 8466,
      "visible": 8467,
      "Publication": 8468,
      "मोडमा": 8469,
      "परम्परागत": 8470,
      "फाइदा": 8471,
      "प्रतिनिधित्व": 8472,
      "36": 8473,
      "Mah": 8474,
      "aking": 8475,
      "cli": 8476,
      "ढि": 8477,
      "नभई": 8478,
      "article": 8479,
      "rose": 8480,
      "थाल": 8481,
      "त्तर": 8482,
      "रेको": 8483,
      "phr": 8484,
      "Americ": 8485,
      "बालक": 8486,
      "बताउनु": 8487,
      "यूआर": 8488,
      "पूजाहारीहरू": 8489,
      "keeping": 8490,
      "Work": 8491,
      "दाखरस": 8492,
      "सम्वन्ध": 8493,
      "झिकिएको": 8494,
      "tings": 8495,
      "era": 8496,
      "अनुपात": 8497,
      "Insurer": 8498,
      "सोच्": 8499,
      "compo": 8500,
      "understanding": 8501,
      "gious": 8502,
      "देखिन": 8503,
      "क्षमताको": 8504,
      "परास्त": 8505,
      "Load": 8506,
      "बजारमा": 8507,
      "पारिएको": 8508,
      "delegate": 8509,
      "creditor": 8510,
      "सङ्ग्रह": 8511,
      "Terai": 8512,
      "broadcasting": 8513,
      "Welfare": 8514,
      "companies": 8515,
      "Her": 8516,
      "ech": 8517,
      "sick": 8518,
      "अनौ": 8519,
      "मापन": 8520,
      "ork": 8521,
      "isition": 8522,
      "क्ला": 8523,
      "identity": 8524,
      "मेटि": 8525,
      "गामी": 8526,
      "आफनो": 8527,
      "trading": 8528,
      "gies": 8529,
      "फेस": 8530,
      "sheep": 8531,
      "उपयोगी": 8532,
      "कम्पनीले": 8533,
      "vehicles": 8534,
      "packages": 8535,
      "liter": 8536,
      "collateral": 8537,
      "Bal": 8538,
      "Cap": 8539,
      "Di": 8540,
      "Elect": 8541,
      "Med": 8542,
      "block": 8543,
      "east": 8544,
      "util": 8545,
      "औं": 8546,
      "चित्": 8547,
      "मृत": 8548,
      "वश्यक": 8549,
      "मासा": 8550,
      "प्रदेश": 8551,
      "alloc": 8552,
      "होला": 8553,
      "contr": 8554,
      "yourselves": 8555,
      "डिङ": 8556,
      "डिजि": 8557,
      "अध्यक्षको": 8558,
      "trees": 8559,
      "संघीय": 8560,
      "attrib": 8561,
      "association": 8562,
      "Kingdom": 8563,
      "Programme": 8564,
      "सर्वोच्च": 8565,
      "Hol": 8566,
      "II": 8567,
      "णत": 8568,
      "नगर्नुहोस्": 8569,
      "फी": 8570,
      "ina": 8571,
      "्रै": 8572,
      "स्के": 8573,
      "assembly": 8574,
      "विकसित": 8575,
      "समया": 8576,
      "तालाई": 8577,
      "सुरू": 8578,
      "sake": 8579,
      "कार्यक्रमलाई": 8580,
      "सर्टक": 8581,
      "Constit": 8582,
      "जिल्लाको": 8583,
      "पीडित": 8584,
      "construct": 8585,
      "फर्कि": 8586,
      "सर्वदा": 8587,
      "engine": 8588,
      "remained": 8589,
      "Saving": 8590,
      "driver": 8591,
      "बराबरको": 8592,
      "मुलुक": 8593,
      "encourage": 8594,
      "Speaker": 8595,
      "proponent": 8596,
      "तहकिकात": 8597,
      "तेर्सो": 8598,
      "34": 8599,
      "OS": 8600,
      "bum": 8601,
      "trou": 8602,
      "इभोल्यु": 8603,
      "लर": 8604,
      "ह्य": 8605,
      "तिर्नु": 8606,
      "गर्नुपर्नेछ": 8607,
      "Amended": 8608,
      "importance": 8609,
      "bio": 8610,
      "granted": 8611,
      "परिचयपत्र": 8612,
      "Data": 8613,
      "Tit": 8614,
      "अल": 8615,
      "भक्त": 8616,
      "वो": 8617,
      "व्र": 8618,
      "न्थ्यो": 8619,
      "shad": 8620,
      "login": 8621,
      "petition": 8622,
      "neg": 8623,
      "क्षेत्रहरुमा": 8624,
      "तपाईँसँग": 8625,
      "officials": 8626,
      "गराएको": 8627,
      "प्रमुखको": 8628,
      "विश्वासी": 8629,
      "सभामुख": 8630,
      "बजारको": 8631,
      "restric": 8632,
      "Josh": 8633,
      "mountains": 8634,
      "telephone": 8635,
      "Accounts": 8636,
      "crops": 8637,
      "सर्टकट": 8638,
      "!”": 8639,
      "जक": 8640,
      "क्ष्": 8641,
      "constitute": 8642,
      "जानेछ": 8643,
      "संचार": 8644,
      "acqu": 8645,
      "exemp": 8646,
      "परिणत": 8647,
      "नियन": 8648,
      "personnel": 8649,
      "मानहरू": 8650,
      "गरेकोमा": 8651,
      "सदस्यता": 8652,
      "टोली": 8653,
      "गोलिक": 8654,
      "जलवायु": 8655,
      "technic": 8656,
      "शर्तहरू": 8657,
      "collecting": 8658,
      "Folder": 8659,
      "जरुरी": 8660,
      "Govern": 8661,
      "ju": 8662,
      "उन्ट": 8663,
      "enh": 8664,
      "मेन्ट": 8665,
      "क्रे": 8666,
      "रिङ": 8667,
      "commits": 8668,
      "बिन्या": 8669,
      "obli": 8670,
      "बोल्": 8671,
      "ज्ञानी": 8672,
      "desp": 8673,
      "correspon": 8674,
      "Char": 8675,
      "फर्केर": 8676,
      "Authentic": 8677,
      "mentioning": 8678,
      "consumption": 8679,
      "मौलिक": 8680,
      "modern": 8681,
      "भौगोलिक": 8682,
      "teaching": 8683,
      "bene": 8684,
      "किताबमा": 8685,
      "reduce": 8686,
      "town": 8687,
      "levied": 8688,
      "MP": 8689,
      "अनियमित": 8690,
      "आउँछ": 8691,
      "कप": 8692,
      "दरमा": 8693,
      "िि": 8694,
      "inser": 8695,
      "स्टा": 8696,
      "asks": 8697,
      "Reform": 8698,
      "Conne": 8699,
      "गुप्त": 8700,
      "maintaining": 8701,
      "अनुसारको": 8702,
      "स्रोतको": 8703,
      "normal": 8704,
      "processing": 8705,
      "connected": 8706,
      "पूजाहारीले": 8707,
      "settlement": 8708,
      "ज्यादै": 8709,
      "प्राधिकरणको": 8710,
      "improvement": 8711,
      "expert": 8712,
      "Agriculture": 8713,
      "बसोबास": 8714,
      "feasibility": 8715,
      "अय्यूब": 8716,
      "आधुनिक": 8717,
      "CU": 8718,
      "Down": 8719,
      "Find": 8720,
      "War": 8721,
      "award": 8722,
      "bath": 8723,
      "jah": 8724,
      "जमि": 8725,
      "तलको": 8726,
      "तयारी": 8727,
      "स्थानको": 8728,
      "द्व": 8729,
      "प्राप्ति": 8730,
      "तिमीहरु": 8731,
      "mining": 8732,
      "कुञ्जीहरू": 8733,
      "properties": 8734,
      "एलीशा": 8735,
      "consultation": 8736,
      "२०७२": 8737,
      "script": 8738,
      "Appeal": 8739,
      "integrated": 8740,
      "gunj": 8741,
      "Inspector": 8742,
      "तलासी": 8743,
      "wisdom": 8744,
      "Joshua": 8745,
      "rank": 8746,
      "सलाई": 8747,
      "inside": 8748,
      "कोर्": 8749,
      "Produ": 8750,
      "समयको": 8751,
      "पुननामकरण": 8752,
      "earn": 8753,
      "सञ्झ्यालको": 8754,
      "बलियो": 8755,
      "heads": 8756,
      "department": 8757,
      "Design": 8758,
      "shortcut": 8759,
      "attached": 8760,
      "करीब": 8761,
      "enemy": 8762,
      "arbitrator": 8763,
      "Get": 8764,
      "bri": 8765,
      "दको": 8766,
      "ensure": 8767,
      "तिको": 8768,
      "अनुक्रमण": 8769,
      "hope": 8770,
      "systems": 8771,
      "प्रमाणपत्रको": 8772,
      "घाटा": 8773,
      "हातमा": 8774,
      "solid": 8775,
      "solution": 8776,
      "तथ्य": 8777,
      "सम्पादक": 8778,
      "ब्राउजर": 8779,
      "विज्ञापन": 8780,
      "Non": 8781,
      "Net": 8782,
      "cru": 8783,
      "टाउ": 8784,
      "really": 8785,
      "tag": 8786,
      "atever": 8787,
      "app": 8788,
      "रोक": 8789,
      "पत्रकार": 8790,
      "कुराका": 8791,
      "सूचनामा": 8792,
      "Explanation": 8793,
      "bug": 8794,
      "wrong": 8795,
      "ठेक्का": 8796,
      "बस्नु": 8797,
      "allows": 8798,
      "घोडा": 8799,
      "माध्यमिक": 8800,
      "धर्मी": 8801,
      "livestock": 8802,
      "history": 8803,
      "beyond": 8804,
      "पेट्रो": 8805,
      "टर्मिनल": 8806,
      "ran": 8807,
      "सच्या": 8808,
      "replace": 8809,
      "जिन्सी": 8810,
      "aph": 8811,
      "सोध्": 8812,
      "vile": 8813,
      "समितिबाट": 8814,
      "cession": 8815,
      "medic": 8816,
      "परिवर्तनहरू": 8817,
      "shows": 8818,
      "benefits": 8819,
      "टेलिफोन": 8820,
      "Irrigation": 8821,
      "adequate": 8822,
      "bul": 8823,
      "oking": 8824,
      "wide": 8825,
      "जसमा": 8826,
      "र्का": 8827,
      "rement": 8828,
      "iling": 8829,
      "containing": 8830,
      "यसँग": 8831,
      "सेके": 8832,
      "सेन्ट": 8833,
      "श्शे": 8834,
      "soil": 8835,
      "अवलम्बन": 8836,
      "पिका": 8837,
      "Format": 8838,
      "शहरका": 8839,
      "keyboard": 8840,
      "लक्षित": 8841,
      "distributed": 8842,
      "गैरसरकारी": 8843,
      "consultant": 8844,
      "supplier": 8845,
      "journal": 8846,
      "pixels": 8847,
      "Establishment": 8848,
      "enhance": 8849,
      "अमेरि": 8850,
      "उच्": 8851,
      "घे": 8852,
      "पछ्या": 8853,
      "भन्छ": 8854,
      "store": 8855,
      "ury": 8856,
      "जाँ": 8857,
      "iration": 8858,
      "ables": 8859,
      "डाई": 8860,
      "स्वस्थ": 8861,
      "valley": 8862,
      "filename": 8863,
      "खुट्टा": 8864,
      "causing": 8865,
      "महारा": 8866,
      "निर्णयको": 8867,
      "सन्देशहरू": 8868,
      "passeng": 8869,
      "ंकन": 8870,
      "south": 8871,
      "selling": 8872,
      "launch": 8873,
      "preparation": 8874,
      "अपेक्षा": 8875,
      "clipboard": 8876,
      "inhabitants": 8877,
      "Kon": 8878,
      "Mic": 8879,
      "NF": 8880,
      "OP": 8881,
      "Sci": 8882,
      "ots": 8883,
      "जङ्ग": 8884,
      "८०": 8885,
      "asing": 8886,
      "बासिन्दा": 8887,
      "अनुवाद": 8888,
      "invent": 8889,
      "परीक्षक": 8890,
      "नदीको": 8891,
      "middle": 8892,
      "volume": 8893,
      "विरूद्धमा": 8894,
      "दूरसञ्चार": 8895,
      "trying": 8896,
      "Japanese": 8897,
      "निर्वाचन": 8898,
      "defend": 8899,
      "scheme": 8900,
      ",-": 8901,
      "Card": 8902,
      "एप्रै": 8903,
      "गार": 8904,
      "धो": 8905,
      "माञ्चल": 8906,
      "isdiction": 8907,
      "विन": 8908,
      "cottage": 8909,
      "lose": 8910,
      "जापानी": 8911,
      "creating": 8912,
      "संस्थामा": 8913,
      "parent": 8914,
      "productivity": 8915,
      "अर्ध": 8916,
      "approve": 8917,
      "इन्ड": 8918,
      "बोर्डमा": 8919,
      "मोड्यु": 8920,
      "सङ्गठ": 8921,
      "requirements": 8922,
      "benefit": 8923,
      "मिल्दो": 8924,
      "अश्शू": 8925,
      "अड्डा": 8926,
      "मञ्जूषा": 8927,
      "riteria": 8928,
      "रद्": 8929,
      "शारी": 8930,
      "ender": 8931,
      "oftw": 8932,
      "olid": 8933,
      "व्यय": 8934,
      "केटी": 8935,
      "ache": 8936,
      "hak": 8937,
      "हेरी": 8938,
      "grain": 8939,
      "थिएनन्": 8940,
      "195": 8941,
      "Conservation": 8942,
      "submitting": 8943,
      "निश्चय": 8944,
      "……………………": 8945,
      "borrow": 8946,
      "मनश्शे": 8947,
      "क्रोधित": 8948,
      "welfare": 8949,
      "cultural": 8950,
      "यर्दन": 8951,
      "oftware": 8952,
      "sort": 8953,
      "spr": 8954,
      "twelve": 8955,
      "हको": 8956,
      "।–": 8957,
      "entific": 8958,
      "alone": 8959,
      "नेल": 8960,
      "न्की": 8961,
      "लियम": 8962,
      "worship": 8963,
      "lled": 8964,
      "अधिलेखन": 8965,
      "संस्थानले": 8966,
      "Toggle": 8967,
      "गोप्य": 8968,
      "दृश्या": 8969,
      "planned": 8970,
      "बाँच्": 8971,
      "2006": 8972,
      "उपकरणपट्टी": 8973,
      "sought": 8974,
      "banking": 8975,
      "पुर्‍याउन": 8976,
      "Users": 8977,
      "efficient": 8978,
      "PGP": 8979,
      "हैसि": 8980,
      "Abi": 8981,
      "sla": 8982,
      "रले": 8983,
      "निस्क": 8984,
      "तित": 8985,
      "attra": 8986,
      "विनियम": 8987,
      "सम्पदा": 8988,
      "executive": 8989,
      "मिल्ने": 8990,
      "ञ्च": 8991,
      "हुनेछौ": 8992,
      "साथमा": 8993,
      "useful": 8994,
      "पोषण": 8995,
      "Planning": 8996,
      "दिएँ": 8997,
      "Beth": 8998,
      "ग्राहक": 8999,
      "चोट": 9000,
      "telecommunication": 9001,
      "hours": 9002,
      "Current": 9003,
      "cubits": 9004,
      "पैंतीस": 9005,
      "शारीरिक": 9006,
      "?'": 9007,
      "cision": 9008,
      "eight": 9009,
      "lif": 9010,
      "squ": 9011,
      "गहि": 9012,
      "assigned": 9013,
      "advice": 9014,
      "चामा": 9015,
      "रीको": 9016,
      "पूरक": 9017,
      "moved": 9018,
      "mination": 9019,
      "डिस्क": 9020,
      "mitted": 9021,
      "निकायबाट": 9022,
      "बुझ्": 9023,
      "Services": 9024,
      "पुग्यो": 9025,
      "सजायको": 9026,
      "आदिको": 9027,
      "कारोबारको": 9028,
      "नाउँमा": 9029,
      "बहुमत": 9030,
      "protect": 9031,
      "पश्चा": 9032,
      "दुइवटा": 9033,
      "supervision": 9034,
      "Laws": 9035,
      "results": 9036,
      "बिन्यामी": 9037,
      "Authentication": 9038,
      "हैसियत": 9039,
      "PD": 9040,
      "Sep": 9041,
      "fit": 9042,
      "fel": 9043,
      "मान्द": 9044,
      "स्ना": 9045,
      "isation": 9046,
      "सुन्न": 9047,
      "हिज": 9048,
      "ints": 9049,
      "व्यवस्थापिका": 9050,
      "सर्ग": 9051,
      "रह्यो": 9052,
      "समेतको": 9053,
      "व्यापी": 9054,
      "reports": 9055,
      "शब्दको": 9056,
      "surely": 9057,
      "custody": 9058,
      "उनीहरूले": 9059,
      "Description": 9060,
      "प्रशासनिक": 9061,
      "flock": 9062,
      "vated": 9063,
      "अर": 9064,
      "जफत": 9065,
      "बन": 9066,
      "यव": 9067,
      "माई": 9068,
      "दिएर": 9069,
      "सम्मि": 9070,
      "थिइन्": 9071,
      "सेतो": 9072,
      "quer": 9073,
      "डिएको": 9074,
      "भित्रको": 9075,
      "aria": 9076,
      "नीतिको": 9077,
      "targets": 9078,
      "2002": 9079,
      "statements": 9080,
      "राखिनेछ": 9081,
      "fourth": 9082,
      "permissions": 9083,
      "ront": 9084,
      "advan": 9085,
      "attach": 9086,
      "acquire": 9087,
      "Valley": 9088,
      "aspects": 9089,
      "Tourism": 9090,
      "Even": 9091,
      "lam": 9092,
      "एव": 9093,
      "info": 9094,
      "uni": 9095,
      "intends": 9096,
      "goes": 9097,
      "applic": 9098,
      "controll": 9099,
      "Play": 9100,
      "जिल्लाहरुमा": 9101,
      "captain": 9102,
      "पेश्": 9103,
      "विभागको": 9104,
      "तिनीहरुले": 9105,
      "interests": 9106,
      "Manager": 9107,
      "निरीक्षक": 9108,
      "Good": 9109,
      "drive": 9110,
      "Take": 9111,
      "फ्याँ": 9112,
      "pieces": 9113,
      "chemical": 9114,
      "Pris": 9115,
      "wild": 9116,
      "रातो": 9117,
      "meter": 9118,
      "दावी": 9119,
      "ray": 9120,
      "simple": 9121,
      "अनुरूप": 9122,
      "label": 9123,
      "कमजोर": 9124,
      "Head": 9125,
      "spent": 9126,
      "early": 9127,
      "passport": 9128,
      "मालसामानको": 9129,
      "हटाउने": 9130,
      "Max": 9131,
      "grounds": 9132,
      "cellaneous": 9133,
      "एजेन्सी": 9134,
      "एकदमै": 9135,
      "धन्यवाद": 9136,
      "मेलमिलाप": 9137,
      "Constituent": 9138,
      "पेश्की": 9139,
      "Ko": 9140,
      "Mark": 9141,
      "Text": 9142,
      "ians": 9143,
      "sn": 9144,
      "sle": 9145,
      "अंक": 9146,
      "इको": 9147,
      "इयो": 9148,
      "७०": 9149,
      "enough": 9150,
      "stream": 9151,
      "decre": 9152,
      "ria": 9153,
      "कार्यका": 9154,
      "amin": 9155,
      "calcul": 9156,
      "orders": 9157,
      "हुनुभन्दा": 9158,
      "अन्तर्गतका": 9159,
      "पदको": 9160,
      "मकहाँ": 9161,
      "अदालतबाट": 9162,
      "शब्दहरू": 9163,
      "longer": 9164,
      "showing": 9165,
      "secondary": 9166,
      "printing": 9167,
      "roleum": 9168,
      "seems": 9169,
      "Each": 9170,
      "Punish": 9171,
      "Try": 9172,
      "hur": 9173,
      "ँस": 9174,
      "आचरण": 9175,
      "हले": 9176,
      "ana": 9177,
      "होऊ": 9178,
      "लियो": 9179,
      "सुनको": 9180,
      "रोज": 9181,
      "..........": 9182,
      "स्वरूप": 9183,
      "productive": 9184,
      "spaper": 9185,
      "शक्तिको": 9186,
      "Scho": 9187,
      "ऋणपत्र": 9188,
      "लाइब्रे": 9189,
      "व्यवसायको": 9190,
      "funds": 9191,
      "आईडी": 9192,
      "बचाउनु": 9193,
      "introduced": 9194,
      "सल्लाहकार": 9195,
      "निषेध": 9196,
      "statistics": 9197,
      "इभोल्युसन": 9198,
      "38": 9199,
      "EG": 9200,
      "Fac": 9201,
      "Jord": 9202,
      "Mid": 9203,
      "bited": 9204,
      "ya": 9205,
      "नबाट": 9206,
      "लड": 9207,
      "लघु": 9208,
      "सारी": 9209,
      "ano": 9210,
      "योआब": 9211,
      "rather": 9212,
      "notes": 9213,
      "tices": 9214,
      "Committees": 9215,
      "बुझ्न": 9216,
      "लाइसे": 9217,
      "सबभन्दा": 9218,
      "तुलनामा": 9219,
      "दृष्टिकोणबाट": 9220,
      "furnish": 9221,
      "cancel": 9222,
      "ह्रास": 9223,
      "चित्त": 9224,
      "डिजिटल": 9225,
      "Jordan": 9226,
      "Op": 9227,
      "bad": 9228,
      "best": 9229,
      "rang": 9230,
      "usu": 9231,
      "उचाइ": 9232,
      "करको": 9233,
      "पद्ध": 9234,
      "ensu": 9235,
      "reve": 9236,
      "rap": 9237,
      "शाल": 9238,
      "धानिक": 9239,
      "Tool": 9240,
      "Record": 9241,
      "वस्तुस्थिति": 9242,
      "tificates": 9243,
      "पदबाट": 9244,
      "अभियोग": 9245,
      "क्यास": 9246,
      "2007": 9247,
      "नागरिकता": 9248,
      "teacher": 9249,
      "पुरस्कार": 9250,
      "रेकर्ड": 9251,
      "Title": 9252,
      "Part": 9253,
      "govern": 9254,
      "आधिकार": 9255,
      "नन": 9256,
      "ात्मक": 9257,
      "हाब": 9258,
      "साझा": 9259,
      "conclud": 9260,
      "verti": 9261,
      "किसान": 9262,
      "हिने": 9263,
      "lier": 9264,
      "gible": 9265,
      "पारदर्": 9266,
      "टोकरी": 9267,
      "दायर": 9268,
      "Shift": 9269,
      "focus": 9270,
      "२०४९": 9271,
      "पक्षमा": 9272,
      "Appro": 9273,
      "John": 9274,
      "effects": 9275,
      "graphical": 9276,
      "बैड्ढले": 9277,
      "Citizen": 9278,
      "honor": 9279,
      "desires": 9280,
      "नभएसम्म": 9281,
      "प्रवर्द्धन": 9282,
      "परित्या": 9283,
      "favor": 9284,
      "91": 9285,
      "Asi": 9286,
      "Script": 9287,
      "hun": 9288,
      "rone": 9289,
      "भरो": 9290,
      "प्रती": 9291,
      "rivers": 9292,
      "कुट": 9293,
      "किस्ता": 9294,
      "सियो": 9295,
      "टाई": 9296,
      "traditional": 9297,
      "Repe": 9298,
      "बें": 9299,
      "सदस्यहरू": 9300,
      "sectoral": 9301,
      "buildings": 9302,
      "सिफारिश": 9303,
      "जन्मे": 9304,
      "driving": 9305,
      "मालिकले": 9306,
      "savings": 9307,
      "execution": 9308,
      "initiated": 9309,
      "Formation": 9310,
      "relative": 9311,
      "browser": 9312,
      "political": 9313,
      "हिजकियाह": 9314,
      "गौ": 9315,
      "बित": 9316,
      "भल": 9317,
      "शमू": 9318,
      "सरा": 9319,
      "मानी": 9320,
      "निवा": 9321,
      "प्रकट": 9322,
      "गर्थे": 9323,
      "urved": 9324,
      "haz": 9325,
      "sib": 9326,
      "धारणा": 9327,
      "endra": 9328,
      "प्रयोगमा": 9329,
      "obo": 9330,
      "दछु": 9331,
      "ग्ने": 9332,
      "लगातार": 9333,
      "चाहन्छ": 9334,
      "चाहन्छु": 9335,
      "frames": 9336,
      "charged": 9337,
      "उल्लेखनीय": 9338,
      "offered": 9339,
      "अन्त्यमा": 9340,
      "Desktop": 9341,
      "Fifteen": 9342,
      "efficiency": 9343,
      "अनुपस्थितिमा": 9344,
      "काउन्सिल": 9345,
      "executed": 9346,
      "आयुर्": 9347,
      "संभाव्य": 9348,
      "यूआरएल": 9349,
      "परित्याग": 9350,
      "Ay": 9351,
      "Sal": 9352,
      "bird": 9353,
      "ee": 9354,
      "tes": 9355,
      "ues": 9356,
      "नगरिएको": 9357,
      "बट": 9358,
      "thank": 9359,
      "विघटन": 9360,
      "cope": 9361,
      "prohi": 9362,
      "मोआब": 9363,
      "ल्नुहोस्": 9364,
      "कर्सर": 9365,
      "update": 9366,
      "सबैलाई": 9367,
      "दिनसम्म": 9368,
      "नामको": 9369,
      "hide": 9370,
      "Prohibition": 9371,
      "व्याख्या": 9372,
      "implementing": 9373,
      "Moab": 9374,
      "मैदान": 9375,
      "sins": 9376,
      "उनीहरूको": 9377,
      "हुँदैछ": 9378,
      "उत्पादकत्व": 9379,
      "Telecommunication": 9380,
      "%(": 9381,
      "अक्षर": 9382,
      "खबर": 9383,
      "रथ": 9384,
      "ुु": 9385,
      "गर्‍यो": 9386,
      "Their": 9387,
      "sition": 9388,
      "सुनि": 9389,
      "निर्मा": 9390,
      "weather": 9391,
      "elders": 9392,
      "छिन्": 9393,
      "Those": 9394,
      "दर्जा": 9395,
      "angel": 9396,
      "expiration": 9397,
      "संग्रह": 9398,
      "household": 9399,
      "२०६४": 9400,
      "Syn": 9401,
      "Prof": 9402,
      "बढ्दो": 9403,
      "साँच्चै": 9404,
      "**": 9405,
      "Ver": 9406,
      "ake": 9407,
      "battle": 9408,
      "cancell": 9409,
      "प्रकृया": 9410,
      "विना": 9411,
      "tel": 9412,
      "resent": 9413,
      "द्धारा": 9414,
      "रोकि": 9415,
      "प्रतिबन्ध": 9416,
      "व्यक्तिबाट": 9417,
      "सबैले": 9418,
      "टिल": 9419,
      "cursor": 9420,
      "charges": 9421,
      "प्रोटो": 9422,
      "चलाउने": 9423,
      "लैजान": 9424,
      "घुमा": 9425,
      "औषधिको": 9426,
      "उपाधि": 9427,
      "शाऊलले": 9428,
      "बूढा": 9429,
      "Filter": 9430,
      "आपूmले": 9431,
      "Obje": 9432,
      "relevant": 9433,
      "Moreover": 9434,
      "उम्मेदवार": 9435,
      "वाञ्छनीय": 9436,
      "छिमेकी": 9437,
      "Ephra": 9438,
      "37": 9439,
      "Draw": 9440,
      "FY": 9441,
      "UI": 9442,
      "fle": 9443,
      "zone": 9444,
      "चरा": 9445,
      "ब्रो": 9446,
      "मसित": 9447,
      "माछा": 9448,
      "प्रभा": 9449,
      "क्क": 9450,
      "रीत": 9451,
      "उत्तम": 9452,
      "disease": 9453,
      "ङ्कित": 9454,
      "मार्न": 9455,
      "वैधानिक": 9456,
      "तेरो": 9457,
      "remains": 9458,
      "संस्कृति": 9459,
      "प्रवद्र्धन": 9460,
      "ट्रयाक": 9461,
      "phrase": 9462,
      "CR": 9463,
      "UT": 9464,
      "fuel": 9465,
      "testi": 9466,
      "yield": 9467,
      "अब्": 9468,
      "चक": 9469,
      "पठाउँ": 9470,
      "४४": 9471,
      "र्ह": 9472,
      "rew": 9473,
      "espe": 9474,
      "निगम": 9475,
      "stones": 9476,
      "दिनुहुन्छ": 9477,
      "गरिदिनु": 9478,
      "quick": 9479,
      "See": 9480,
      "त्यसबेला": 9481,
      "creation": 9482,
      "समाप्ति": 9483,
      "सक्नेछन्": 9484,
      "पारे": 9485,
      "उदाहरणका": 9486,
      "Definitions": 9487,
      "वस्थामा": 9488,
      "Message": 9489,
      "पात्रो": 9490,
      "दृश्यात्मक": 9491,
      "आधिकारिक": 9492,
      "निवारण": 9493,
      "Mul": 9494,
      "NG": 9495,
      "cking": 9496,
      "gather": 9497,
      "mort": 9498,
      "tur": 9499,
      "आगामी": 9500,
      "गी": 9501,
      "गधा": 9502,
      "नहर": 9503,
      "।)": 9504,
      "५५": 9505,
      "ann": 9506,
      "edge": 9507,
      "स्कूल": 9508,
      "comb": 9509,
      "स्ती": 9510,
      "habil": 9511,
      "ञ्जेल": 9512,
      "...........": 9513,
      "Seven": 9514,
      "सूचका": 9515,
      "सेवालाई": 9516,
      "cessary": 9517,
      "disability": 9518,
      "clar": 9519,
      "सकिएको": 9520,
      "posal": 9521,
      "गुणा": 9522,
      "अधिकारीलाई": 9523,
      "इन्ट": 9524,
      "decided": 9525,
      "letters": 9526,
      "sending": 9527,
      "चाँडै": 9528,
      "सम्भावित": 9529,
      "अत्यन्तै": 9530,
      "affected": 9531,
      "प्रदर्शित": 9532,
      "Peter": 9533,
      "उल्लं": 9534,
      "इतिहास": 9535,
      "Punishment": 9536,
      "aut": 9537,
      "front": 9538,
      "sl": 9539,
      "treas": 9540,
      "अक्": 9541,
      "नस": 9542,
      "पका": 9543,
      "बनेका": 9544,
      "reject": 9545,
      "न्ज": 9546,
      "deed": 9547,
      "दाम": 9548,
      "कारखाना": 9549,
      "yout": 9550,
      "संवैधानिक": 9551,
      "लिएका": 9552,
      "सिद्धा": 9553,
      "शास": 9554,
      "Subject": 9555,
      "उपलब्धि": 9556,
      "archive": 9557,
      "borne": 9558,
      "delivery": 9559,
      "Represent": 9560,
      "2048": 9561,
      "पश्चिम": 9562,
      "चेलाहरू": 9563,
      "analy": 9564,
      "counsel": 9565,
      "climate": 9566,
      "Keep": 9567,
      "Ayurved": 9568,
      "Hor": 9569,
      "Justice": 9570,
      "Pass": 9571,
      "Ward": 9572,
      "cro": 9573,
      "emb": 9574,
      "मर": 9575,
      "“”": 9576,
      "oration": 9577,
      "arrest": 9578,
      "ics": 9579,
      "विज": 9580,
      "हुदैन": 9581,
      "साहू": 9582,
      "pers": 9583,
      "गर्नलाई": 9584,
      "गर्नुपर्दछ": 9585,
      "गरिएमा": 9586,
      "aces": 9587,
      "ाउनेछ": 9588,
      "mind": 9589,
      "disc": 9590,
      "Remo": 9591,
      "कम्तिमा": 9592,
      "सम्झनुपर्छ": 9593,
      "cribe": 9594,
      "properly": 9595,
      "Arrange": 9596,
      "material": 9597,
      "accepted": 9598,
      "Necessary": 9599,
      "दोषी": 9600,
      "Industrial": 9601,
      "expedient": 9602,
      "think": 9603,
      "sacrifice": 9604,
      "detailed": 9605,
      "CUPS": 9606,
      "nd": 9607,
      "nt": 9608,
      "एलिया": 9609,
      "झै": 9610,
      "झर्": 9611,
      "टाउन": 9612,
      "पट्टा": 9613,
      "भित्": 9614,
      "मित्र": 9615,
      "प्रदू": 9616,
      "itary": 9617,
      "दामासा": 9618,
      "दाहिने": 9619,
      "why": 9620,
      "स्थाना": 9621,
      "acle": 9622,
      "अनुमानित": 9623,
      "weak": 9624,
      "छोटो": 9625,
      "कार्यक्रमहरू": 9626,
      "खेला": 9627,
      "settled": 9628,
      "सट्टामा": 9629,
      "प्रदायक": 9630,
      "blessed": 9631,
      "जैविक": 9632,
      "Children": 9633,
      "जोखिम": 9634,
      "दामासाही": 9635,
      "CH": 9636,
      "bill": 9637,
      "ox": 9638,
      "oom": 9639,
      "pages": 9640,
      "ush": 9641,
      "अन्ध": 9642,
[...]
