{
  "vocab": {
    "0": "<pad>",
    "1": "<sos>",
    "2": "<eos>",
    "3": "\n",
    "4": " ",
    "5": "!",
    "6": "?",
    "7": "a",
    "8": "b",
    "9": "c",
    "10": "d",
    "11": "e",
    "12": "f",
    "13": "g",
    "14": "h",
    "15": "i",
    "16": "j",
    "17": "k",
    "18": "l",
    "19": "m",
    "20": "n",
    "21": "o",
    "22": "p",
    "23": "q",
    "24": "r",
    "25": "s",
    "26": "t",
    "27": "u",
    "28": "v",
    "29": "w",
    "30": "x",
    "31": "y",
    "32": "z",
    "33": "e ",
    "34": "th",
    "35": "d ",
    "36": "s ",
    "37": " th",
    "38": "an",
    "39": "t ",
    "40": "in",
    "41": "er",
    "42": " the ",
    "43": "and ",
    "44": "ou",
    "45": "of",
    "46": "y ",
    "47": "n ",
    "48": "o ",
    "49": "hi",
    "50": "or",
    "51": "of ",
    "52": "ed ",
    "53": "ha",
    "54": "l ",
    "55": "m ",
    "56": "h ",
    "57": "ar",
    "58": "you",
    "59": "ing",
    "60": "to ",
    "61": "on",
    "62": "re",
    "63": "al",
    "64": "the ",
    "65": "er ",
    "66": "wi",
    "67": "en",
    "68": "for",
    "69": "r ",
    "70": "ing ",
    "71": "he ",
    "72": "es ",
    "73": "on ",
    "74": "me ",
    "75": "en ",
    "76": "th ",
    "77": "st",
    "78": "sa",
    "79": "his ",
    "80": "you ",
    "81": "ll ",
    "82": "se ",
    "83": "in ",
    "84": "wh",
    "85": "ro",
    "86": " the",
    "87": "we",
    "88": "i ",
    "89": "of the ",
    "90": "ve ",
    "91": "be",
    "92": "ah",
    "93": "at ",
    "94": "wa",
    "95": "ra",
    "96": "se",
    "97": "id ",
    "98": "to",
    "99": "a ",
    "100": "li",
    "101": "is ",
    "102": "da",
    "103": "le",
    "104": "ri",
    "105": "my ",
    "106": "he",
    "107": "your ",
    "108": "gh",
    "109": "yah",
    "110": "yahwe",
    "111": "go",
    "112": "the",
    "113": "ow",
    "114": "it",
    "115": "at",
    "116": "him ",
    "117": "ac",
    "118": "yahweh ",
    "119": "an ",
    "120": "ere ",
    "121": "ca",
    "122": "for ",
    "123": "ma",
    "124": "ld ",
    "125": "is",
    "126": "bu",
    "127": "will ",
    "128": "it ",
    "129": "in the ",
    "130": "king ",
    "131": "k ",
    "132": "was ",
    "133": "with ",
    "134": "who ",
    "135": "s of ",
    "136": "de",
    "137": "sha",
    "138": "god ",
    "139": "all",
    "140": "ah ",
    "141": "have ",
    "142": "said ",
    "143": "ther ",
    "144": "ab",
    "145": "pl",
    "146": "s and ",
    "147": "be ",
    "148": "ne",
    "149": "hou",
    "150": "ho",
    "151": "to the ",
    "152": "co",
    "153": "ir ",
    "154": "ev",
    "155": "son ",
    "156": "st ",
    "157": "el ",
    "158": "pe",
    "159": "fro",
    "160": "si",
    "161": "lo",
    "162": "fa",
    "163": "p ",
    "164": "ke ",
    "165": " that ",
    "166": "ght ",
    "167": "ga",
    "168": "ent ",
    "169": "ear",
    "170": "are ",
    "171": "ch ",
    "172": "one ",
    "173": "they ",
    "174": "as",
    "175": "fi",
    "176": "s \n",
    "177": "un",
    "178": "ti",
    "179": "house ",
    "180": "all ",
    "181": "no",
    "182": "out ",
    "183": "isra",
    "184": "shall ",
    "185": "\nthe ",
    "186": "whi",
    "187": "were ",
    "188": "ght",
    "189": "am",
    "190": " they ",
    "191": "israel ",
    "192": "f ",
    "193": "chi",
    "194": "now",
    "195": "ld",
    "196": "de ",
    "197": "wor",
    "198": " their ",
    "199": "ers ",
    "200": "ur",
    "201": "ce ",
    "202": " them ",
    "203": "di",
    "204": "as ",
    "205": "fore ",
    "206": "so",
    "207": "ll",
    "208": "had ",
    "209": "oun",
    "210": "son",
    "211": "so ",
    "212": "that ",
    "213": "and the ",
    "214": "mi",
    "215": "ser",
    "216": "came ",
    "217": "ver",
    "218": "all the ",
    "219": "ta",
    "220": "jo",
    "221": "which ",
    "222": "do",
    "223": "dav",
    "224": "man ",
    "225": "from ",
    "226": "david ",
    "227": "ar ",
    "228": "not ",
    "229": "son of ",
    "230": "or ",
    "231": "ru",
    "232": "ss ",
    "233": "ly ",
    "234": "and",
    "235": "? ",
    "236": "\nhe ",
    "237": "up ",
    "238": "je",
    "239": "opl",
    "240": "peopl",
    "241": "sp",
    "242": "ver ",
    "243": "me",
    "244": "ent",
    "245": "but ",
    "246": "gi",
    "247": "la",
    "248": "ace ",
    "249": "serv",
    "250": "sal",
    "251": " the son of ",
    "252": "aga",
    "253": "ju",
    "254": "le ",
    "255": "men ",
    "256": "sel",
    "257": "i will ",
    "258": "br",
    "259": "father ",
    "260": "sh",
    "261": "con",
    "262": "people ",
    "263": "has ",
    "264": "und",
    "265": "od ",
    "266": "\nth",
    "267": "ren ",
    "268": "child",
    "269": "with",
    "270": "children ",
    "271": "made ",
    "272": "before ",
    "273": "ft",
    "274": "na",
    "275": "servan",
    "276": "iah ",
    "277": "ad ",
    "278": "jer",
    "279": "hear",
    "280": "of yahweh ",
    "281": "b ",
    "282": "for the ",
    "283": "on the ",
    "284": "when ",
    "285": "su",
    "286": "pp",
    "287": "ose ",
    "288": "com",
    "289": "bro",
    "290": "ir",
    "291": "ati",
    "292": "mo",
    "293": "hold ",
    "294": "her ",
    "295": "she",
    "296": "our ",
    "297": "bo",
    "298": "own ",
    "299": "m the ",
    "300": "hand ",
    "301": "went ",
    "302": "cau",
    "303": "them ",
    "304": "am ",
    "305": "again",
    "306": "way ",
    "307": "land ",
    "308": "g ",
    "309": "ch",
    "310": "s of the ",
    "311": "pro",
    "312": "now ",
    "313": "said to ",
    "314": "us ",
    "315": "ted ",
    "316": "say",
    "317": "t the ",
    "318": "by ",
    "319": "come ",
    "320": "tw",
    "321": " this ",
    "322": "te",
    "323": "ck",
    "324": "year",
    "325": "ord",
    "326": "ther",
    "327": "w ",
    "328": "es and ",
    "329": "let ",
    "330": "gre",
    "331": "ad",
    "332": "cause ",
    "333": "king of ",
    "334": "go ",
    "335": "cit",
    "336": "ed the ",
    "337": "mor",
    "338": "dah ",
    "339": "ok ",
    "340": "sons of ",
    "341": "ned ",
    "342": "children of ",
    "343": "ts ",
    "344": "we ",
    "345": "also ",
    "346": "and he ",
    "347": "red ",
    "348": "judah ",
    "349": "day ",
    "350": "mb",
    "351": "tur",
    "352": "ven ",
    "353": "n t ",
    "354": "behold ",
    "355": "ness ",
    "356": "em ",
    "357": "name ",
    "358": "ow ",
    "359": "ever",
    "360": "ep",
    "361": "ound ",
    "362": "pri",
    "363": "jeru",
    "364": "fe",
    "365": "\n ",
    "366": "ous",
    "367": " there ",
    "368": "jerusal",
    "369": "fu",
    "370": "on t ",
    "371": "cu",
    "372": "i have ",
    "373": "you have ",
    "374": "because ",
    "375": "tt",
    "376": "aft",
    "377": "est",
    "378": "pre",
    "379": "ves ",
    "380": "she ",
    "381": "ved ",
    "382": "its ",
    "383": "ig",
    "384": "day",
    "385": "ge",
    "386": "at the ",
    "387": "their ",
    "388": "jerusalem ",
    "389": "ba",
    "390": "ought ",
    "391": "earth ",
    "392": "thers ",
    "393": "fe ",
    "394": "from the ",
    "395": "place ",
    "396": "no ",
    "397": "pra",
    "398": "don t ",
    "399": "y the ",
    "400": "hund",
    "401": "ge ",
    "402": "sed ",
    "403": "ck ",
    "404": "do ",
    "405": "against ",
    "406": "qu",
    "407": "hat ",
    "408": "mon ",
    "409": "il",
    "410": "of his ",
    "411": "may ",
    "412": "off",
    "413": "ven",
    "414": "lor",
    "415": "hundred ",
    "416": "yes ",
    "417": "like ",
    "418": "ke",
    "419": "pu",
    "420": "give ",
    "421": "! ",
    "422": "ered ",
    "423": "king",
    "424": "ened ",
    "425": "ose who ",
    "426": "ere",
    "427": "down ",
    "428": "shi",
    "429": "there ",
    "430": "acc",
    "431": "om ",
    "432": "over ",
    "433": "over",
    "434": "in his ",
    "435": "ki",
    "436": "\nthey ",
    "437": "il ",
    "438": "comm",
    "439": "ice ",
    "440": "ever ",
    "441": "word ",
    "442": "heart ",
    "443": "saying ",
    "444": "ind",
    "445": "ree ",
    "446": "ites ",
    "447": "sent ",
    "448": "en the ",
    "449": "mu",
    "450": "les",
    "451": "msel",
    "452": "to him ",
    "453": "par",
    "454": "et ",
    "455": "es",
    "456": "eli",
    "457": "solo",
    "458": "if ",
    "459": "wat",
    "460": "gh ",
    "461": "fo",
    "462": "reig",
    "463": "mon",
    "464": "accord",
    "465": "ise ",
    "466": "according ",
    "467": "rou",
    "468": "bur",
    "469": "sw",
    "470": "great ",
    "471": "el",
    "472": "ong",
    "473": "?\n",
    "474": "ce",
    "475": "cap",
    "476": "fir",
    "477": "solomon ",
    "478": "att",
    "479": "did",
    "480": "deli",
    "481": "of your ",
    "482": "didn t ",
    "483": "ty ",
    "484": "cha",
    "485": "brought ",
    "486": "away ",
    "487": "ds ",
    "488": "city ",
    "489": "\nthen ",
    "490": "servant ",
    "491": "ation ",
    "492": "even ",
    "493": "what ",
    "494": "ught",
    "495": "with the ",
    "496": "aha",
    "497": "did ",
    "498": "command",
    "499": "ard ",
    "500": "happ",
    "501": "two ",
    "502": "ghte",
    "503": "spo",
    "504": "ang",
    "505": "bor",
    "506": "rin",
    "507": "\nfor ",
    "508": "man",
    "509": "took ",
    "510": "spe",
    "511": "ould ",
    "512": "and they ",
    "513": "stru",
    "514": "every ",
    "515": "ry ",
    "516": "ple",
    "517": "answ",
    "518": "pt ",
    "519": "shou",
    "520": "of israel ",
    "521": "dom ",
    "522": "ite ",
    "523": "ving ",
    "524": "you shall ",
    "525": "led ",
    "526": "ze",
    "527": "pha",
    "528": "jac",
    "529": "daught",
    "530": "\nit ",
    "531": "stre",
    "532": "per",
    "533": "ings ",
    "534": "ies ",
    "535": "ine ",
    "536": "bre",
    "537": "\nand ",
    "538": "ces ",
    "539": "ah the ",
    "540": "take ",
    "541": "sou",
    "542": "ph ",
    "543": "kind",
    "544": "into the ",
    "545": "ep ",
    "546": "hu",
    "547": "righte",
    "548": "ousand ",
    "549": "ked ",
    "550": "ried ",
    "551": "lord ",
    "552": "jaco",
    "553": "to you ",
    "554": "ken ",
    "555": "good ",
    "556": "gave ",
    "557": "our",
    "558": "hea",
    "559": "\nbut ",
    "560": "ous ",
    "561": "ation",
    "562": "sen",
    "563": "pa",
    "564": "jeho",
    "565": "king s ",
    "566": "jacob ",
    "567": "and his ",
    "568": "make ",
    "569": "tre",
    "570": "phe",
    "571": "te ",
    "572": "wo",
    "573": "know",
    "574": "chie",
    "575": "ight ",
    "576": "by the ",
    "577": "this ",
    "578": "abra",
    "579": "eg",
    "580": "out of the ",
    "581": "happened ",
    "582": "ong ",
    "583": "ate ",
    "584": "yahweh",
    "585": " those who ",
    "586": "erefore ",
    "587": "wick",
    "588": "du",
    "589": "put ",
    "590": "hand",
    "591": "became ",
    "592": "ant ",
    "593": "years ",
    "594": "of my ",
    "595": "sy",
    "596": "lev",
    "597": "father of ",
    "598": "to me ",
    "599": "to your ",
    "600": "ses ",
    "601": "zi",
    "602": "her",
    "603": "ning ",
    "604": "forever ",
    "605": "list",
    "606": "offer",
    "607": "nes",
    "608": "of god ",
    "609": "turn ",
    "610": "al ",
    "611": "after ",
    "612": " that he ",
    "613": "ex",
    "614": "set ",
    "615": "priest",
    "616": "ghty ",
    "617": "gold ",
    "618": "see ",
    "619": "syri",
    "620": "his son ",
    "621": "ance ",
    "622": "would ",
    "623": "nei",
    "624": "thing ",
    "625": "ish",
    "626": "should ",
    "627": "call",
    "628": "sh ",
    "629": "im ",
    "630": "egy",
    "631": "chief ",
    "632": "i am ",
    "633": "with him ",
    "634": "tru",
    "635": "po",
    "636": "to his ",
    "637": "ene",
    "638": "ase ",
    "639": "soul ",
    "640": "ward ",
    "641": "more ",
    "642": "sto",
    "643": "wife ",
    "644": "ab ",
    "645": "servants ",
    "646": "tion ",
    "647": "in your ",
    "648": "ind ",
    "649": "af",
    "650": "tain",
    "651": "bles",
    "652": "shall be ",
    "653": "sau",
    "654": "at they ",
    "655": "and said ",
    "656": "ah the son of ",
    "657": "vo",
    "658": "done ",
    "659": "s and the ",
    "660": "lled ",
    "661": "vi",
    "662": "eyes ",
    "663": "after",
    "664": "car",
    "665": "lived ",
    "666": "under",
    "667": "mighty ",
    "668": "face ",
    "669": "heard ",
    "670": "the father of ",
    "671": "hor",
    "672": "enty ",
    "673": "coun",
    "674": "jose",
    "675": "ham ",
    "676": "praise ",
    "677": "ath ",
    "678": "house of ",
    "679": "brothers ",
    "680": "me \n",
    "681": "twe",
    "682": "ity ",
    "683": "old ",
    "684": "will be ",
    "685": "turned ",
    "686": "fathers ",
    "687": "joseph ",
    "688": " these ",
    "689": "sil",
    "690": "mou",
    "691": "ks ",
    "692": "neither ",
    "693": "nor ",
    "694": "brother ",
    "695": "gra",
    "696": "whom ",
    "697": "the king ",
    "698": "evil ",
    "699": "high ",
    "700": "pas",
    "701": "can ",
    "702": "pi",
    "703": "became the father of ",
    "704": "when he ",
    "705": "house of yahweh ",
    "706": "ci",
    "707": "to them ",
    "708": "other ",
    "709": "shu",
    "710": "wicked ",
    "711": "you are ",
    "712": "\nyahweh ",
    "713": "cl",
    "714": "up",
    "715": "six",
    "716": "less ",
    "717": "life ",
    "718": "ment",
    "719": "\nit happened ",
    "720": "loving ",
    "721": " therefore ",
    "722": "t them ",
    "723": "toge",
    "724": "ed",
    "725": "prophe",
    "726": "who were ",
    "727": "right ",
    "728": "which he ",
    "729": "az",
    "730": "over the ",
    "731": "seven ",
    "732": "spoke ",
    "733": "ini",
    "734": "ath",
    "735": "called ",
    "736": "side ",
    "737": "reigned ",
    "738": "er and ",
    "739": "cer",
    "740": "spea",
    "741": "me and ",
    "742": "loving kind",
    "743": "to yahweh ",
    "744": "ari",
    "745": "alt",
    "746": "asse",
    "747": "where ",
    "748": "hel",
    "749": "against",
    "750": "buil",
    "751": "sin",
    "752": "in their ",
    "753": "str",
    "754": "oh ",
    "755": "any ",
    "756": "again ",
    "757": "himsel",
    "758": "fear",
    "759": "bring ",
    "760": "med ",
    "761": "ben",
    "762": "er of ",
    "763": "land of ",
    "764": "mouth ",
    "765": "said to him ",
    "766": "ts of ",
    "767": "ft ",
    "768": "egypt ",
    "769": "oin",
    "770": "jud",
    "771": "es \n",
    "772": "is the ",
    "773": " thousand ",
    "774": "abo",
    "775": "thir",
    "776": "sons ",
    "777": "yahweh the ",
    "778": "cri",
    "779": "of their ",
    "780": "abraham ",
    "781": "how ",
    "782": "sti",
    "783": "these ",
    "784": "well ",
    "785": "mal",
    "786": "levites ",
    "787": "youn",
    "788": "ful ",
    "789": "your",
    "790": "ah and ",
    "791": "found ",
    "792": "way",
    "793": "clo",
    "794": "answered ",
    "795": "unti",
    "796": "tain ",
    "797": "himself ",
    "798": "twenty ",
    "799": "all his ",
    "800": "\nthe sons of ",
    "801": "est ",
    "802": "came to ",
    "803": "dest",
    "804": "it is ",
    "805": "eld ",
    "806": "bac",
    "807": "asa",
    "808": "s house ",
    "809": "s the ",
    "810": "blessed ",
    "811": "why ",
    "812": "together ",
    "813": "to be ",
    "814": "ment ",
    "815": "with his ",
    "816": "phi",
    "817": "end ",
    "818": "wal",
    "819": "year ",
    "820": "him and ",
    "821": "forth ",
    "822": "among",
    "823": "nation",
    "824": "destro",
    "825": "into ",
    "826": "beg",
    "827": "time ",
    "828": "ed and ",
    "829": "\nso ",
    "830": "cre",
    "831": "you will ",
    "832": "head ",
    "833": "har",
    "834": "gu",
    "835": "prin",
    "836": "silver ",
    "837": "chari",
    "838": "he said ",
    "839": "out of ",
    "840": "mer",
    "841": "please ",
    "842": "ure ",
    "843": "joab ",
    "844": "ach ",
    "845": " then ",
    "846": "know ",
    "847": "his father ",
    "848": "voice ",
    "849": "work ",
    "850": "wri",
    "851": "ing the ",
    "852": "sight ",
    "853": "mselves ",
    "854": "flo",
    "855": "sing ",
    "856": "days ",
    "857": "a and ",
    "858": "stren",
    "859": "streng",
    "860": "\nnow",
    "861": "burn",
    "862": "yet ",
    "863": "stood ",
    "864": "tri",
    "865": "cities ",
    "866": "stand",
    "867": "ointed ",
    "868": "en they ",
    "869": "when the ",
    "870": "for his ",
    "871": "ster ",
    "872": "it was ",
    "873": "in jerusalem ",
    "874": "mies ",
    "875": "ones ",
    "876": "phara",
    "877": "owed ",
    "878": "abi",
    "879": "coven",
    "880": "you and ",
    "881": "bui",
    "882": "loving kindness ",
    "883": "built ",
    "884": "self ",
    "885": "eat ",
    "886": "t they ",
    "887": "ahi",
    "888": "pharaoh ",
    "889": "who",
    "890": "speak ",
    "891": "peace ",
    "892": "rest ",
    "893": "th and ",
    "894": "than",
    "895": "commanded ",
    "896": "ded ",
    "897": "iah and ",
    "898": "deliver",
    "899": "according to the ",
    "900": "told ",
    "901": "val",
    "902": "reign ",
    "903": "born ",
    "904": "see",
    "905": "y and ",
    "906": "yahweh the god ",
    "907": "given ",
    "908": "tten ",
    "909": "mber ",
    "910": "bread ",
    "911": "king of israel ",
    "912": "say ",
    "913": "spi",
    "914": "live ",
    "915": "to my ",
    "916": "es of the ",
    "917": "saw",
    "918": "attle ",
    "919": "moun",
    "920": "are the ",
    "921": "army ",
    "922": "gr",
    "923": "bit",
    "924": "hear ",
    "925": "yed ",
    "926": "\nthe children of ",
    "927": "absal",
    "928": "covenant ",
    "929": "my soul ",
    "930": "father",
    "931": "sar",
    "932": "fear ",
    "933": "jah ",
    "934": "boam ",
    "935": "young ",
    "936": "k the ",
    "937": "\nnow ",
    "938": "all the people ",
    "939": " that they ",
    "940": "ts and ",
    "941": "burnt ",
    "942": "mother ",
    "943": "ey",
    "944": "jero",
    "945": "but the ",
    "946": "gate ",
    "947": "your servant ",
    "948": "righteous",
    "949": "law ",
    "950": "\ndavid ",
    "951": "then ",
    "952": "dar",
    "953": "che",
    "954": "on his ",
    "955": "let the ",
    "956": "three ",
    "957": "ter",
    "958": "por",
    "959": "nu",
    "960": "five ",
    "961": "sons and ",
    "962": "isa",
    "963": "row",
    "964": "which was ",
    "965": "cho",
    "966": "in my ",
    "967": "dre",
    "968": "a man ",
    "969": "tell ",
    "970": "killed ",
    "971": "gather",
    "972": "tal",
    "973": "and to ",
    "974": "han",
    "975": "he has ",
    "976": "all that ",
    "977": "night ",
    "978": "with you ",
    "979": "as the ",
    "980": "syria ",
    "981": "absalom ",
    "982": "kiah ",
    "983": "rough",
    "984": "righteous ",
    "985": "dis",
    "986": "z ",
    "987": "stor",
    "988": "laid ",
    "989": "lam",
    "990": "back ",
    "991": "men of ",
    "992": "before the ",
    "993": "ot ",
    "994": " three ",
    "995": "one hundred ",
    "996": "from",
    "997": "among the ",
    "998": "says ",
    "999": "who is ",
    "1000": "bore ",
    "1001": "za",
    "1002": "judah and ",
    "1003": "death ",
    "1004": "blo",
    "1005": "which is ",
    "1006": "an and ",
    "1007": "to the king ",
    "1008": "keep ",
    "1009": "drin",
    "1010": "ani",
    "1011": "plac",
    "1012": "ised ",
    "1013": "hands ",
    "1014": "began ",
    "1015": "i and ",
    "1016": "left ",
    "1017": "around ",
    "1018": "might ",
    "1019": "op",
    "1020": "lic",
    "1021": "altar ",
    "1022": "written ",
    "1023": "eld",
    "1024": "stri",
    "1025": "there",
    "1026": " that the ",
    "1027": "on and ",
    "1028": "cei",
    "1029": "sc",
    "1030": "sin ",
    "1031": "many ",
    "1032": "sword ",
    "1033": "been ",
    "1034": "he had ",
    "1035": "he was ",
    "1036": "against the ",
    "1037": "words ",
    "1038": "sk",
    "1039": "struck ",
    "1040": "whose ",
    "1041": "iniqu",
    "1042": "my lord ",
    "1043": "ark ",
    "1044": "depar",
    "1045": "dd",
    "1046": "field ",
    "1047": "our god ",
    "1048": "food ",
    "1049": "heaven ",
    "1050": "sure",
    "1051": "ans ",
    "1052": "sid",
    "1053": "able ",
    "1054": "fift",
    "1055": "holy ",
    "1056": "saul ",
    "1057": "all israel ",
    "1058": "word",
    "1059": "cut ",
    "1060": "gar",
    "1061": "priests ",
    "1062": "s \nhe ",
    "1063": "!\n",
    "1064": "rejo",
    "1065": "jam",
    "1066": "first ",
    "1067": "toward ",
    "1068": "standing ",
    "1069": "month ",
    "1070": "heze",
    "1071": "him \n",
    "1072": "stand ",
    "1073": "book ",
    "1074": "nations ",
    "1075": "sta",
    "1076": "return ",
    "1077": "\nthe king ",
    "1078": "mul",
    "1079": "burnt offer",
    "1080": "for your ",
    "1081": "he is ",
    "1082": "fire ",
    "1083": "days of ",
    "1084": "shap",
    "1085": "isaac",
    "1086": "taken ",
    "1087": "ach",
    "1088": "ers of ",
    "1089": "very ",
    "1090": "with a ",
    "1091": "great",
    "1092": "shed ",
    "1093": "above ",
    "1094": "up the ",
    "1095": "cont",
    "1096": "reme",
    "1097": "lab",
    "1098": "glor",
    "1099": "long ",
    "1100": "woman ",
    "1101": "\nhe said ",
    "1102": "re ",
    "1103": "ten ",
    "1104": "priest ",
    "1105": "strength ",
    "1106": "sam",
    "1107": "ahab ",
    "1108": "isaac ",
    "1109": "ish ",
    "1110": "ought",
    "1111": "ash",
    "1112": "philist",
    "1113": "ana",
    "1114": "let them ",
    "1115": "betwe",
    "1116": "\ni will ",
    "1117": "sle",
    "1118": "thousand ",
    "1119": "water ",
    "1120": "wis",
    "1121": "keep",
    "1122": "ence ",
    "1123": "atu",
    "1124": "sha ",
    "1125": "until ",
    "1126": "those who ",
    "1127": "eru",
    "1128": "twel",
    "1129": "deliver ",
    "1130": "him",
    "1131": "seed ",
    "1132": "off ",
    "1133": "my god ",
    "1134": "assemb",
    "1135": "ct ",
    "1136": "pleas",
    "1137": "end",
    "1138": "kingdom ",
    "1139": "estab",
    "1140": "establi",
    "1141": "enemies ",
    "1142": "wall ",
    "1143": "serve ",
    "1144": "ons ",
    "1145": "spiri",
    "1146": "vin",
    "1147": "returned ",
    "1148": "so the ",
    "1149": "benjam",
    "1150": "in and ",
    "1151": "zz",
    "1152": "? \n",
    "1153": "of david ",
    "1154": "went up ",
    "1155": "hon",
    "1156": "build ",
    "1157": "listen ",
    "1158": "of the sons of ",
    "1159": "ner ",
    "1160": "raid ",
    "1161": "philistin",
    "1162": "light ",
    "1163": "daughter of ",
    "1164": "another ",
    "1165": "\nwhen ",
    "1166": "kes ",
    "1167": "every",
    "1168": "my son ",
    "1169": "some ",
    "1170": "fied ",
    "1171": "help ",
    "1172": "princes ",
    "1173": "he will ",
    "1174": "which",
    "1175": "kings of ",
    "1176": "samari",
    "1177": "dead ",
    "1178": "blood ",
    "1179": "six ",
    "1180": "gathered ",
    "1181": "concer",
    "1182": "ast ",
    "1183": "tes ",
    "1184": "sake ",
    "1185": "seek ",
    "1186": " that i ",
    "1187": "you \n",
    "1188": "wisdom ",
    "1189": "afraid ",
    "1190": "oni",
    "1191": "it and ",
    "1192": "ws ",
    "1193": "waters ",
    "1194": "instru",
    "1195": "vis",
    "1196": "to their ",
    "1197": "like a ",
    "1198": "sea ",
    "1199": "tem",
    "1200": "statu",
    "1201": "head",
    "1202": "loo",
    "1203": "eph",
    "1204": "began to ",
    "1205": "ground ",
    "1206": "secon",
    "1207": "second ",
    "1208": "trou",
    "1209": "rone ",
    "1210": "shall not ",
    "1211": "near ",
    "1212": "wra",
    "1213": "hezekiah ",
    "1214": "foll",
    "1215": "el and ",
    "1216": "when they ",
    "1217": "delivered ",
    "1218": "app",
    "1219": "ei",
    "1220": "judg",
    "1221": "bir",
    "1222": "salv",
    "1223": "esau",
    "1224": "war ",
    "1225": "house",
    "1226": "iniquity ",
    "1227": "troub",
    "1228": "va",
    "1229": "jehoi",
    "1230": "row ",
    "1231": "for they ",
    "1232": "salvation ",
    "1233": "heaven",
    "1234": "spirit ",
    "1235": "san",
    "1236": "fell ",
    "1237": "battle ",
    "1238": "as a ",
    "1239": "four",
    "1240": "answer ",
    "1241": "die ",
    "1242": "captain",
    "1243": "by david ",
    "1244": "surely ",
    "1245": "my father ",
    "1246": "aff",
    "1247": "ps ",
    "1248": "king of judah ",
    "1249": "selah ",
    "1250": "here ",
    "1251": "years old ",
    "1252": "res ",
    "1253": "feet ",
    "1254": "lesh ",
    "1255": "sacri",
    "1256": "sacrifi",
    "1257": " there is ",
    "1258": "\ni ",
    "1259": "ls ",
    "1260": "morning ",
    "1261": "in the land of ",
    "1262": "four ",
    "1263": "th year ",
    "1264": "gen",
    "1265": "themselves ",
    "1266": "cub",
    "1267": "tim",
    "1268": "hand of ",
    "1269": "flesh ",
    "1270": "ada",
    "1271": " that you ",
    "1272": "if",
    "1273": "out",
    "1274": "nd",
    "1275": "saw ",
    "1276": "written in the ",
    "1277": "went out ",
    "1278": "of the children of ",
    "1279": "ers and ",
    "1280": "word of yahweh ",
    "1281": "ated ",
    "1282": "righteousness ",
    "1283": "tu",
    "1284": "\nthere ",
    "1285": "in his place ",
    "1286": "ttle ",
    "1287": "gener",
    "1288": "esau ",
    "1289": "pla",
    "1290": "yahweh has ",
    "1291": "ed to ",
    "1292": "sho",
    "1293": "anger ",
    "1294": "house and ",
    "1295": "pray",
    "1296": "of them ",
    "1297": "lay ",
    "1298": "drink ",
    "1299": "se up ",
    "1300": "liv",
    "1301": "ama",
    "1302": "does",
    "1303": "ssi",
    "1304": "gla",
    "1305": "jeroboam ",
    "1306": "cast ",
    "1307": "therefore ",
    "1308": "ith",
    "1309": "will you ",
    "1310": "for a ",
    "1311": "things ",
    "1312": "ars ",
    "1313": "ves",
    "1314": "wrath ",
    "1315": "under ",
    "1316": "sur",
    "1317": "\ngod ",
    "1318": "afflic",
    "1319": "doesn t ",
    "1320": "cana",
    "1321": "commandment",
    "1322": "understanding ",
    "1323": "ph",
    "1324": "shaphat ",
    "1325": "lead ",
    "1326": "twelve ",
    "1327": "right hand ",
    "1328": "ob",
    "1329": "child ",
    "1330": "vessel",
    "1331": "iah the son of ",
    "1332": "ed him ",
    "1333": "lift",
    "1334": "fifty ",
    "1335": "sel ",
    "1336": "th the ",
    "1337": "dark",
    "1338": "ez",
    "1339": "capti",
    "1340": "tor",
    "1341": "name was ",
    "1342": "bel",
    "1343": "get ",
    "1344": "yourself ",
    "1345": "ing and ",
    "1346": "tit",
    "1347": "ple ",
    "1348": "ban",
    "1349": "pill",
    "1350": "most ",
    "1351": "without ",
    "1352": "bab",
    "1353": "refu",
    "1354": "to david ",
    "1355": "while ",
    "1356": "hal",
    "1357": "for me ",
    "1358": "ness \n",
    "1359": "made a ",
    "1360": "like the ",
    "1361": "or and ",
    "1362": "carried ",
    "1363": "cover",
    "1364": "than ",
    "1365": "tent ",
    "1366": "mine ",
    "1367": "i the ",
    "1368": "repa",
    "1369": "manasse",
    "1370": "do you ",
    "1371": "places ",
    "1372": "ol ",
    "1373": "died ",
    "1374": "gone ",
    "1375": "\nthese ",
    "1376": "baal ",
    "1377": "lea",
    "1378": "prophet ",
    "1379": "dwell ",
    "1380": "none ",
    "1381": "in the sight ",
    "1382": "comes ",
    "1383": "does ",
    "1384": "that i ",
    "1385": "a p",
    "1386": "manasseh ",
    "1387": "treas",
    "1388": "fled ",
    "1389": "am the son of ",
    "1390": "ja",
    "1391": "for you ",
    "1392": "buried ",
    "1393": "show ",
    "1394": "captain ",
    "1395": "still ",
    "1396": "habit",
    "1397": "both ",
    "1398": "according to ",
    "1399": "counsel ",
    "1400": "fru",
    "1401": "presen",
    "1402": "presence ",
    "1403": "abu",
    "1404": "work",
    "1405": "assembly ",
    "1406": "book of the ",
    "1407": "samaria ",
    "1408": "m and ",
    "1409": "fore",
    "1410": "glory ",
    "1411": "les ",
    "1412": "ness and ",
    "1413": "sev",
    "1414": "ly",
    "1415": "your father ",
    "1416": "brother",
    "1417": "bless ",
    "1418": "well",
    "1419": "reigned in his place ",
    "1420": "rest of the ",
    "1421": "baby",
    "1422": "babyl",
    "1423": "musi",
    "1424": "wise ",
    "1425": "\nyou ",
    "1426": "and have ",
    "1427": "dow",
    "1428": "uri",
    "1429": " this day ",
    "1430": "\nnow the ",
    "1431": "ba ",
    "1432": "inu",
    "1433": "hada",
    "1434": "river ",
    "1435": "kep",
    "1436": " thus ",
    "1437": "little ",
    "1438": "prepar",
    "1439": "my",
    "1440": "cry ",
    "1441": "between ",
    "1442": "jehoshaphat ",
    "1443": "salm ",
    "1444": " than ",
    "1445": "nam",
    "1446": "ephra",
    "1447": "began to reign ",
    "1448": " there was ",
    "1449": "have you ",
    "1450": "in a ",
    "1451": "much ",
    "1452": "went to ",
    "1453": "that they ",
    "1454": "read ",
    "1455": "ced ",
    "1456": "children of israel ",
    "1457": "visi",
    "1458": "continu",
    "1459": "send ",
    "1460": "yahweh the god of israel ",
    "1461": "bar",
    "1462": "abund",
    "1463": "that he ",
    "1464": "quir",
    "1465": "first",
    "1466": "who has ",
    "1467": "out the ",
    "1468": "adver",
    "1469": " them",
    "1470": "far ",
    "1471": "we have ",
    "1472": "dom",
    "1473": "master ",
    "1474": "dge ",
    "1475": "male ",
    "1476": "man of god ",
    "1477": "ziah ",
    "1478": "deca",
    "1479": "too",
    "1480": "ond",
    "1481": "pur",
    "1482": "om",
    "1483": "mar",
    "1484": "everyone ",
    "1485": "full ",
    "1486": "an the ",
    "1487": "fl",
    "1488": "call ",
    "1489": "gri",
    "1490": "tow",
    "1491": "god",
    "1492": "god of ",
    "1493": "jehu",
    "1494": "assyria ",
    "1495": "brought",
    "1496": "even",
    "1497": "daughters ",
    "1498": "philistines ",
    "1499": "ni",
    "1500": "who was ",
    "1501": "can t ",
    "1502": "cour",
    "1503": "throne ",
    "1504": "reho",
    "1505": "s \nthe ",
    "1506": "ped ",
    "1507": "tra",
    "1508": "bel ",
    "1509": "consu",
    "1510": "walk ",
    "1511": "mordeca",
    "1512": "abram ",
    "1513": "arose ",
    "1514": "save ",
    "1515": "ough ",
    "1516": "thirty ",
    "1517": "ined ",
    "1518": "thing",
    "1519": "nothing ",
    "1520": "seven",
    "1521": "oud ",
    "1522": "sing",
    "1523": "it \n",
    "1524": "spr",
    "1525": "comp",
    "1526": "\nin the ",
    "1527": "a psalm ",
    "1528": "sla",
    "1529": "song ",
    "1530": "mountain",
    "1531": "ished ",
    "1532": "had come ",
    "1533": "firstborn ",
    "1534": "and all the ",
    "1535": "valle",
    "1536": "sheep ",
    "1537": "ali",
    "1538": "to jerusalem ",
    "1539": "lifted ",
    "1540": "herit",
    "1541": "more",
    "1542": "in the land ",
    "1543": "don",
    "1544": "ting ",
    "1545": "chr",
    "1546": "th \n",
    "1547": "age ",
    "1548": "that which was ",
    "1549": "repair",
    "1550": "pow",
    "1551": "pe ",
    "1552": "for the chief ",
    "1553": "for the chief musi",
    "1554": "for the chief musici",
    "1555": "for the chief musician ",
    "1556": "bra",
    "1557": "foreig",
    "1558": "mid",
    "1559": "ap",
    "1560": "go up ",
    "1561": "mes",
    "1562": "let your ",
    "1563": "forty ",
    "1564": "dy ",
    "1565": "same ",
    "1566": "spoken ",
    "1567": "desi",
    "1568": "before yahweh ",
    "1569": "l the ",
    "1570": "sen ",
    "1571": "had made ",
    "1572": "cur",
    "1573": "ways ",
    "1574": "by",
    "1575": "before him ",
    "1576": "shime",
    "1577": "\nthen the ",
    "1578": "donke",
    "1579": "seen ",
    "1580": "cried ",
    "1581": "appointed ",
    "1582": "peoples ",
    "1583": "ves and ",
    "1584": "asa ",
    "1585": "elijah ",
    "1586": "endu",
    "1587": "third ",
    "1588": "down",
    "1589": "arise ",
    "1590": "wha",
    "1591": "and i will ",
    "1592": "matt",
    "1593": "obe",
    "1594": "dust ",
    "1595": "cen",
    "1596": "sanc",
    "1597": "\nhis ",
    "1598": "ast",
    "1599": "my heart ",
    "1600": "houses ",
    "1601": "el the ",
    "1602": "repro",
    "1603": "endures ",
    "1604": "job ",
    "1605": "chario",
    "1606": "could ",
    "1607": "rejoice ",
    "1608": "love ",
    "1609": "ll the ",
    "1610": "before you ",
    "1611": " that is ",
    "1612": "\nbehold ",
    "1613": "edom ",
    "1614": "ful",
    "1615": "een ",
    "1616": "d the ",
    "1617": "will not ",
    "1618": "were the ",
    "1619": "wine ",
    "1620": "with their ",
    "1621": "only ",
    "1622": "hur",
    "1623": "he who ",
    "1624": "er the ",
    "1625": "th to ",
    "1626": "among ",
    "1627": "pos",
    "1628": "babylon ",
    "1629": "after the ",
    "1630": "cloth",
    "1631": "hebr",
    "1632": "every man ",
    "1633": "strong ",
    "1634": "opp",
    "1635": "lder",
    "1636": "if you ",
    "1637": "and your ",
    "1638": "joy ",
    "1639": "ched ",
    "1640": "dwell",
    "1641": "walked ",
    "1642": "ts \n",
    "1643": " themselves ",
    "1644": "kings ",
    "1645": "with me ",
    "1646": "there is ",
    "1647": "let me ",
    "1648": "find ",
    "1649": "adversar",
    "1650": "sky ",
    "1651": "foun",
    "1652": "ordin",
    "1653": "ue ",
    "1654": "they are ",
    "1655": "ction ",
    "1656": "offi",
    "1657": "rul",
    "1658": "min",
    "1659": "acts of ",
    "1660": "jon",
    "1661": "who are ",
    "1662": "awa",
    "1663": "em",
    "1664": "number ",
    "1665": "benjamin ",
    "1666": "that you ",
    "1667": "ges ",
    "1668": "cal",
    "1669": "ows ",
    "1670": "for my ",
    "1671": "\ntherefore ",
    "1672": "prosp",
    "1673": "your god ",
    "1674": "aren ",
    "1675": "pie",
    "1676": "war",
    "1677": "nor",
    "1678": "iah the ",
    "1679": "eight ",
    "1680": "posse",
    "1681": "livest",
    "1682": "livesto",
    "1683": "jews ",
    "1684": "generation",
    "1685": "\n for the chief musician ",
    "1686": "gilead ",
    "1687": "ephraim ",
    "1688": "wilder",
    "1689": "there was ",
    "1690": "with them ",
    "1691": "ant",
    "1692": "that were ",
    "1693": "ai ",
    "1694": "just",
    "1695": "look ",
    "1696": "such ",
    "1697": "cle",
    "1698": "worshi",
    "1699": "\nfor the ",
    "1700": "hate ",
    "1701": "thanks ",
    "1702": "ths ",
    "1703": "about ",
    "1704": "upri",
    "1705": "elisha ",
    "1706": "mone",
    "1707": "ahaz ",
    "1708": "king of assyria ",
    "1709": "cam",
    "1710": "over israel ",
    "1711": "so they ",
    "1712": "he didn t ",
    "1713": "hand of the ",
    "1714": "fall ",
    "1715": "but they ",
    "1716": "forever \n",
    "1717": "prayer ",
    "1718": "sub",
    "1719": "zado",
    "1720": "ers \n",
    "1721": "bowed ",
    "1722": "that the ",
    "1723": "become ",
    "1724": "i will not ",
    "1725": "lett",
    "1726": "him to ",
    "1727": "through",
    "1728": "tong",
    "1729": "fathers and ",
    "1730": "service ",
    "1731": "of the land ",
    "1732": "mordecai ",
    "1733": "laban ",
    "1734": "looked ",
    "1735": "lies ",
    "1736": "you shall not ",
    "1737": "times ",
    "1738": "ceived ",
    "1739": "new ",
    "1740": "\nthis ",
    "1741": "exce",
    "1742": "ally ",
    "1743": "cou",
    "1744": "and my ",
    "1745": "judge ",
    "1746": "sor",
    "1747": "kill",
    "1748": "refuge ",
    "1749": "hold",
    "1750": "did that which was ",
    "1751": "mother s ",
    "1752": "livestock ",
    "1753": "trust ",
    "1754": "god s house ",
    "1755": "messen",
    "1756": "messeng",
    "1757": "no more ",
    "1758": "passed ",
    "1759": "words of ",
    "1760": "half ",
    "1761": "and a ",
    "1762": "of those who ",
    "1763": "to me",
    "1764": "with your ",
    "1765": "is my ",
    "1766": "cribe ",
    "1767": "fin",
    "1768": "ran",
    "1769": "part ",
    "1770": "ns ",
    "1771": "ces and ",
    "1772": "famine ",
    "1773": "rock ",
    "1774": "heavens ",
    "1775": "give thanks ",
    "1776": "th year of ",
    "1777": "door",
    "1778": "cor",
    "1779": "your name ",
    "1780": "in the way ",
    "1781": "rebe",
    "1782": "know that ",
    "1783": "kill ",
    "1784": " that was ",
    "1785": "let",
    "1786": "each ",
    "1787": " through",
    "1788": "rough ",
    "1789": "fri",
    "1790": "wicked",
    "1791": "we are ",
    "1792": "let him ",
    "1793": "exal",
    "1794": "valley ",
    "1795": "in the city ",
    "1796": "filled ",
    "1797": "all these ",
    "1798": "syrians ",
    "1799": "let us ",
    "1800": "stone ",
    "1801": "his wife ",
    "1802": "from your ",
    "1803": "moreover ",
    "1804": "under the ",
    "1805": "decl",
    "1806": "swe",
    "1807": "abundance ",
    "1808": "king solomon ",
    "1809": "ben ",
    "1810": "knowle",
    "1811": "in the sight of yahweh ",
    "1812": "jehu ",
    "1813": "haman ",
    "1814": "jonath",
    "1815": "whole ",
    "1816": "because they ",
    "1817": "women ",
    "1818": "enemy ",
    "1819": "inhabit",
    "1820": "chosen ",
    "1821": "offered ",
    "1822": "multit",
    "1823": "multitu",
    "1824": "multitude ",
    "1825": "foo",
    "1826": "gold and ",
    "1827": "justice ",
    "1828": "to do ",
    "1829": "fami",
    "1830": "remember ",
    "1831": "inherit",
    "1832": "stones ",
    "1833": "land",
    "1834": "destroyed ",
    "1835": "wind ",
    "1836": "ches ",
    "1837": "ash ",
    "1838": "incen",
    "1839": "incense ",
    "1840": "s of the earth ",
    "1841": "written in the book of the ",
    "1842": "money ",
    "1843": "his brothers ",
    "1844": "lot ",
    "1845": "it happened ",
    "1846": "er of the ",
    "1847": "destroy ",
    "1848": "anointed ",
    "1849": "high places ",
    "1850": "midst ",
    "1851": "wond",
    "1852": "all their ",
    "1853": "established ",
    "1854": "y thousand ",
    "1855": "departed ",
    "1856": "moved ",
    "1857": "concerning ",
    "1858": "lu",
    "1859": "rose up ",
    "1860": "cious ",
    "1861": "pass ",
    "1862": "\nshe ",
    "1863": "in all the ",
    "1864": "fav",
    "1865": "den ",
    "1866": "who had ",
    "1867": "? or ",
    "1868": "temple ",
    "1869": "ises ",
    "1870": "tongue ",
    "1871": "enti",
    "1872": "moses ",
    "1873": "knowledge ",
    "1874": "commandment ",
    "1875": "took the ",
    "1876": "bow ",
    "1877": "oil ",
    "1878": "and he reigned ",
    "1879": "jord",
    "1880": "angry ",
    "1881": "bes ",
    "1882": "uzz",
    "1883": "handma",
    "1884": "will i ",
    "1885": "says yahweh ",
    "1886": "depart ",
    "1887": "ammon ",
    "1888": "rown ",
    "1889": "her and ",
    "1890": "slept ",
    "1891": "ko",
    "1892": "two hundred ",
    "1893": "alone ",
    "1894": "is a ",
    "1895": "we will ",
    "1896": "gat",
    "1897": "faith",
    "1898": "egyp",
    "1899": "testi",
    "1900": "prepared ",
    "1901": "res",
    "1902": "th day ",
    "1903": "rest of the acts of ",
    "1904": "provin",
    "1905": "bba",
    "1906": "trouble ",
    "1907": "loving kindness endures ",
    "1908": "hope ",
    "1909": "sat ",
    "1910": "trum",
    "1911": "trumpe",
    "1912": "lac",
    "1913": "ine",
    "1914": "israel and ",
    "1915": "qui",
    "1916": "hand and ",
    "1917": "name of yahweh ",
    "1918": "flock",
    "1919": "being ",
    "1920": "lifted up ",
    "1921": "dow ",
    "1922": "try ",
    "1923": "known ",
    "1924": "light",
    "1925": "im",
    "1926": "on me ",
    "1927": "ances ",
    "1928": "cubits ",
    "1929": "all that he ",
    "1930": "of the people ",
    "1931": "them and ",
    "1932": "yahweh s ",
    "1933": "came and ",
    "1934": "broke ",
    "1935": "when you ",
    "1936": "spread ",
    "1937": "broken ",
    "1938": "tent",
    "1939": "within ",
    "1940": "saying \n ",
    "1941": "sm",
    "1942": "your people ",
    "1943": "restor",
    "1944": "for him ",
    "1945": "asked ",
    "1946": "was a ",
    "1947": "from his ",
    "1948": "from my ",
    "1949": "ten",
    "1950": "said to them ",
    "1951": "thi",
    "1952": "bones ",
    "1953": "ure",
    "1954": "and their ",
    "1955": "made the ",
    "1956": "zion ",
    "1957": "evil in the sight of yahweh ",
    "1958": "god has ",
    "1959": "divisi",
    "1960": "of the wicked ",
    "1961": "yah ",
    "1962": "rache",
    "1963": "rachel ",
    "1964": "escap",
    "1965": "away the ",
    "1966": "cities of ",
    "1967": "wives ",
    "1968": "arose and ",
    "1969": "ness of ",
    "1970": "lah ",
    "1971": "s to ",
    "1972": "ged ",
    "1973": "what",
    "1974": "his servants ",
    "1975": "b and ",
    "1976": "ram ",
    "1977": "struck",
    "1978": "instrument",
    "1979": "desp",
    "1980": "portion ",
    "1981": "bena",
    "1982": "sent",
    "1983": "beth ",
    "1984": "with my ",
    "1985": "cep",
    "1986": "on the earth ",
    "1987": "when i ",
    "1988": "incre",
    "1989": "it to ",
    "1990": "ary ",
    "1991": "ste",
    "1992": "against me ",
    "1993": "rememb",
    "1994": "eat",
    "1995": "od",
    "1996": "all my ",
    "1997": "household",
    "1998": "reu",
    "1999": "ites and ",
    "2000": "mour",
    "2001": "on your ",
    "2002": "lives ",
    "2003": "divi",
    "2004": "when he began to reign ",
    "2005": "sun ",
    "2006": "of a ",
    "2007": "on them ",
    "2008": "quire ",
    "2009": "ceive ",
    "2010": "king and ",
    "2011": "rede",
    "2012": " thir",
    "2013": "from there ",
    "2014": "so that ",
    "2015": "for yahweh ",
    "2016": "which i have ",
    "2017": "served ",
    "2018": "mele",
    "2019": "don t be ",
    "2020": "continually ",
    "2021": "at jerusalem ",
    "2022": "go down ",
    "2023": "may be ",
    "2024": "kept ",
    "2025": "! \n",
    "2026": "you the ",
    "2027": "sheba ",
    "2028": "sister ",
    "2029": "give me ",
    "2030": "leave ",
    "2031": "angel ",
    "2032": "merc",
    "2033": "ys ",
    "2034": "pped ",
    "2035": "sting ",
    "2036": "ele",
    "2037": "guard ",
    "2038": "glad ",
    "2039": "rehoboam ",
    "2040": "chroni",
    "2041": "chronicl",
    "2042": "prophets ",
    "2043": "ssion ",
    "2044": "clothing ",
    "2045": "distre",
    "2046": "truth ",
    "2047": "years and ",
    "2048": "zeru",
    "2049": "howe",
    "2050": "came to the ",
    "2051": "er \n",
    "2052": "beer",
    "2053": "exalted ",
    "2054": "ima",
    "2055": "cheru",
    "2056": "honor ",
    "2057": "yahweh and ",
    "2058": "chariot ",
    "2059": "silver and ",
    "2060": "what is ",
    "2061": "servants and ",
    "2062": "his son reigned in his place ",
    "2063": "greatly ",
    "2064": "open ",
    "2065": "on him ",
    "2066": "us and ",
    "2067": "vel",
    "2068": "supp",
    "2069": "hide ",
    "2070": "from me ",
    "2071": "country ",
    "2072": "in you ",
    "2073": "tter",
    "2074": "dan ",
    "2075": "will",
    "2076": "rel",
    "2077": "living ",
    "2078": "animal",
    "2079": "statutes ",
    "2080": "perfe",
    "2081": "azar",
    "2082": "consid",
    "2083": "which the ",
    "2084": "tree ",
    "2085": "of the house ",
    "2086": "tribe ",
    "2087": "works ",
    "2088": "fathers household",
    "2089": "ason ",
    "2090": "which they ",
    "2091": "queen ",
    "2092": "gover",
    "2093": "god and ",
    "2094": "canaan ",
    "2095": "with its ",
    "2096": "upright ",
    "2097": "\njacob ",
    "2098": "fall",
    "2099": "ar and ",
    "2100": "behold the ",
    "2101": "jez",
    "2102": "\nnow therefore ",
    "2103": "down the ",
    "2104": "strike ",
    "2105": "a son ",
    "2106": "a house ",
    "2107": "since ",
    "2108": "all your ",
    "2109": "door ",
    "2110": "i would ",
    "2111": "sinned ",
    "2112": "handmaid ",
    "2113": "inheritance ",
    "2114": "pieces ",
    "2115": "held ",
    "2116": "ared ",
    "2117": "hanan",
    "2118": "\nas ",
    "2119": "eps ",
    "2120": "desire ",
    "2121": "rejoi",
    "2122": "slept with his ",
    "2123": "which you have ",
    "2124": "\nmy ",
    "2125": "full",
    "2126": "bethe",
    "2127": "written in the book of the chronicl",
    "2128": "brea",
    "2129": "mica",
    "2130": "zechari",
    "2131": "aar",
    "2132": "for his loving kindness endures ",
    "2133": "almighty ",
    "2134": "sarah ",
    "2135": "shield ",
    "2136": "hebron ",
    "2137": "dev",
    "2138": "mb ",
    "2139": "beth",
    "2140": "daughter ",
    "2141": "swor",
    "2142": "any",
    "2143": "until the ",
    "2144": "armies ",
    "2145": "tam",
    "2146": "cattle ",
    "2147": "to this day ",
    "2148": "id",
    "2149": " things ",
    "2150": "moab ",
    "2151": "alive ",
    "2152": "one thousand ",
    "2153": "ham",
    "2154": "of all the ",
    "2155": "scribe ",
    "2156": "bear",
    "2157": "against him ",
    "2158": "nex",
    "2159": "next ",
    "2160": "of this ",
    "2161": "six hundred ",
    "2162": "delight ",
    "2163": "ger",
    "2164": "dden ",
    "2165": "myself ",
    "2166": "all those who ",
    "2167": "adversaries ",
    "2168": "ordinances ",
    "2169": "statut",
    "2170": "h and ",
    "2171": "in the house of yahweh ",
    "2172": "ear ",
    "2173": "aren t they ",
    "2174": "shema",
    "2175": "asaph ",
    "2176": "sat",
    "2177": "teach ",
    "2178": "esther ",
    "2179": "said to the ",
    "2180": "ly and ",
    "2181": "servants of ",
    "2182": "gibe",
    "2183": "abner ",
    "2184": "pursu",
    "2185": "sixty ",
    "2186": "feast ",
    "2187": "\nwhen the ",
    "2188": "even the ",
    "2189": "wood ",
    "2190": "cy",
    "2191": "covered ",
    "2192": "sides ",
    "2193": "lie ",
    "2194": "exceed",
    "2195": "dic",
    "2196": "mini",
    "2197": "his servant ",
    "2198": "ray ",
    "2199": "au",
    "2200": "after him ",
    "2201": "now therefore ",
    "2202": "es of ",
    "2203": "favor ",
    "2204": "mis",
    "2205": "small ",
    "2206": "grain ",
    "2207": "numb",
    "2208": "surr",
    "2209": "shall",
    "2210": "tified ",
    "2211": "ther the ",
    "2212": "darkness ",
    "2213": "makes ",
    "2214": "lift ",
    "2215": "praises ",
    "2216": "bas",
    "2217": "in this ",
    "2218": "build",
    "2219": "th month ",
    "2220": "offering ",
    "2221": "after their ",
    "2222": "abomin",
    "2223": "\nnow the rest of the acts of ",
    "2224": "written in the book of the chronicles of the ",
    "2225": "written in the book of the chronicles of the kings of ",
    "2226": "am and ",
    "2227": "perish ",
    "2228": "mble ",
    "2229": "i was ",
    "2230": "brought them ",
    "2231": "sted ",
    "2232": " the children of ",
    "2233": "rain ",
    "2234": "jezre",
    "2235": "and brought ",
    "2236": "abis",
    "2237": "l and ",
    "2238": "one of the ",
    "2239": " that",
    "2240": "sought ",
    "2241": "my people ",
    "2242": "thite ",
    "2243": "king david ",
    "2244": "when he began to reign and he reigned ",
    "2245": "s sake ",
    "2246": "\nthese are the ",
    "2247": "came up ",
    "2248": "set the ",
    "2249": "thre",
    "2250": "rema",
    "2251": "ox",
    "2252": "ings and ",
    "2253": "cut off ",
    "2254": "a great ",
    "2255": "sleep ",
    "2256": "according to your ",
    "2257": "nation ",
    "2258": "comfor",
    "2259": "wait ",
    "2260": "saw that ",
    "2261": "precious ",
    "2262": "years in jerusalem ",
    "2263": "ses and ",
    "2264": "\nall the ",
    "2265": "toward the ",
    "2266": "to go ",
    "2267": "sheol ",
    "2268": "founda",
    "2269": "ze ",
    "2270": "slept with his fathers and ",
    "2271": "moth ",
    "2272": "priests and the ",
    "2273": "talent",
    "2274": "josi",
    "2275": "s of his ",
    "2276": "zab",
    "2277": "ishma",
    "2278": "gave them ",
    "2279": "\nif ",
    "2280": "dec",
    "2281": "decree ",
    "2282": "lame",
    "2283": "a psalm by david ",
    "2284": "wept ",
    "2285": "shall i ",
    "2286": "men and ",
    "2287": "\nbut the ",
    "2288": "as he ",
    "2289": "eb",
    "2290": "bed ",
    "2291": "trees ",
    "2292": "burnt offering ",
    "2293": "all this ",
    "2294": "according to all that ",
    "2295": "ada ",
    "2296": "sent to ",
    "2297": "of the city ",
    "2298": "lest ",
    "2299": "won t ",
    "2300": "tou",
    "2301": "that i may ",
    "2302": "judgment ",
    "2303": "read",
    "2304": "him the ",
    "2305": " those ",
    "2306": "dra",
    "2307": "consumed ",
    "2308": "ol",
    "2309": "als ",
    "2310": "perfect ",
    "2311": "on my ",
    "2312": "sh and ",
    "2313": "stra",
    "2314": "land of egypt ",
    "2315": "came",
    "2316": "boam the son of ",
    "2317": "ingly ",
    "2318": "captiv",
    "2319": "noah ",
    "2320": "s \nthey ",
    "2321": "power ",
    "2322": "lips ",
    "2323": "earth and ",
    "2324": "angu",
    "2325": "household ",
    "2326": "would not ",
    "2327": "adoni",
    "2328": "s wife ",
    "2329": "brothers and ",
    "2330": "fle",
    "2331": "sham",
    "2332": "because of the ",
    "2333": "vers ",
    "2334": "should be ",
    "2335": "to make ",
    "2336": "meas",
    "2337": "my lord the king ",
    "2338": "sear",
    "2339": "but",
    "2340": "destroy",
    "2341": "stay ",
    "2342": "flock ",
    "2343": "eyes and ",
    "2344": "me the ",
    "2345": "oured ",
    "2346": "room ",
    "2347": "no one ",
    "2348": "yahweh will ",
    "2349": "hidden ",
    "2350": "ram",
    "2351": "saying",
    "2352": "sons of the ",
    "2353": "out of his ",
    "2354": "heard the ",
    "2355": "forsake ",
    "2356": "\nwho ",
    "2357": "us \n",
    "2358": "did that which was evil in the sight of yahweh ",
    "2359": "hadad ",
    "2360": "provo",
    "2361": "sabba",
    "2362": "for their ",
    "2363": "amaziah ",
    "2364": "ship ",
    "2365": "melech ",
    "2366": "selves ",
    "2367": "heads of ",
    "2368": "dece",
    "2369": "\njoseph ",
    "2370": "ered the ",
    "2371": "en and ",
    "2372": "horse",
    "2373": "cir",
    "2374": "in the midst ",
    "2375": "aside ",
    "2376": "band ",
    "2377": "it be ",
    "2378": "his brother ",
    "2379": "david and ",
    "2380": "belong",
    "2381": "concern",
    "2382": "pal",
    "2383": "el the son of ",
    "2384": "in peace ",
    "2385": "ty",
    "2386": "whoever ",
    "2387": "israel",
    "2388": "than the ",
    "2389": " that i may ",
    "2390": "of him ",
    "2391": "in the field ",
    "2392": "\nit happened when ",
    "2393": "but he ",
    "2394": "said to her ",
    "2395": "spoke to ",
    "2396": "i will give ",
    "2397": "see the ",
    "2398": "cent ",
    "2399": "fruit",
    "2400": "lion ",
    "2401": "relati",
    "2402": "his hand ",
    "2403": "egypti",
    "2404": "to build ",
    "2405": "burnt offerings ",
    "2406": "\nsolomon ",
    "2407": "sanctu",
    "2408": "his people ",
    "2409": "anted ",
    "2410": "mountains ",
    "2411": "affliction ",
    "2412": "dit",
    "2413": "hil",
    "2414": "inhabitan",
    "2415": "multi",
    "2416": "subur",
    "2417": "suburb",
    "2418": "jeshu",
    "2419": "selah \n",
    "2420": "my life ",
    "2421": "um",
    "2422": "is it ",
    "2423": "maac",
    "2424": "and took ",
    "2425": "ed them ",
    "2426": "oth ",
    "2427": "up and ",
    "2428": "bl",
    "2429": "bim ",
    "2430": "string",
    "2431": "thus ",
    "2432": "\ni have ",
    "2433": " thing ",
    "2434": "twent",
    "2435": "dedic",
    "2436": "k and ",
    "2437": "for he ",
    "2438": "captain of the ",
    "2439": "kne",
    "2440": "poor ",
    "2441": "i said ",
    "2442": "not be ",
    "2443": "\nto ",
    "2444": "chan",
    "2445": "whatever ",
    "2446": "\ndon t ",
    "2447": "in the days of ",
    "2448": "viol",
    "2449": "appe",
    "2450": "everla",
    "2451": "everlasting ",
    "2452": "burned ",
    "2453": "offer ",
    "2454": "east ",
    "2455": "cubit",
    "2456": "which you ",
    "2457": "israel to ",
    "2458": "neb",
    "2459": "aren t they written in the book of the chronicles of the kings of ",
    "2460": "destru",
    "2461": "declare ",
    "2462": "in yahweh ",
    "2463": "kor",
    "2464": "oned ",
    "2465": "ahasu",
    "2466": "a song ",
    "2467": "rebek",
    "2468": "man who ",
    "2469": "beh",
    "2470": "behind ",
    "2471": "are you ",
    "2472": "follow",
    "2473": "arm",
    "2474": "body ",
    "2475": "hill ",
    "2476": "ah the daughter of ",
    "2477": "deliver me ",
    "2478": "went and ",
    "2479": "ste ",
    "2480": "as yahweh ",
    "2481": "tribes ",
    "2482": "sound ",
    "2483": "struck the ",
    "2484": "above the ",
    "2485": "stringed ",
    "2486": "of it ",
    "2487": "to meet ",
    "2488": "vessels of ",
    "2489": "jehoiada ",
    "2490": "put them ",
    "2491": "bey",
    "2492": "beyon",
    "2493": "beau",
    "2494": "king s house ",
    "2495": "run",
    "2496": "watch ",
    "2497": "finished ",
    "2498": "carry ",
    "2499": "ding ",
    "2500": "and behold ",
    "2501": "i the son of ",
    "2502": "tho",
    "2503": "shimei ",
    "2504": "jordan ",
    "2505": "sit",
    "2506": "so that they ",
    "2507": "afflicted ",
    "2508": "sing praises ",
    "2509": "full of ",
    "2510": "against them ",
    "2511": "sit ",
    "2512": "in the morning ",
    "2513": "ezra",
    "2514": "leban",
    "2515": "four hundred ",
    "2516": "of the house of yahweh ",
    "2517": "place and ",
    "2518": "heaven and ",
    "2519": "to give ",
    "2520": "s \n ",
    "2521": "mother s name was ",
    "2522": "sheche",
    "2523": "asher",
    "2524": "king of syria ",
    "2525": "in samaria ",
    "2526": "lls ",
    "2527": " than",
    "2528": "spring ",
    "2529": "teen",
    "2530": "shadow ",
    "2531": "deep ",
    "2532": "leah ",
    "2533": "your hand ",
    "2534": "slain ",
    "2535": "ve",
    "2536": "am the ",
    "2537": "boshe",
    "2538": "abisha",
    "2539": "foot ",
    "2540": "how long ",
    "2541": "amn",
    "2542": "fif",
    "2543": "hus",
    "2544": "with her ",
    "2545": "\nlet ",
    "2546": "years old when he began to reign and he reigned ",
    "2547": "dar ",
    "2548": "r and ",
    "2549": "cast",
    "2550": "in her ",
    "2551": "ins ",
    "2552": "besides ",
    "2553": "jor",
    "2554": "\nof ",
    "2555": "? he said ",
    "2556": "died and ",
    "2557": "out and ",
    "2558": "drew ",
    "2559": "haven ",
    "2560": "ying ",
    "2561": "your servants ",
    "2562": "whe",
    "2563": "loved ",
    "2564": "with us ",
    "2565": "she said ",
    "2566": "have i ",
    "2567": "bread and ",
    "2568": "ldn t ",
    "2569": "isn t ",
    "2570": "was the ",
    "2571": "certain ",
    "2572": "ter ",
    "2573": "his face ",
    "2574": "wall",
    "2575": "sack",
    "2576": "ounded ",
    "2577": "scatt",
    "2578": "steps ",
    "2579": "gives ",
    "2580": "disa",
    "2581": "in abundance ",
    "2582": "testimon",
    "2583": "t their ",
    "2584": "ken",
    "2585": "altar",
    "2586": "sacrifice ",
    "2587": "a little ",
    "2588": "in the house ",
    "2589": "s \nand ",
    "2590": "which i ",
    "2591": "\nfor he ",
    "2592": "tribe of ",
    "2593": "inquire ",
    "2594": "baa",
    "2595": "badi",
    "2596": " they are ",
    "2597": "ahaziah ",
    "2598": "kind ",
    "2599": "tresp",
    "2600": "trespas",
    "2601": "joash ",
    "2602": "men of val",
    "2603": "\nabraham ",
    "2604": "aaron ",
    "2605": "praise yahweh ",
    "2606": "need",
    "2607": "your face ",
    "2608": "jonathan ",
    "2609": "mount ",
    "2610": "beside ",
    "2611": "who were with him ",
    "2612": "evening ",
    "2613": "ssed ",
    "2614": "down and ",
    "2615": "and will ",
    "2616": "if i ",
    "2617": " the king ",
    "2618": "ners ",
    "2619": "never",
    "2620": "neverthe",
    "2621": "nevertheless ",
    "2622": "valley of ",
    "2623": "into your ",
    "2624": "ber",
    "2625": "to come ",
    "2626": "gods ",
    "2627": "bri",
    "2628": "to death ",
    "2629": "of the house of ",
    "2630": "ds and ",
    "2631": "beyond the ",
    "2632": "help",
    "2633": "to her ",
    "2634": "conceived ",
    "2635": "also and ",
    "2636": "fight ",
    "2637": "preva",
    "2638": "to us ",
    "2639": "even to the ",
    "2640": "had done ",
    "2641": "weight ",
    "2642": "in it ",
    "2643": "surface ",
    "2644": "of the earth ",
    "2645": "because the ",
    "2646": "ask ",
    "2647": "who came ",
    "2648": "counsel",
    "2649": "in the wilder",
    "2650": "men",
    "2651": "man and ",
    "2652": "griev",
    "2653": "for i ",
    "2654": "present ",
    "2655": "sn",
    "2656": "most high ",
    "2657": "breath ",
    "2658": "pure ",
    "2659": "blessed be ",
    "2660": "nine ",
    "2661": "of you ",
    "2662": "jah the ",
    "2663": "cted ",
    "2664": "all the days of ",
    "2665": "outside ",
    "2666": "to you and ",
    "2667": "captive ",
    "2668": "to this ",
    "2669": "jeroboam the son of ",
    "2670": "forsa",
    "2671": "listened ",
    "2672": "josiah ",
    "2673": "treasure",
    "2674": "viney",
    "2675": "prou",
    "2676": "seventy ",
    "2677": "neck ",
    "2678": "lift up ",
    "2679": "inno",
    "2680": "captivity ",
    "2681": "bil",
    "2682": "to god ",
    "2683": "s are ",
    "2684": "his sons and ",
    "2685": "y of the ",
    "2686": "head and ",
    "2687": "offerings ",
    "2688": "s of gold ",
    "2689": "messengers ",
    "2690": "kindness ",
    "2691": "buried him ",
    "2692": "young men ",
    "2693": "going ",
    "2694": "however ",
    "2695": "top ",
    "2696": "teen ",
    "2697": "\nand the ",
    "2698": "so that he ",
    "2699": "of the king ",
    "2700": "in israel ",
    "2701": "name of the ",
    "2702": "anah ",
    "2703": "ites the ",
    "2704": "army of the ",
    "2705": "cherubim ",
    "2706": "kindled ",
    "2707": "in the city of david ",
    "2708": "\nit was ",
    "2709": "in the eyes ",
    "2710": "for i have ",
    "2711": "acle ",
    "2712": "from him ",
    "2713": "zer",
    "2714": "dama",
    "2715": "shapha",
    "2716": "priests and ",
    "2717": "ites and the ",
    "2718": "table ",
    "2719": "ddle ",
    "2720": "entr",
    "2721": "entrance ",
    "2722": "hitt",
    "2723": "sig",
    "2724": "iled ",
    "2725": "secre",
    "2726": "through the ",
    "2727": "haz",
    "2728": "vy ",
    "2729": "onite ",
    "2730": "\na ",
    "2731": "ready ",
    "2732": "keep the ",
    "2733": "az ",
    "2734": "ds of the ",
    "2735": "mer ",
    "2736": "fruit ",
    "2737": "fre",
    "2738": "\nmoreover ",
    "2739": "female ",
    "2740": "court ",
    "2741": "deal",
    "2742": "rise up ",
    "2743": "\nhe has ",
    "2744": "mountain ",
    "2745": "into his ",
    "2746": "in the day ",
    "2747": "\nyou have ",
    "2748": "good",
    "2749": "days \n",
    "2750": "stret",
    "2751": "saw the ",
    "2752": "behold they are ",
    "2753": "wickedness ",
    "2754": "ron ",
    "2755": "alo",
    "2756": "of all ",
    "2757": "pan",
    "2758": "our fathers ",
    "2759": "supplic",
    "2760": "dwelling ",
    "2761": "fur",
    "2762": "ri ",
    "2763": "opened ",
    "2764": "hun",
    "2765": "zabad ",
    "2766": "meshu",
    "2767": "mighty men of val",
    "2768": "god is ",
    "2769": "destruction ",
    "2770": "eye ",
    "2771": "made repair",
    "2772": "contem",
    "2773": "forget ",
    "2774": "abimelech ",
    "2775": "praise yah ",
    "2776": "years and became the father of ",
    "2777": "could not ",
    "2778": "tore ",
    "2779": "were not ",
    "2780": "also the ",
    "2781": "made him ",
    "2782": "s son ",
    "2783": "month",
    "2784": "have not ",
    "2785": "because he ",
    "2786": "spoil ",
    "2787": "on a ",
    "2788": "swore ",
    "2789": "cedar ",
    "2790": "yahweh had ",
    "2791": "before me ",
    "2792": "obed ",
    "2793": "pit",
    "2794": "servant",
    "2795": "cord",
    "2796": "array ",
    "2797": "haven t ",
    "2798": "encam",
    "2799": "\nso the ",
    "2800": "city and ",
    "2801": "home ",
    "2802": "and i ",
    "2803": "against you ",
    "2804": "went in ",
    "2805": "named him ",
    "2806": "ones and ",
    "2807": "with which he ",
    "2808": "that was ",
    "2809": "we may ",
    "2810": "yahweh your god ",
    "2811": "before the king ",
    "2812": "oh",
    "2813": "why do you ",
    "2814": "brook ",
    "2815": "your son ",
    "2816": "phel ",
    "2817": "husha",
    "2818": "they have ",
    "2819": "bear ",
    "2820": "them",
    "2821": "captains ",
    "2822": "receive ",
    "2823": "dealt ",
    "2824": "long",
    "2825": "\nwhen he ",
    "2826": "take refuge ",
    "2827": "arrow",
    "2828": "world ",
    "2829": "merci",
    "2830": "forever",
    "2831": " these are the ",
    "2832": "captains of the ",
    "2833": "and to the ",
    "2834": "let them be ",
    "2835": "sanctuary ",
    "2836": "supplication ",
    "2837": "away from ",
    "2838": "es the ",
    "2839": "jeroboam the son of neb",
    "2840": "and his mother s name was ",
    "2841": "garden ",
    "2842": "ble ",
    "2843": "clean ",
    "2844": "in them ",
    "2845": "biah ",
    "2846": "king of babylon ",
    "2847": "meshull",
    "2848": "jere",
    "2849": "d and ",
    "2850": "chief",
    "2851": "with its suburb",
    "2852": "glad",
    "2853": "faithful",
    "2854": "reproach ",
    "2855": "womb ",
    "2856": "terr",
    "2857": "precep",
    "2858": "praise him ",
    "2859": "teach",
    "2860": "on you ",
    "2861": "they were ",
    "2862": "er than ",
    "2863": "even to ",
    "2864": "th the son of ",
    "2865": "mah",
    "2866": "wild ",
    "2867": "your brother ",
    "2868": " through ",
    "2869": "coming ",
    "2870": "goes ",
    "2871": "prince ",
    "2872": "too ",
    "2873": " the sons of ",
    "2874": "flee ",
    "2875": "you who ",
    "2876": "you shall be ",
    "2877": "and he said ",
    "2878": "called the ",
    "2879": "ark of god ",
    "2880": "sed the ",
    "2881": "and she ",
    "2882": "tab",
    "2883": "horses ",
    "2884": "and the king ",
    "2885": "sent and ",
    "2886": "ters ",
    "2887": "jeri",
    "2888": "mighty men ",
    "2889": "neigh",
    "2890": "deed ",
    "2891": "iron ",
    "2892": "poured ",
    "2893": "room",
    "2894": "he took ",
    "2895": "sol",
    "2896": "soon ",
    "2897": "requ",
    "2898": "came near ",
    "2899": "int ",
    "2900": "pillar ",
    "2901": "just ",
    "2902": "cla",
    "2903": "len",
    "2904": "lar",
    "2905": "merciful ",
    "2906": "ing them ",
    "2907": " the priest ",
    "2908": "zo",
    "2909": "bury ",
    "2910": "of jerusalem ",
    "2911": "dream ",
    "2912": "shall not be ",
    "2913": "dream",
    "2914": "offic",
    "2915": "chariots and ",
    "2916": "children of the ",
    "2917": "gs ",
    "2918": "built the ",
    "2919": "priests and the levites ",
    "2920": "pray ",
    "2921": "from their ",
    "2922": " them the ",
    "2923": "pleasure ",
    "2924": "fully ",
    "2925": "all that he did ",
    "2926": "shechem ",
    "2927": "levi ",
    "2928": "\nalso ",
    "2929": "baasha ",
    "2930": "yahweh is ",
    "2931": "dri",
    "2932": "fine ",
    "2933": "to those who ",
    "2934": "aki",
    "2935": "langu",
    "2936": "lands ",
    "2937": "earth \n",
    "2938": "passo",
    "2939": "mighty men of valor ",
    "2940": "path",
    "2941": "dish",
    "2942": "fathers houses ",
    "2943": "daughters \n",
    "2944": "sty ",
    "2945": "for his loving kindness endures forever \n",
    "2946": "let s ",
    "2947": "\nyes ",
    "2948": "preserve ",
    "2949": "needy ",
    "2950": "blame",
    "2951": "? he ",
    "2952": "fallen ",
    "2953": "how",
    "2954": "emp",
    "2955": "clothed ",
    "2956": "saying the ",
    "2957": "zeruiah ",
    "2958": "day and ",
    "2959": "amnon ",
    "2960": "enemi",
    "2961": "guil",
    "2962": "to eat ",
    "2963": "tribes of israel ",
    "2964": "years \n",
    "2965": "hated ",
    "2966": "stringed instrument",
    "2967": "shing ",
    "2968": "in its ",
    "2969": "end of ",
    "2970": "nathan ",
    "2971": "go and ",
    "2972": "worked ",
    "2973": "tribu",
    "2974": "fought ",
    "2975": "abiath",
    "2976": "don t be afraid ",
    "2977": "un ",
    "2978": "ors ",
    "2979": "and didn t ",
    "2980": "which he had ",
    "2981": "never ",
    "2982": "tly ",
    "2983": "ering ",
    "2984": "roy",
    "2985": "tamar ",
    "2986": "garment ",
    "2987": "ited ",
    "2988": "den",
    "2989": "\nyour ",
    "2990": "made me ",
    "2991": " there is no ",
    "2992": "pay ",
    "2993": "that is ",
    "2994": "was buried ",
    "2995": "sa ",
    "2996": "lla",
    "2997": "shamed ",
    "2998": "last ",
    "2999": "bow",
    "3000": "perver",
    "3001": "roo",
    "3002": "brothers the ",
    "3003": "days and ",
    "3004": "bord",
    "3005": "brass ",
    "3006": "in him ",
    "3007": "\nbut he ",
    "3008": "consider ",
    "3009": "sevent",
    "3010": "pillar",
    "3011": "two",
    "3012": "vessels ",
    "3013": "cloud ",
    "3014": "for all the ",
    "3015": "\ntheir ",
    "3016": "by their ",
    "3017": "\nof the ",
    "3018": "jeroboam the son of nebat ",
    "3019": "th day of the ",
    "3020": "burn ",
    "3021": "israel to sin ",
    "3022": "consp",
    "3023": "conspir",
    "3024": "jeze",
    "3025": "provinces ",
    "3026": "goat",
    "3027": "nabo",
    "3028": "governor ",
    "3029": "more than ",
    "3030": "ears ",
    "3031": "inhabitants of ",
    "3032": "passover ",
    "3033": "uz",
    "3034": "judah and jerusalem ",
    "3035": "\nof the sons of ",
    "3036": "maje",
    "3037": "his sons and his brothers ",
    "3038": "his sons and his brothers twelve ",
    "3039": "increase ",
    "3040": "mercy ",
    "3041": "persi",
    "3042": "anima",
    "3043": "rebekah ",
    "3044": "stayed ",
    "3045": "respe",
    "3046": "followed ",
    "3047": "strong",
    "3048": "ons \n",
    "3049": "after this ",
    "3050": "because you have ",
    "3051": "vali",
    "3052": "why should ",
    "3053": "to the ground ",
    "3054": "grew ",
    "3055": "ak",
    "3056": "hag",
    "3057": "concub",
    "3058": "father s ",
    "3059": "today ",
    "3060": "to bring ",
    "3061": "whom i ",
    "3062": "husband ",
    "3063": "fail ",
    "3064": "hang",
    "3065": "\nin ",
    "3066": " that day ",
    "3067": "yahweh the god of ",
    "3068": "zer ",
    "3069": "stu",
    "3070": "said to the king ",
    "3071": "establish ",
    "3072": "sh the ",
    "3073": "blessing ",
    "3074": "seven hundred ",
    "3075": "eighte",
    "3076": "exe",
    "3077": "execu",
    "3078": "jehoshapha",
    "3079": "benaiah the son of ",
    "3080": "always ",
    "3081": "as you ",
    "3082": "do this ",
    "3083": "royal ",
    "3084": "of the covenant ",
    "3085": "cursed ",
    "3086": "site ",
    "3087": "draw ",
    "3088": "ousand",
    "3089": "fal",
    "3090": "there is no ",
    "3091": "princes and ",
    "3092": "spee",
    "3093": "fortified ",
    "3094": "over all the ",
    "3095": "clou",
    "3096": "rebu",
    "3097": "and said to him ",
    "3098": "yo",
    "3099": "down to ",
    "3100": "shall come ",
    "3101": "my eyes ",
    "3102": "ion ",
    "3103": "righteou",
    "3104": "his god ",
    "3105": "by re",
    "3106": "if they ",
    "3107": "at that ",
    "3108": "out of my ",
    "3109": "prosper",
    "3110": "me to ",
    "3111": " thus says yahweh ",
    "3112": "cra",
    "3113": "\nhe will ",
    "3114": "right in the eyes ",
    "3115": "jezebel ",
    "3116": "great and ",
    "3117": "haza",
    "3118": "sold ",
    "3119": "jehor",
    "3120": "stance ",
    "3121": "of the field ",
    "3122": "azariah ",
    "3123": "weal",
    "3124": "carried away ",
    "3125": "yourselves ",
    "3126": "language ",
    "3127": "aniah ",
    "3128": "were the sons of ",
    "3129": "gene",
    "3130": "according to their ",
    "3131": "sain",
    "3132": "ahasuer",
    "3133": "ahasuerus ",
    "3134": "me your ",
    "3135": "disapp",
    "3136": "disappointed ",
    "3137": "sodom ",
    "3138": "camp ",
    "3139": "field",
    "3140": "fat ",
    "3141": "my brother ",
    "3142": "quired ",
    "3143": "ss and ",
    "3144": "joab",
    "3145": "men of israel ",
    "3146": "by the way ",
    "3147": "would have ",
    "3148": "any more ",
    "3149": " through the ",
    "3150": " three hundred ",
    "3151": "fourth ",
    "3152": "i will make ",
    "3153": "come to ",
    "3154": "gather ",
    "3155": "thin",
    "3156": "pher",
    "3157": "there were ",
    "3158": "of that ",
    "3159": "dro",
    "3160": "kinds of ",
    "3161": "and with ",
    "3162": "floor ",
    "3163": "out of egypt ",
    "3164": "in the earth ",
    "3165": "out of your ",
    "3166": "and you ",
    "3167": "tribute ",
    "3168": "hadade",
    "3169": "inion ",
    "3170": "joram ",
    "3171": " throughout ",
    "3172": "restore ",
    "3173": "ing that ",
    "3174": "? why ",
    "3175": "ron",
    "3176": " this is ",
    "3177": "and of ",
    "3178": "fast",
    "3179": "my name ",
    "3180": "don t let ",
    "3181": "kis",
    "3182": "run ",
    "3183": "ahitho",
    "3184": "ased ",
    "3185": "such as ",
    "3186": "fier",
    "3187": "beersheba ",
    "3188": "to them",
    "3189": " thousand",
    "3190": "hundre",
    "3191": "to help ",
    "3192": "sky and ",
    "3193": "in our ",
    "3194": "ran ",
    "3195": "sitting ",
    "3196": "watch",
    "3197": "a the ",
    "3198": "me with ",
    "3199": "shut ",
    "3200": "mn",
    "3201": "on every ",
    "3202": "distress ",
    "3203": "tion",
    "3204": "utt",
    "3205": "on high ",
    "3206": "cru",
    "3207": "road ",
    "3208": "b the ",
    "3209": "tend",
    "3210": "jehoiada",
    "3211": "back and ",
    "3212": "know the ",
    "3213": "gad ",
    "3214": "on the throne ",
    "3215": "shown ",
    "3216": "commandments ",
    "3217": "king of egypt ",
    "3218": "in the night ",
    "3219": "labor ",
    "3220": "naph",
    "3221": "lebanon ",
    "3222": "which were ",
    "3223": "bread",
    "3224": "two thousand ",
    "3225": "\nthus ",
    "3226": "separ",
    "3227": "who lived ",
    "3228": "forsaken ",
    "3229": "yoke ",
    "3230": "on us ",
    "3231": "according to the word of yahweh ",
    "3232": "bethel ",
    "3233": "disobe",
    "3234": "enter ",
    "3235": "made israel to sin ",
    "3236": "treasures of the ",
    "3237": "to all ",
    "3238": "did the ",
    "3239": "me yahweh ",
    "3240": "on their ",
    "3241": "lack ",
    "3242": "wives and ",
    "3243": "lig",
    "3244": "letters ",
    "3245": "company ",
    "3246": "ela",
    "3247": "can you ",
    "3248": "lip",
    "3249": "back",
    "3250": "tax",
    "3251": "nebu",
    "3252": "\nthe son of ",
    "3253": "his son \n",
    "3254": "genealo",
    "3255": "generations ",
    "3256": "he became the father of ",
    "3257": "shout ",
    "3258": "god will ",
    "3259": "god s ",
    "3260": "satis",
    "3261": "animal ",
    "3262": "all day ",
    "3263": "tell me ",
    "3264": "told him ",
    "3265": "his son and ",
    "3266": "circu",
    "3267": "was not ",
    "3268": "wife of ",
    "3269": "may yahweh ",
    "3270": "bosheth ",
    "3271": "\nthen they ",
    "3272": "fell",
    "3273": "had not ",
    "3274": "nine",
    "3275": "whose name was ",
    "3276": "char",
    "3277": "feared ",
    "3278": "bound ",
    "3279": "anything ",
    "3280": "troubled ",
    "3281": "reck",
    "3282": "jezreel ",
    "3283": "gave him ",
    "3284": "own house ",
    "3285": "made a covenant ",
    "3286": "my enemies ",
    "3287": "that",
    "3288": "mbled ",
    "3289": "wind",
    "3290": "vain ",
    "3291": "your seed ",
    "3292": " throne ",
    "3293": "dedicated ",
    "3294": "beyond the river ",
    "3295": "beauti",
    "3296": "bath",
    "3297": "wro",
    "3298": "wrote ",
    "3299": "concerning the ",
    "3300": "to him and ",
    "3301": "chang",
    "3302": "worshiped ",
    "3303": "knows ",
    "3304": "his name ",
    "3305": "bring the ",
    "3306": "kept the ",
    "3307": "perfor",
    "3308": "with the king ",
    "3309": "fooli",
    "3310": "is not ",
    "3311": "very great ",
    "3312": "gates ",
    "3313": "brings ",
    "3314": "men who ",
    "3315": "but i ",
    "3316": "saved ",
    "3317": "for you have ",
    "3318": "you are my ",
    "3319": "eighty ",
    "3320": "ies and ",
    "3321": "allow ",
    "3322": "sackclo",
    "3323": "large ",
    "3324": "abroad ",
    "3325": "canaan",
    "3326": "in that ",
    "3327": "\nthat ",
    "3328": "statutes and ",
    "3329": "leng",
    "3330": "itu",
    "3331": "ramoth ",
    "3332": "ramoth gilead ",
    "3333": "s and his ",
    "3334": "foundation ",
    "3335": "for it ",
    "3336": "was twenty ",
    "3337": "overlaid ",
    "3338": "engra",
    "3339": "mil",
    "3340": "meal ",
    "3341": "\nthis is the ",
    "3342": "after them ",
    "3343": "camels ",
    "3344": "singers ",
    "3345": "tar",
    "3346": "for i am ",
    "3347": "sins of ",
    "3348": "years in jerusalem and his mother s name was ",
    "3349": "right in the eyes of yahweh ",
    "3350": "relatives ",
    "3351": "van",
    "3352": "revi",
    "3353": "at his ",
    "3354": "in pieces ",
    "3355": "hazael ",
    "3356": "dilig",
    "3357": "fy ",
    "3358": "possession ",
    "3359": "ena",
    "3360": "open",
    "3361": "silent ",
    "3362": "ers of the ",
    "3363": "and in the ",
    "3364": "reje",
    "3365": "neither shall ",
    "3366": "fruitful ",
    "3367": "kiah the ",
    "3368": "innocent ",
    "3369": "dne",
    "3370": "nah",
    "3371": "malchi",
    "3372": "multipl",
    "3373": "four thousand ",
    "3374": "heads of fathers household",
    "3375": "dience ",
    "3376": "maa",
    "3377": "majesty ",
    "3378": "\nlet the ",
    "3379": "strength",
    "3380": "who can ",
    "3381": "faithfulness ",
    "3382": "your law ",
    "3383": "remembered ",
    "3384": "secu",
    "3385": "my mouth ",
    "3386": "medit",
    "3387": "to destroy ",
    "3388": "gath ",
    "3389": "ner",
    "3390": "spear ",
    "3391": "came out ",
    "3392": "and all the people ",
    "3393": "night",
    "3394": "bethle",
    "3395": "bethlehe",
    "3396": "had a ",
    "3397": "my hand ",
    "3398": "for yahweh has ",
    "3399": "make a ",
    "3400": "and he was ",
    "3401": "you know ",
    "3402": "brought him ",
    "3403": "et",
    "3404": "head of ",
    "3405": "jebu",
    "3406": "come in ",
    "3407": "stron",
    "3408": "strongh",
    "3409": "that he had ",
    "3410": "gathered together ",
    "3411": "of armies ",
    "3412": "aces ",
    "3413": "see now ",
    "3414": "my servant ",
    "3415": "me a ",
    "3416": "awe",
    "3417": "whom you ",
    "3418": "god of israel ",
    "3419": "to your servant ",
    "3420": "reco",
    "3421": "twenty thousand ",
    "3422": "shield",
    "3423": "syria and ",
    "3424": "david s ",
    "3425": "minist",
    "3426": "has",
    "3427": "garment",
    "3428": "s in the ",
    "3429": "middle ",
    "3430": "children of ammon ",
    "3431": " the daughter of ",
    "3432": "hittite ",
    "3433": " there were ",
    "3434": "rich ",
    "3435": "with the sword ",
    "3436": "take the ",
    "3437": "friend ",
    "3438": "wr",
    "3439": "\nthen the king ",
    "3440": "lifted up his ",
    "3441": "and don t ",
    "3442": "in your sight ",
    "3443": "indeed ",
    "3444": "escape ",
    "3445": "quick",
    "3446": "zadok ",
    "3447": "ahithophel ",
    "3448": "donkeys ",
    "3449": "into a ",
    "3450": " them and ",
    "3451": " they have ",
    "3452": "lead",
    "3453": "ently ",
    "3454": "don t know ",
    "3455": "evil",
    "3456": "hurried ",
    "3457": "at your ",
    "3458": "years of ",
    "3459": "words of the ",
    "3460": "begin",
    "3461": "beginning ",
    "3462": "where the ",
    "3463": "ls of ",
    "3464": "armed ",
    "3465": "led the ",
    "3466": "smo",
    "3467": "scattered ",
    "3468": "delight",
    "3469": "defi",
    "3470": "cave ",
    "3471": "buy ",
    "3472": "petit",
    "3473": " thus says ",
    "3474": "building ",
    "3475": "as it is ",
    "3476": "able to ",
    "3477": "naphtal",
    "3478": "kingdom",
    "3479": "giving ",
    "3480": "eigh",
    "3481": "he made ",
    "3482": "ing of the ",
    "3483": "sts ",
    "3484": "cup ",
    "3485": "peoples of the ",
    "3486": "on the altar ",
    "3487": "horse ",
    "3488": "foreign ",
    "3489": "into egypt ",
    "3490": "his son reigned in his place \n",
    "3491": "ido",
    "3492": "taken away ",
    "3493": "depart from ",
    "3494": "obadi",
    "3495": "takes ",
    "3496": "them \n",
    "3497": "dry ",
    "3498": "gro",
    "3499": "of every ",
    "3500": " and ",
    "3501": "generation ",
    "3502": "oppre",
    "3503": "oppres",
    "3504": "uzziah ",
    "3505": " the scribe ",
    "3506": "wand",
    "3507": "miah ",
    "3508": "mah ",
    "3509": "nebucha",
    "3510": "nebuchadne",
    "3511": "nebuchadnezz",
    "3512": "ged",
    "3513": "sime",
    "3514": "families ",
    "3515": "sorrow ",
    "3516": "uzzi",
    "3517": "oned by ",
    "3518": "hasha",
    "3519": "through ",
    "3520": "sons and daughters \n",
    "3521": "maase",
    "3522": "marvel",
    "3523": "be glad ",
    "3524": "ger ",
    "3525": "harp ",
    "3526": "cyru",
    "3527": "pr",
    "3528": "prof",
    "3529": "surface of the ",
    "3530": "hear my ",
    "3531": "asc",
    "3532": "praise you ",
    "3533": "day that ",
    "3534": "hard ",
    "3535": "said to me ",
    "3536": "circum",
    "3537": "circumc",
    "3538": "show",
    "3539": "for this ",
    "3540": "valiant ",
    "3541": "gibeon ",
    "3542": "shall the ",
    "3543": "between the ",
    "3544": "in the house of ",
    "3545": "to the house of ",
    "3546": "this day ",
    "3547": "lt ",
    "3548": "unless ",
    "3549": "micha",
    "3550": "philistines and ",
    "3551": "rah ",
    "3552": "to me and ",
    "3553": "hiram ",
    "3554": "to seek ",
    "3555": "hear the ",
    "3556": "with all ",
    "3557": "when",
    "3558": "and set ",
    "3559": "to his house ",
    "3560": "oint ",
    "3561": "that you have ",
    "3562": "awesome ",
    "3563": "forever and ",
    "3564": "gni",
    "3565": "prom",
    "3566": "dominion ",
    "3567": "ung ",
    "3568": "hama",
    "3569": "of the children of ammon ",
    "3570": "salt ",
    "3571": "\nthere was ",
    "3572": "come and ",
    "3573": "coura",
    "3574": "people and ",
    "3575": "came to jerusalem ",
    "3576": "with him and ",
    "3577": "rab",
    "3578": "bah ",
    "3579": "beautiful ",
    "3580": "clean",
    "3581": "encamped ",
    "3582": "jerusalem",
    "3583": "commanded the ",
    "3584": "for her ",
    "3585": "mourning ",
    "3586": "sion ",
    "3587": "sick ",
    "3588": "spoke to him ",
    "3589": "whether ",
    "3590": "prep",
    "3591": "prepare ",
    "3592": "on her ",
    "3593": "aloud ",
    "3594": "go in ",
    "3595": "can t be ",
    "3596": "young man ",
    "3597": "heavy ",
    "3598": "ts of the ",
    "3599": "loud ",
    "3600": "ark of the covenant ",
    "3601": "seer ",
    "3602": "as they ",
    "3603": "turn",
    "3604": "curse ",
    "3605": "shall we ",
    "3606": "follow ",
    "3607": "to battle ",
    "3608": "ough",
    "3609": "youth ",
    "3610": "came down ",
    "3611": "behold i have ",
    "3612": "abel ",
    "3613": "now the ",
    "3614": "birds of the ",
    "3615": "by night ",
    "3616": "shan ",
    "3617": "three hundred ",
    "3618": "save me ",
    "3619": "your eyes ",
    "3620": "his way ",
    "3621": "the son of ",
    "3622": "his word ",
    "3623": "earth",
    "3624": "def",
    "3625": "ended ",
    "3626": "eds ",
    "3627": "m \n",
    "3628": "z the ",
    "3629": "ammon",
    "3630": "sheb",
    "3631": "angel of yahweh ",
    "3632": "plagu",
    "3633": "adonijah ",
    "3634": "who shall ",
    "3635": "jah and ",
    "3636": "instruction ",
    "3637": "testimonies ",
    "3638": "keep my ",
    "3639": "height ",
    "3640": "naphtali ",
    "3641": "for an ",
    "3642": "pillars ",
    "3643": "listen to the ",
    "3644": "conde",
    "3645": "that they may ",
    "3646": "tran",
    "3647": "trans",
    "3648": "transgre",
    "3649": "ssions ",
    "3650": " that he may ",
    "3651": "yahweh our god ",
    "3652": "land and ",
    "3653": "lie",
    "3654": "talents of ",
    "3655": "at that time ",
    "3656": "rebelled ",
    "3657": "in judah ",
    "3658": "between me and ",
    "3659": "zim",
    "3660": "iz",
    "3661": "goats ",
    "3662": "into the hand of the ",
    "3663": "zede",
    "3664": "all you ",
    "3665": "zebu",
    "3666": "sees ",
    "3667": "take a ",
    "3668": "famili",
    "3669": "on the sabba",
    "3670": "stood up ",
    "3671": "altars ",
    "3672": "understand ",
    "3673": "dug ",
    "3674": "ishmael ",
    "3675": "korah ",
    "3676": "abijah ",
    "3677": "multiply ",
    "3678": "genealog",
    "3679": "koha",
    "3680": "merar",
    "3681": "merari ",
    "3682": "and his sons ",
    "3683": "hari",
    "3684": "priests the ",
    "3685": "jehi",
    "3686": "give thanks to yahweh ",
    "3687": "orn",
    "3688": "antly ",
    "3689": "division ",
    "3690": "substance ",
    "3691": "dari",
    "3692": "histor",
    "3693": "?\n ",
    "3694": "arm ",
    "3695": "humble ",
    "3696": "by his ",
    "3697": "province ",
    "3698": "iniquit",
    "3699": "esther the ",
    "3700": "ends ",
    "3701": "answered \n ",
    "3702": "inter",
    "3703": "\n a song ",
    "3704": "cain ",
    "3705": "after he became the father of ",
    "3706": "sarai ",
    "3707": "ale",
    "3708": "david had ",
    "3709": "showed ",
    "3710": "come from ",
    "3711": "as i ",
    "3712": "\nthen david ",
    "3713": "circumcised ",
    "3714": "trium",
    "3715": "triumph ",
    "3716": "pleasant ",
    "3717": "high plac",
    "3718": "wonder",
    "3719": "sent messengers ",
    "3720": "this thing ",
    "3721": "king over ",
    "3722": "ephraim and ",
    "3723": "benjamin and ",
    "3724": "joab and ",
    "3725": "following ",
    "3726": "struck him ",
    "3727": "gathered themselves ",
    "3728": "trumpet ",
    "3729": "elders of ",
    "3730": "do it ",
    "3731": "pleased ",
    "3732": "until",
    "3733": "emed ",
    "3734": "grave ",
    "3735": "shepher",
    "3736": "city of david ",
    "3737": "tyre ",
    "3738": "certain",
    "3739": "images ",
    "3740": "took",
    "3741": "s and with ",
    "3742": "cymb",
    "3743": "threshing ",
    "3744": "obed edom ",
    "3745": "and all his ",
    "3746": "despised ",
    "3747": "gave to ",
    "3748": "chose ",
    "3749": "base ",
    "3750": "nathan the ",
    "3751": "nathan the prophet ",
    "3752": "children of men ",
    "3753": "is there ",
    "3754": "aled ",
    "3755": "edom",
    "3756": "was over the ",
    "3757": "t the son of ",
    "3758": "at my ",
    "3759": "servants \n",
    "3760": "comfort ",
    "3761": "off the ",
    "3762": "put the ",
    "3763": "in array ",
    "3764": "saw that the ",
    "3765": "itted ",
    "3766": "and the people ",
    "3767": "y then ",
    "3768": "puri",
    "3769": "uriah ",
    "3770": "wash ",
    "3771": "letter ",
    "3772": "to the place ",
    "3773": "ar the ",
    "3774": "will he ",
    "3775": "into the house of yahweh ",
    "3776": "she bore ",
    "3777": "crown ",
    "3778": "stones and ",
    "3779": "to all the ",
    "3780": "\nthen he ",
    "3781": "and killed ",
    "3782": "request ",
    "3783": "discer",
    "3784": "good and ",
    "3785": "matter ",
    "3786": "i have done ",
    "3787": "bowed himself ",
    "3788": "so he ",
    "3789": "sacrifices ",
    "3790": "i will be ",
    "3791": "it shall be ",
    "3792": "oracle ",
    "3793": "inds ",
    "3794": "pit ",
    "3795": "his life ",
    "3796": "swear ",
    "3797": "provi",
    "3798": "of judah ",
    "3799": "joined ",
    "3800": "and went ",
    "3801": "remn",
    "3802": "delivered them ",
    "3803": "nor the ",
    "3804": "lions ",
    "3805": "hands \n",
    "3806": "darkness \n",
    "3807": "for god ",
    "3808": "my feet ",
    "3809": "i didn t ",
    "3810": "ings of ",
    "3811": "obey ",
    "3812": "me up ",
    "3813": "forevermore ",
    "3814": "though ",
    "3815": "eight hundred ",
    "3816": "killed the ",
    "3817": "plu",
    "3818": "bai ",
    "3819": "caused ",
    "3820": "rejoiced ",
    "3821": "as wife ",
    "3822": "oath ",
    "3823": "your heart ",
    "3824": "righteousness and ",
    "3825": "prost",
    "3826": "prostitu",
    "3827": "azari",
    "3828": "for all ",
    "3829": "measure ",
    "3830": "capit",
    "3831": "ons and ",
    "3832": "heads of the ",
    "3833": "name of ",
    "3834": "this house ",
    "3835": "forgive ",
    "3836": "inte",
    "3837": "integri",
    "3838": "everyone who ",
    "3839": "low",
    "3840": "sist",
    "3841": "worship ",
    "3842": "apart ",
    "3843": "donkey ",
    "3844": "\nfor they ",
    "3845": "twenti",
    "3846": "twentie",
    "3847": "ben hadad ",
    "3848": "conspired ",
    "3849": "to a ",
    "3850": "and put ",
    "3851": "fill ",
    "3852": "pour ",
    "3853": "seven thousand ",
    "3854": "\nthe king of israel ",
    "3855": "micaiah ",
    "3856": "lamb",
    "3857": "low ",
    "3858": "to another ",
    "3859": "exceedingly ",
    "3860": "aliah ",
    "3861": "joth",
    "3862": "shallu",
    "3863": "remo",
    "3864": "inhabitants of jerusalem ",
    "3865": "corru",
    "3866": "eno",
    "3867": "shem ",
    "3868": "elipha",
    "3869": "reuben ",
    "3870": "elias",
    "3871": "eliashi",
    "3872": "skill",
    "3873": "jedu",
    "3874": "porters ",
    "3875": "tun",
    "3876": "xes ",
    "3877": "flocks ",
    "3878": "have been ",
    "3879": "cyrus ",
    "3880": "tee",
    "3881": "\nthose who ",
    "3882": "gotten ",
    "3883": "interpre",
    "3884": "flood ",
    "3885": "clothes ",
    "3886": "answered the ",
    "3887": "horsemen ",
    "3888": "divided ",
    "3889": "in the cities of ",
    "3890": " that you have ",
    "3891": "loving kindness and ",
    "3892": "reward ",
    "3893": "my face ",
    "3894": "so that the ",
    "3895": "were born ",
    "3896": "why have you ",
    "3897": "with me and ",
    "3898": "said to david ",
    "3899": "dies ",
    "3900": " though ",
    "3901": "heard that ",
    "3902": "was dead ",
    "3903": "foreigners ",
    "3904": "brought the ",
    "3905": "\nnevertheless ",
    "3906": "stronghold ",
    "3907": "trees and ",
    "3908": "in the valley of ",
    "3909": "was kindled ",
    "3910": "he died ",
    "3911": "of yahweh",
    "3912": "come to me ",
    "3913": "covers ",
    "3914": "wher",
    "3915": "vision ",
    "3916": "yahweh god ",
    "3917": "redeem ",
    "3918": "promised ",
    "3919": "moab",
    "3920": "hadadezer ",
    "3921": "vic",
    "3922": "pele",
    "3923": "naha",
    "3924": "if the ",
    "3925": "do that ",
    "3926": "s and they ",
    "3927": "entered ",
    "3928": "besi",
    "3929": "of the king s ",
    "3930": "came in ",
    "3931": "\nit happened in the ",
    "3932": "fron",
    "3933": "front ",
    "3934": "prevailed ",
    "3935": "excep",
    "3936": "this is ",
    "3937": "and he will ",
    "3938": "but i will ",
    "3939": "harm ",
    "3940": "take it ",
    "3941": "made them ",
    "3942": "let my ",
    "3943": "bak",
    "3944": " than the ",
    "3945": "lted ",
    "3946": "has been ",
    "3947": "as soon ",
    "3948": "praised ",
    "3949": "born",
    "3950": "horses and ",
    "3951": "throughout ",
    "3952": "habitation ",
    "3953": "zadok the ",
    "3954": "yours ",
    "3955": "\nso they ",
    "3956": "top of the ",
    "3957": "in those ",
    "3958": "choose ",
    "3959": " this time ",
    "3960": "happen ",
    "3961": "utter",
    "3962": "better",
    "3963": "boy ",
    "3964": "a thousand ",
    "3965": "speech ",
    "3966": "? \nhe ",
    "3967": "eaten ",
    "3968": "cities and ",
    "3969": "amor",
    "3970": "violence ",
    "3971": "surrounded ",
    "3972": "tremb",
    "3973": "ings of the ",
    "3974": "ski",
    "3975": "rebuke ",
    "3976": "ways of ",
    "3977": "bring them ",
    "3978": "against me \n",
    "3979": "one who ",
    "3980": "grass ",
    "3981": "plot ",
    "3982": "brother of ",
    "3983": "egyptian ",
    "3984": "hez",
    "3985": "beg ",
    "3986": "counted ",
    "3987": "noise ",
    "3988": "he shall ",
    "3989": "prosper ",
    "3990": "which he spoke ",
    "3991": "for he is ",
    "3992": "rich",
    "3993": "hanan ",
    "3994": "town",
    "3995": "bash",
    "3996": "bron",
    "3997": "bronze ",
    "3998": "land of the ",
    "3999": "cedar"
  }
}