{
  "vocab": {
    "0": "<pad>",
    "1": "<sos>",
    "2": "<eos>",
    "3": "\n",
    "4": " ",
    "5": "!",
    "6": "(",
    "7": ")",
    "8": ",",
    "9": "-",
    "10": ".",
    "11": "/",
    "12": "0",
    "13": "1",
    "14": "2",
    "15": "3",
    "16": "4",
    "17": "5",
    "18": "6",
    "19": "7",
    "20": "8",
    "21": "9",
    "22": ":",
    "23": ";",
    "24": "?",
    "25": "\u0901",
    "26": "\u0902",
    "27": "\u0903",
    "28": "\u0905",
    "29": "\u0906",
    "30": "\u0907",
    "31": "\u0908",
    "32": "\u0909",
    "33": "\u090a",
    "34": "\u090b",
    "35": "\u090f",
    "36": "\u0910",
    "37": "\u0913",
    "38": "\u0914",
    "39": "\u0915",
    "40": "\u0916",
    "41": "\u0917",
    "42": "\u0918",
    "43": "\u0919",
    "44": "\u091a",
    "45": "\u091b",
    "46": "\u091c",
    "47": "\u091d",
    "48": "\u091e",
    "49": "\u091f",
    "50": "\u0920",
    "51": "\u0921",
    "52": "\u0922",
    "53": "\u0923",
    "54": "\u0924",
    "55": "\u0925",
    "56": "\u0926",
    "57": "\u0927",
    "58": "\u0928",
    "59": "\u092a",
    "60": "\u092b",
    "61": "\u092c",
    "62": "\u092d",
    "63": "\u092e",
    "64": "\u092f",
    "65": "\u0930",
    "66": "\u0932",
    "67": "\u0935",
    "68": "\u0936",
    "69": "\u0937",
    "70": "\u0938",
    "71": "\u0939",
    "72": "\u093e",
    "73": "\u093f",
    "74": "\u0940",
    "75": "\u0941",
    "76": "\u0942",
    "77": "\u0943",
    "78": "\u0947",
    "79": "\u0948",
    "80": "\u094b",
    "81": "\u094c",
    "82": "\u094d",
    "83": "\u0964",
    "84": "\u200c",
    "85": "\u2018",
    "86": "\u2019",
    "87": "\u201c",
    "88": "\u201d",
    "89": "\u093e ",
    "90": "\u0947 ",
    "91": "\u094b ",
    "92": "\u0930\u0942",
    "93": "\u0939\u0930\u0942",
    "94": "\u0932\u0947 ",
    "95": "\u0928\u093f",
    "96": " \u0924",
    "97": "\u093e\u0908",
    "98": "\u094d\u0930",
    "99": "\u0915\u094b ",
    "100": "\u0928\u094d",
    "101": "\u0930\u094d",
    "102": " \u092e",
    "103": " \u092a",
    "104": "\u0915\u093e ",
    "105": "\u0932\u093e\u0908",
    "106": "\u093f\u0928",
    "107": "\u094d\u092f",
    "108": "\u0964\n",
    "109": " \u0938",
    "110": " \u0905",
    "111": "\u0930\u093e",
    "112": "\u0939\u093e",
    "113": " \u0917",
    "114": "\u092e\u093e ",
    "115": "\u0940\u0939\u0930\u0942",
    "116": " \u092d",
    "117": "\u0930\u092e",
    "118": "\u0928\u0941",
    "119": "\u0925\u093f",
    "120": " \u0926",
    "121": "\u094d\u0924",
    "122": "\u093e\u0930",
    "123": " \u0939",
    "124": " \u0915",
    "125": " \u092f",
    "126": "\u092e\u093e",
    "127": "\u0947\u0930",
    "128": "\u094d\u0935",
    "129": " \u091c",
    "130": "\u092a\u094d\u0930",
    "131": " \u092c",
    "132": "\u092f\u094b",
    "133": "\u0928\u093f\u0938",
    "134": "\u0928\u0947",
    "135": "\u0947\u0936",
    "136": " \u0905\u0928\u093f",
    "137": "\u093f\u0928\u0940\u0939\u0930\u0942",
    "138": "\u093e\u0909",
    "139": "\u0964 \u0924",
    "140": "\u094d\u0928",
    "141": " \u0909",
    "142": " \u092e\u093e",
    "143": "\u0925\u093f\u090f",
    "144": "\u093e\u0928",
    "145": " \u0906",
    "146": "\u0928\u093f\u0938\u0939\u0930\u0942",
    "147": "\u093e\u090f",
    "148": "\u093f\u092e",
    "149": "\u093e\u0939",
    "150": " \u0930",
    "151": "\u092d\u0941",
    "152": "\u092a\u0930\u092e",
    "153": "\u092a\u094d\u0930\u092d\u0941",
    "154": ", ",
    "155": "\u093f\u0924",
    "156": "\u092c\u093e",
    "157": "\u094d\u0935\u0930",
    "158": " \u0917\u0930\u094d",
    "159": "\u0947\u0936\u094d\u0935\u0930",
    "160": "\u092a\u093e\u0908",
    "161": " \u092a\u0930\u092e",
    "162": "\u0930\u093e\u091c",
    "163": " \u0939\u0941",
    "164": "\u092a\u093e\u0908\u0902",
    "165": "\u0928\u094d\u091b",
    "166": "\u0928\u0947 ",
    "167": "\u091b\u094b",
    "168": " \u0917\u0930",
    "169": "\u0932\u0947 \u0924",
    "170": "\u0938\u094d",
    "171": "\u0939\u093e\u0901",
    "172": "\u0940 ",
    "173": "\u093e\u0932",
    "174": "\u0932\u093e\u0908 ",
    "175": "\u093f\u0930",
    "176": "\u093e \u0917",
    "177": "\u0939\u0941",
    "178": "\u093f\u090f",
    "179": "\u0938\u094d\u0924",
    "180": "\u0932\u0947",
    "181": " \u092e\u093e\u0928\u093f\u0938\u0939\u0930\u0942",
    "182": "\u0928\u0947\u091b",
    "183": "\u093e\u0939\u0930\u0942",
    "184": "\u0928\u094d\u0926",
    "185": "\u092b\u094d\u0928",
    "186": "\u092e\u094d",
    "187": "\u0939\u093e\u092e",
    "188": "\u094d\u0924\u093f",
    "189": "\u0926\u093e",
    "190": "\u0924\u094d\u092f",
    "191": "\u0947\u0930\u094b ",
    "192": "\u093e\u092e",
    "193": ", \u201c",
    "194": " \u0928",
    "195": "\u092c\u093e\u091f",
    "196": "\u0915\u094d",
    "197": " \u0924\u094d\u092f",
    "198": "\u0924\u093f",
    "199": " \u0924\u093f\u0928\u0940\u0939\u0930\u0942",
    "200": "\u0932\u093e",
    "201": "\u0939\u094b",
    "202": " \u0936",
    "203": "\u093e\u0901",
    "204": "\u092a\u0930\u092e\u092a\u094d\u0930\u092d\u0941",
    "205": "\u0964\u201d",
    "206": " \u0924\u092a\u093e\u0908\u0902",
    "207": "\u093e\u0909\u0901",
    "208": "\u0932\u0947 \u092e",
    "209": " \u0926\u093f\u0928",
    "210": "\u091b\u094b\u0930",
    "211": "\u0964 \u092f",
    "212": " \u092a\u094d\u0930",
    "213": "\u092a\u0930\u092e\u0947\u0936\u094d\u0935\u0930",
    "214": " \u0924\u093f\u092e",
    "215": " \u0935",
    "216": "\u091b\u0928\u094d",
    "217": "\u0915\u093e\u0930",
    "218": " \u092a\u0930\u092e\u092a\u094d\u0930\u092d\u0941",
    "219": "\u0964\n\u0924",
    "220": " \u0917\u0930\u0947",
    "221": "\u0928\u0941 \u092d",
    "222": "\u0905\u0928\u093f",
    "223": "\u0907\u0938",
    "224": "\u092c\u0948",
    "225": " \u092a\u0930\u092e\u0947\u0936\u094d\u0935\u0930",
    "226": " \u0932",
    "227": "\u091b\u0941",
    "228": "\u094d\u091f",
    "229": "\u093f\u092f",
    "230": " \u0925\u093f\u090f",
    "231": "\u092e\u093e\u0928\u093f\u0938\u0939\u0930\u0942",
    "232": "\u0939\u0930",
    "233": " \u091a",
    "234": "\u0948\u0928",
    "235": " \u090f",
    "236": "\u093e\u090f\u0932",
    "237": "\u0930\u093e\u091c\u093e ",
    "238": "\u0938\u0941",
    "239": "\u0928\u093e",
    "240": "\u0907\u0938\u094d\u0930",
    "241": "\u0907\u0938\u094d\u0930\u093e\u090f\u0932",
    "242": "\u0915\u093e \u0938",
    "243": "\u0928\u093f\u092e",
    "244": "\u0939\u0940",
    "245": "\u093e \u0917\u0930\u094d",
    "246": "\u0930\u093f",
    "247": "\u0932\u0947 \u092d",
    "248": "\u0932\u0947 \u0906",
    "249": "\u0964\u201d\n",
    "250": "\u0928\u093f\u092e\u094d\u0924\u093f",
    "251": "\u092f\u094b ",
    "252": "\u0928\u094d\u0924",
    "253": "\u0915\u094b \u0938",
    "254": "\u090a\u0926",
    "255": "\u0915\u0941",
    "256": "\u0939\u0941\u0928\u094d\u091b",
    "257": "\u0964 \u092e",
    "258": " \u0909\u0928",
    "259": "\u092e\u093e\u0928",
    "260": "\u0964 \u0924\u093f\u0928\u0940\u0939\u0930\u0942",
    "261": "\u0932\u093e\u0908 \u092d",
    "262": "\u0928\u0947, \u201c",
    "263": " \u0939\u094b",
    "264": "\u0930\u093e\u0939\u0930\u0942",
    "265": "\u093e\u0938",
    "266": "\u0925\u093f\u092f\u094b",
    "267": "\u0947\u0916",
    "268": "\u0915\u093e \u0925\u093f\u090f",
    "269": "\u0935\u093f",
    "270": "\u091b\u094b\u0930\u093e ",
    "271": "\u094d\u0930\u094b ",
    "272": "\u0924\u094d\u0930",
    "273": "\u0947\u0932",
    "274": "\u093e\u0930\u094d",
    "275": "\u0937\u094d\u091f",
    "276": "\u090f\u0915\u094b ",
    "277": "\u092b\u094d\u0928\u094b ",
    "278": "\u0939\u093f",
    "279": "\u0926\u094d",
    "280": "\u0947\u0915",
    "281": "\u0939\u093e\u092e\u0940",
    "282": " \u0938\u0941",
    "283": "\u092e\u094d\u092e",
    "284": "\u0939\u0942",
    "285": "\u0928\u093e ",
    "286": " \u092a\u0928\u093f",
    "287": " \u0916",
    "288": "\u0932\u094d",
    "289": "\u0928\u0941\u0939\u0941\u0928\u094d\u091b",
    "290": " \u0915\u0941",
    "291": " \u0926\u093f\u0928\u0941",
    "292": "\u0930\u093e\u092e",
    "293": "\u0930\u0940",
    "294": "\u093e \u092a",
    "295": "\u0930\u093e\u091c\u093e",
    "296": "\u091b\u093f",
    "297": " \u092e\u0947\u0930\u094b ",
    "298": "\u0964 ",
    "299": "\u0948\u0932\u0947 ",
    "300": "\u093e\u092a",
    "301": "\u0915\u094b \u092a",
    "302": "\u0964\n\u092f",
    "303": "\u0915\u094d\u0937",
    "304": "\u0930\u0947",
    "305": " \u0917\u0930\u094d\u0928",
    "306": "\u091c\u093e",
    "307": " \u0909\u0938",
    "308": " \u0909\u0939\u093e\u0901",
    "309": "\u0926\u094d\u0927",
    "310": "\u0939\u0947",
    "311": "\u0932\u093e\u0917",
    "312": "\u091b\u094c",
    "313": "\u0928\u094d\u092f",
    "314": "\u0964\n\u092e",
    "315": "\u0928\u0941 \u0939\u0941",
    "316": "\u0915\u094b \u092e",
    "317": "\u0932\u093e\u0908 \u0938",
    "318": "\u0939\u094b\u0938\u094d",
    "319": "\u0942\u0930\u094d",
    "320": "\u0932\u0947 \u092f",
    "321": "\u0938\u093f\u0924",
    "322": "\u0926\u093f\u0928",
    "323": "\u0928\u0948",
    "324": "\u0947\u0935",
    "325": "\u0915\u093e \u091b\u094b\u0930\u093e ",
    "326": "\u093e\u0924",
    "327": "\u0940 \u0938",
    "328": " \u0924\u093f\u0928",
    "329": "\u091c\u094d",
    "330": "\u0932\u0947 \u0938",
    "331": "\u091f\u093e ",
    "332": " \u0926\u093f\u090f",
    "333": "\u0932\u0947 \u0909",
    "334": " \u0926\u093e",
    "335": "\u0915\u093e",
    "336": "\u0928\u0941\u092d",
    "337": "\u0928\u094d\u0926\u093f\u0930",
    "338": "\u0926\u093e ",
    "339": " \u0924\u094d\u092f\u0938",
    "340": " \u092b",
    "341": " \u0924\u093f\u092e\u0940",
    "342": "\u0915\u093e \u092e\u093e\u0928\u093f\u0938\u0939\u0930\u0942",
    "343": "\u0932\u094d\u092f",
    "344": ", \u092e",
    "345": "\u0935\u093e",
    "346": "\u0930\u093e\u0916",
    "347": "\u0901\u0917",
    "348": "\u093f\u0936",
    "349": " \u091b",
    "350": "\u093e\u0915",
    "351": " \u092c\u0928",
    "352": " \u092a\u0930\u094d",
    "353": "\u093f\u092f\u093e\u0939",
    "354": "\u0917\u0930\u094d",
    "355": "\u093f\u092e\u0940",
    "356": "\u0942\u092c",
    "357": "\u0928\u0941 \u092d\u092f\u094b",
    "358": "\u092b\u094d\u0928\u093e ",
    "359": "\u090f\u0915",
    "360": "\u0926\u0947\u0936",
    "361": "\u0915\u094d\u0924",
    "362": "\u0939\u0947 ",
    "363": "\u0915\u093e \u092a",
    "364": "\u0915\u0947",
    "365": "\u094d\u092f\u0938",
    "366": "\u0926\u093f",
    "367": "\u0928 \u0938",
    "368": "\u0940 \u092e\u093e\u0928\u093f\u0938\u0939\u0930\u0942",
    "369": "\u0926\u0948",
    "370": "\u093e\u0907",
    "371": "\u0948\u0902",
    "372": " \u091c\u093e",
    "373": "\u0932\u0947 \u0905",
    "374": "\u0928\u0940",
    "375": "\u0932\u0947 \u092a",
    "376": " \u0915\u093f\u0928",
    "377": " \u092d\u090f",
    "378": "\u0938\u0930\u094d",
    "379": " \u0938\u092e",
    "380": "\u0915\u094d\u0924\u093f",
    "381": "\u094d\u0928\u0947 ",
    "382": "\u0964 \u0905\u0928\u093f",
    "383": "\u094c\u0902",
    "384": "\u0915\u093e\u0930\u0923",
    "385": "\u0926\u0940",
    "386": "\u092a\u091b\u093f",
    "387": "\u0932\u0947 \u0924\u093f\u0928\u0940\u0939\u0930\u0942",
    "388": "\u0926\u093e\u090a\u0926",
    "389": " \u092e\u093e\u0928\u093f\u0938",
    "390": "\u0935\u093e\u0930",
    "391": "\u090f\u0932",
    "392": " \u091c\u0938",
    "393": "\u0932\u0947\u092e\u093e\u0928",
    "394": "\u0932\u093e\u0908 \u092c",
    "395": "\u0932\u093f",
    "396": " \u0928\u093f",
    "397": "\u0926\u0947\u0916",
    "398": "\u092f\u093e\u0939",
    "399": " \u0905\u092c",
    "400": "\u093f\u0924\u094d\u0930",
    "401": " \u0926\u093e\u090a\u0926",
    "402": "\u091a\u094d",
    "403": "\u092d\u0928\u0947 ",
    "404": "\u0915\u094b \u0928\u093f\u092e\u094d\u0924\u093f",
    "405": " \u0926\u0941",
    "406": "\u094b\u0915",
    "407": "\u0932\u0947\u092e",
    "408": "\u0932\u093e\u0917\u093f",
    "409": "\u0938\u0901\u0917",
    "410": "\u0938\u093e",
    "411": " \u0927",
    "412": "\u0928\u093e\u0909\u0901",
    "413": "\u092e\u093e\u0925\u093f",
    "414": "\u094b\u0928",
    "415": "\u0938\u094d\u0924\u094b ",
    "416": "\u0930\u094d\u0937",
    "417": "\u0941\u0939\u0930\u0942",
    "418": "\u0930\u0942\u0936",
    "419": "\u091b\u0948\u0928",
    "420": "\u0940\u0928",
    "421": "\u0932\u093e\u0908 \u092a",
    "422": "\u0932\u0947 \u092d\u0928\u0947, \u201c",
    "423": "\u0932\u093e\u0908 \u092e",
    "424": "\u0936\u094d",
    "425": "\u094d\u0930\u093e ",
    "426": "\u0928\u094d\u0928",
    "427": "\u0930\u0942\u0936\u0932\u0947\u092e",
    "428": "\u0938\u092e\u094d\u092e",
    "429": "\u0909\u091f\u093e ",
    "430": "00",
    "431": "\u0939\u093e\u0930",
    "432": "\u0915\u094b \u092a\u094d\u0930",
    "433": "\u0947\u0930\u0948",
    "434": "\u093e\u0928\u0940",
    "435": " \u0926\u0947\u0916",
    "436": "\u0964 \u0924\u0930",
    "437": " \u092f\u0938",
    "438": "\u0947\u0924",
    "439": "\u091b\u094b\u0930\u093e\u0939\u0930\u0942",
    "440": "\u0964\n\u0939\u0947 ",
    "441": "\u0924\u094d\u092f\u0938",
    "442": "\u092e\u093e \u092c",
    "443": " \u0939\u094b\u0938\u094d",
    "444": "\u0915\u0939\u0930\u0942",
    "445": "\u0932\u094b ",
    "446": "\u0947\u0930\u093e ",
    "447": "\u092e\u093f",
    "448": " \u0907\u0938\u094d\u0930\u093e\u090f\u0932",
    "449": "\u0936\u093e",
    "450": "\u092d\u090f",
    "451": "\u0927\u093f",
    "452": "\u0939\u0942\u0926\u093e",
    "453": "\u091c\u0928",
    "454": "\u0924\u094d\u0924",
    "455": "\u0915\u093e \u0928\u093f\u092e\u094d\u0924\u093f",
    "456": " \u0906\u092b\u094d\u0928\u094b ",
    "457": " \u091c\u094b ",
    "458": "\u0932\u093e\u0908 \u092d\u0928\u0947, \u201c",
    "459": "\u0942\u0930\u094d\u0923",
    "460": "\u094d\u0917",
    "461": "\u0936\u0940",
    "462": "\u0928\u0947\u091b\u0941",
    "463": "\u0936\u0939\u0930",
    "464": "\u091c\u094d\u091e",
    "465": "\u093e\u0921",
    "466": "\u0928\u0941\u092d\u092f\u094b",
    "467": "\u0930\u094d\u0915",
    "468": "\u0941\u0926\u094d\u0927",
    "469": "\u0924\u094d\u092f\u0947\u0915",
    "470": "\u0928\u0941 \u0939\u0941\u0928\u094d\u091b",
    "471": "\u0918\u0930",
    "472": " \u091c\u092c",
    "473": "\u0930\u093f\u0935\u093e\u0930",
    "474": " \u0928\u0948",
    "475": " \u0917\u090f",
    "476": "\u0947\u091f",
    "477": "\u0932\u0947 \u0906\u092b\u094d\u0928\u094b ",
    "478": " \u0930\u093e\u091c\u093e ",
    "479": "\u0938\u0930\u094d\u0925",
    "480": "\u094d\u092f\u094b",
    "481": " \u0926\u093f",
    "482": "\u0902\u0938",
    "483": "\u0928\u0928\u094d",
    "484": "\u0915\u094b \u0906",
    "485": "\u0926\u0948\u0928",
    "486": "\u0925\u0947",
    "487": "\u0915\u094b",
    "488": "\u0926\u093f\u0928\u0941",
    "489": "\u093e\u0917",
    "490": "\u0928\u0947\u091b\u0928\u094d",
    "491": "\u0964\n\u092a\u0930\u092e\u0947\u0936\u094d\u0935\u0930",
    "492": "\u0938\u094d\u0924\u0948",
    "493": "\u0964\n\u0905",
    "494": "\u091c\u092c",
    "495": "\u092f\u092e\u093e ",
    "496": " \u0935\u0930\u094d\u0937",
    "497": "\u094d\u0935\u093e\u0930",
    "498": " \u0924\u093f\u092e\u0940\u0939\u0930\u0942",
    "499": "\u094d\u0935\u0940",
    "500": "\u0947 \u0905\u0928\u093f",
    "501": " \u0939\u0941\u0928\u0941\u0939\u0941\u0928\u094d\u091b",
    "502": "\u0964 \u0909\u0928",
    "503": "\u0915\u093e \u0905",
    "504": " \u0924\u0930",
    "505": " \u0930\u093e\u0916",
    "506": "\u0926\u094b",
    "507": " \u0924\u094d\u092f\u094b ",
    "508": ", \u0924\u092a\u093e\u0908\u0902",
    "509": "\u0942\u091c\u093e",
    "510": "\u0920\u093e\u0909\u0901",
    "511": "\u092e\u093e \u092a",
    "512": "\u094d\u092f\u094b ",
    "513": "\u0964 \u092f\u0938",
    "514": "\u0926\u0941",
    "515": "\u0964\n\u092a\u0930\u092e\u092a\u094d\u0930\u092d\u0941",
    "516": "\u0915\u094b \u0905",
    "517": "\u0915\u094d\u0930",
    "518": " \u0936\u0939\u0930",
    "519": " \u092f\u094b",
    "520": "\u0915\u094b \u0928\u093e\u0909\u0901",
    "521": "\u091c\u094d\u092f",
    "522": "\u0915\u094b \u0935\u093f",
    "523": "\u0928\u0941\u0939\u094b\u0938\u094d",
    "524": "\u0919\u094d\u0917",
    "525": "\u094d\u0921",
    "526": "\u0940\u0935",
    "527": "\u0964 \u0924\u093f\u0928",
    "528": "\u094b\u0927",
    "529": " \u0938\u092c\u0948",
    "530": "\u0930\u094d\u092e",
    "531": "\u0930\u093e ",
    "532": "\u093e \u0917\u0930",
    "533": "\u0915\u093e \u0938\u092c\u0948",
    "534": "\u092a\u0942\u0930\u094d\u0923",
    "535": "\u093f\u0930\u0939\u0947",
    "536": "\u093e\u0909\u0928",
    "537": "\u0909\u0901",
    "538": "\u0939\u0930\u0941",
    "539": "\u0964 \u0924\u094d\u092f\u0938",
    "540": " \u0925\u093f\u092f\u094b",
    "541": "\u0964 \u092a\u0930\u092e\u092a\u094d\u0930\u092d\u0941",
    "542": "\u092f\u094b\u0917",
    "543": "\u0915\u093e\u092e",
    "544": "\u0940 \u092a",
    "545": "\u0941\u0930\u094d",
    "546": " \u0939\u093e\u092e\u0940",
    "547": "\u0927\u094d\u092f",
    "548": "\u0936\u093e\u0932",
    "549": "\u0915\u094b \u092c",
    "550": "\u0924\u093f\u0928\u0940\u0939\u0930\u0942",
    "551": " \u0906\u090f",
    "552": " \u090f\u0915",
    "553": "\u093e\u0915\u0942\u092c",
    "554": "\u092e\u093e\u0928\u093f\u0938",
    "555": "\u0923\u094d\u0921",
    "556": "\u0932\u093e\u0908 \u0906",
    "557": "\u0915\u093e \u0930\u093e\u091c\u093e ",
    "558": "\u0915\u094b \u092e\u0928\u094d\u0926\u093f\u0930",
    "559": ", \u0905\u0928\u093f",
    "560": "\u0932\u0947 \u0924\u092a\u093e\u0908\u0902",
    "561": "\u0964\n\u0924\u0930",
    "562": "\u0932\u0947 \u092e\u0947\u0930\u094b ",
    "563": " \u0915\u093f\u0928\u092d\u0928\u0947 ",
    "564": "\u0938\u094d\u0925",
    "565": "\u0942\u092e\u093f",
    "566": ", \u092f",
    "567": "\u0932\u0940",
    "568": "\u0932\u093e ",
    "569": "\u0936\u0924\u094d\u0930",
    "570": "\u0941\u0916",
    "571": "\u093f\u092e\u0940\u0939\u0930\u0942",
    "572": "\u0964 \u0924\u092a\u093e\u0908\u0902",
    "573": "\u0930\u094d\u0917",
    "574": "\u0938\u0941\u0932\u0947\u092e\u093e\u0928",
    "575": "\u093e\u0909\u0928\u0947 ",
    "576": "\u0928\u094d\u0924\u093e\u0928",
    "577": "\u091b\u094b\u0930\u093e",
    "578": "\u0942\u0939",
    "579": "\u0927\u093f\u0915\u093e\u0930",
    "580": "\u0939\u093e\u0928",
    "581": " \u0915\u093f",
    "582": " \u0915\u093e\u092e",
    "583": "\u0942\u0924",
    "584": " \u0905\u0938",
    "585": "\u0936\u0947",
    "586": "\u0932\u0947 \u092a\u0930\u092e\u092a\u094d\u0930\u092d\u0941",
    "587": " \u0932\u0917",
    "588": " \u092f\u0930\u0942\u0936\u0932\u0947\u092e",
    "589": "\u0964\n\u0924\u092c",
    "590": "\u0928\u0941 \u092d\u090f\u0915\u094b ",
    "591": "\u0928\u094d\u0926\u093e ",
    "592": "\u093e \u0917\u0930\u0947",
    "593": "\u0942\u0938\u0941",
    "594": "\u0942\u0938\u0941\u092b",
    "595": " \u0917\u0930\u094d\u0928\u0947 ",
    "596": "\u093e\u0930\u0947",
    "597": "\u093f\u0902",
    "598": "\u0928\u0941 \u0939\u094b\u0938\u094d",
    "599": "\u0964 \u0924\u092c",
    "600": "\u0928\u0941 \u092a\u0930\u094d",
    "601": "\u093e\u092e\u093e ",
    "602": " \u0915\u0947 ",
    "603": "\u0964 \u0905",
    "604": "\u093e\u092f",
    "605": "\u0915\u094b \u091b",
    "606": " \u0935\u093f",
    "607": "\u0964\u201d\n\u0924",
    "608": "\u0932\u0947 \u0915",
    "609": "\u092c\u0928",
    "610": "\u0932\u0947 \u091c",
    "611": "\u0906\u092c",
    "612": "\u0917\u0941",
    "613": " \u092d\u092f\u094b",
    "614": "\u093e\u0938\u0928",
    "615": "\u093e\u0901\u091a",
    "616": "\u0927\u0947\u0930\u0948",
    "617": "\u0924\u094d",
    "618": "\u093e\u0909\u0928\u0941 \u092d\u092f\u094b",
    "619": "\u0943\u0925",
    "620": "\u0924\u092a\u093e\u0908\u0902",
    "621": "\u0930\u094b",
    "622": " \u0932\u094d\u092f",
    "623": "\u0938\u0947",
    "624": "\u0932\u0947 \u0906\u092b\u094d\u0928\u093e ",
    "625": "\u093e\u0930\u094d\u0925",
    "626": "\u0940\u091c",
    "627": "\u092c\u094d",
    "628": "\u092c\u0941",
    "629": "\u0926\u094d\u0935\u093e\u0930",
    "630": "\u0932\u0947 \u0917",
    "631": "\u0915\u093e \u091b\u094b\u0930\u093e\u0939\u0930\u0942",
    "632": " \u0915\u0941\u0930\u093e\u0939\u0930\u0942",
    "633": "\u0926\u093f\u090f",
    "634": " \u0930\u093e\u091c\u093e",
    "635": " \u0939\u0941\u0928\u0947\u091b",
    "636": "\u0939\u093e\u0924",
    "637": "\u0924\u0940",
    "638": " \u092c\u0928\u093e\u090f",
    "639": "\u0918\u093f",
    "640": "\u0915\u093f",
    "641": " \u0930\u0939",
    "642": " \u092a\u0920",
    "643": "\u0964 \u0909\u0939\u093e\u0901",
    "644": "\u094d\u0930\u093e",
    "645": "\u092f\u093e\u0930",
    "646": "\u0964 \u092a\u0930\u092e\u0947\u0936\u094d\u0935\u0930",
    "647": "\u092c\u093e\u092e",
    "648": " \u0918",
    "649": "\u0930\u0939",
    "650": "\u0924\u094d\u0928",
    "651": " \u092a\u093e\u0930\u094d",
    "652": "\u0932\u093e\u0908 \u091c",
    "653": "\u092e\u093e \u0917",
    "654": " \u092c\u093f",
    "655": " \u0925",
    "656": "\u092e\u093e\u0923",
    "657": " \u0924\u0940",
    "658": "\u0935\u093f\u0924\u094d\u0930",
    "659": "\u0939\u093e\u092f",
    "660": "\u0932\u0947\u0935",
    "661": "\u093f\u0936\u094d\u0930",
    "662": "\u0943\u0925\u094d\u0935\u0940",
    "663": "\u091c\u0928\u093e ",
    "664": " \u0915\u0947",
    "665": "\u0932\u0917",
    "666": "\u090f\u0909\u091f\u093e ",
    "667": "\u091a\u094d\u091a",
    "668": " \u091c\u0928\u093e ",
    "669": "\u093e\u0926",
    "670": " \u092f\u094b ",
    "671": "\u0941\u0917",
    "672": "\u0930\u0942\u092a",
    "673": "\u0940\u0935\u0928",
    "674": "\u092d\u093e\u0907",
    "675": " \u0938\u0915\u094d",
    "676": " \u0939\u093e\u092e",
    "677": "\u0909\u0928",
    "678": "\u0928 \u0938\u0915\u094d",
    "679": "\u0947 \u091c",
    "680": "\u0915\u093e \u091b\u094b\u0930\u093e \u0925\u093f\u090f",
    "681": "\u0917\u092e",
    "682": "\u0915\u094b \u0935",
    "683": "\u0915\u094b \u0936",
    "684": "\u0936\u0924\u094d\u0930\u0941\u0939\u0930\u0942",
    "685": " \u091b\u0928\u094d",
    "686": "\u0915\u093f\u092f\u093e\u0939",
    "687": "\u094d\u0935\u0930\u094d\u0917",
    "688": "\u0932\u0947 \u0924\u094d\u092f\u0938",
    "689": "\u0930\u093e\u092e\u094d\u0930\u094b ",
    "690": "\u093f\u0924\u093e ",
    "691": " \u0939\u0941\u0928\u094d\u091b",
    "692": "\u0915\u0948",
    "693": " \u092d\u0928\u0947 ",
    "694": "\u0936\u0902\u0938",
    "695": "\u0924\u093f\u0930",
    "696": "\u0915\u0940",
    "697": " \u092a\u094d\u0930\u0924\u093f",
    "698": "\u093e\u0932\u0928",
    "699": "\u0964\n\u0939\u0947 \u092a\u0930\u092e\u092a\u094d\u0930\u092d\u0941",
    "700": "\u0942\u0930",
    "701": "\u0915\u093e\u0932",
    "702": "\u0932\u094d\u0932",
    "703": "\u0915\u093e \u0932\u093e\u0917\u093f",
    "704": "\u092f\u094d\u092f",
    "705": " \u0925\u093f\u090f\u0964\n",
    "706": " \u092d\u0928\u094d",
    "707": "\u0932\u0947 \u092e\u0932\u093e\u0908",
    "708": " \u0906\u092b\u094d\u0928\u093e ",
    "709": "\u0941\u0928",
    "710": "\u0930\u0915\u094d\u0937",
    "711": "\u0947\u0930\u093f",
    "712": "\u092e\u093e \u0938",
    "713": "\u0935\u093e ",
    "714": " \u091d",
    "715": "\u0942\u091c\u093e\u0939\u093e\u0930",
    "716": "\u093e\u090a",
    "717": "\u0930\u0942\u0926\u094d\u0927",
    "718": "\u0917\u092e\u0935",
    "719": "\u0917\u092e\u0935\u0915\u094d\u0924",
    "720": "\u092f\u094d\u092f\u0942\u092c",
    "721": "\u0915\u093f\u0928",
    "722": " \u092d\u090f\u0915\u094b ",
    "723": "\u092d\u092f\u094b",
    "724": "\u0915\u094b \u091c",
    "725": " \u0924\u094d\u092f\u0939\u093e\u0901",
    "726": " \u092e\u0948\u0932\u0947 ",
    "727": "\u092c\u094b",
    "728": "\u0907\u0928\u094d",
    "729": "\u0939\u0940 ",
    "730": "\u092e\u093e \u0906",
    "731": " \u0915\u0938",
    "732": "\u0964\n\u0924\u094d\u092f\u0938",
    "733": "\u0924\u093f\u092e\u0940",
    "734": "\u0935\u093e\u0926",
    "735": "\u0915\u0939\u093e\u0901",
    "736": "\u091a\u0928",
    "737": " \u092c\u093e",
    "738": "\u0924\u093e ",
    "739": " \u0938\u0941\u0932\u0947\u092e\u093e\u0928",
    "740": " \u092b\u0930\u094d\u0915",
    "741": "?\u201d",
    "742": "\u093f\u090f\u0930",
    "743": "\u092f\u094b \u0905\u0928\u093f",
    "744": " \u0939\u0947",
    "745": "\u0915\u093e \u0915\u0941",
    "746": "\u0932\u0947 \u092d\u0928\u094d",
    "747": "\u0926\u0947\u0916\u093f",
    "748": " \u0905\u0930\u094d",
    "749": " \u0926\u0941\u0937\u094d\u091f",
    "750": "\u0928\u094d\u091b\u0941",
    "751": "\u091f\u094d\u091f",
    "752": " \u0926\u0947\u0936",
    "753": "\u093f\u0915",
    "754": " \u0938\u092e\u094d",
    "755": "\u0964\n\u091c\u092c",
    "756": "\u0964\n\u0924\u093f\u0928\u0940\u0939\u0930\u0942",
    "757": "\u0940\u0924",
    "758": "\u092f\u093e",
    "759": "\u0932\u0947 \u0907\u0938\u094d\u0930\u093e\u090f\u0932",
    "760": "\u0964\n\u092f\u0938",
    "761": "\u0930\u094d\u092e\u093e\u0923",
    "762": "\u0947\u0928\u093e",
    "763": "\u0930\u093e\u0930",
    "764": "\u092e\u093e \u092e",
    "765": "\u0921\u093e ",
    "766": " \u090f\u0909\u091f\u093e ",
    "767": " \u092c\u093e\u0939",
    "768": " \u091a\u093e\u0939",
    "769": " \u0926\u093f\u0928\u0941\u0939\u094b\u0938\u094d",
    "770": "\u0932\u0947 \u092a\u0930\u092e\u0947\u0936\u094d\u0935\u0930",
    "771": ", \u2018",
    "772": "\u0932\u0947 \u0909\u0938",
    "773": "\u094b\u092e",
    "774": "\u093e\u0925",
    "775": " \u092f\u0939\u0942\u0926\u093e",
    "776": "\u0915\u093e \u0938\u0928\u094d\u0924\u093e\u0928",
    "777": "!\n",
    "778": "\u0924\u093e",
    "779": "\u093e\u0930\u094d\u092f",
    "780": "\u0939\u0941\u0928\u0947\u091b",
    "781": "\u091a\u093e\u0939",
    "782": "\u0928\u0947\u0930",
    "783": "\u0947\u090a",
    "784": "\u0915\u094b \u092d",
    "785": "\u0915\u093e \u091b\u0928\u094d",
    "786": " \u0925\u093f\u090f\u0964",
    "787": "\u0940 \u0938\u092c\u0948",
    "788": " \u091c\u0938\u094d\u0924\u0948",
    "789": " \u092e\u093e\u0925\u093f",
    "790": "\u0942\u091c\u093e\u0939\u093e\u0930\u0940\u0939\u0930\u0942",
    "791": "\u0948\u0928\u093f",
    "792": " \u0915\u0939\u093e\u0901",
    "793": " \u0939\u0941\u0901",
    "794": "\u0947\u0928",
    "795": "\u0902\u0917",
    "796": "\u0939\u093e\u092c",
    "797": " \u0924\u093f\u092e\u094d\u0930\u094b ",
    "798": "\u091c\u094d\u092f\u0942",
    "799": "\u0937\u092f\u092e\u093e ",
    "800": " \u092a\u094d\u0930\u0924\u094d\u092f\u0947\u0915",
    "801": "\u094d\u0930\u0940",
    "802": "\u0907\u0928",
    "803": "\u0928\u0941\u0938",
    "804": " \u092e\u093e\u0924\u094d\u0930",
    "805": "\u0941\u0930\u094d\u0916",
    "806": "\u0941\u0930\u0942",
    "807": ", \u0905",
    "808": "\u091b\u094b\u0921",
    "809": ",\n",
    "810": "\u0947\u0915\u094b ",
    "811": "\u0947\u092e",
    "812": "\u0915\u094b \u0932\u093e\u0917\u093f",
    "813": "\u0915\u094b \u092a\u094d\u0930\u0936\u0902\u0938",
    "814": "\u0938\u092c\u0948",
    "815": "\u0909\u0938",
    "816": "\u092f\u0938",
    "817": "\u093e\u090f\u0930",
    "818": "\u094d\u0930\u093e\u0939\u093e\u092e",
    "819": "\u0932\u0947\u0935\u0940\u0939\u0930\u0942",
    "820": "\u0942\u0915",
    "821": " \u0905\u0928\u093f \u092e",
    "822": "\u093f\u0924\u093e",
    "823": "\u0915\u094b \u0915",
    "824": " \u0938\u092e\u0942\u0939",
    "825": "\u0924\u094d\u0924\u0930",
    "826": "\u0928\u094d\u092e",
    "827": "\u0932\u0947 \u0917\u0930\u094d",
    "828": "\u0915\u093e \u0930\u093e\u091c\u093e",
    "829": "\u0924\u094d\u092f\u0941",
    "830": "\u0916\u0941",
    "831": "\u0932\u093e\u0908 \u0905",
    "832": "\u0915\u0947 ",
    "833": "\u0939\u093e\u0938",
    "834": "\u092e\u0947\u0930\u094b ",
    "835": "\u092c\u0947\u0932",
    "836": "\u0928\u093e\u0928",
    "837": "\u091b\u094c\u0902",
    "838": "\u0924\u094d\u092f\u094b ",
    "839": "\u0932\u0947\u0916",
    "840": "\u0935\u094d\u092f",
    "841": "\u0926\u093e\u0928",
    "842": "\u094b\u0930",
    "843": "\u0902\u0936",
    "844": " \u0930\u093e",
    "845": "\u0909\u0939\u093e\u0901",
    "846": "\u093f\u092f\u094b",
    "847": "\u093e\u0930\u0940",
    "848": "\u0936\u0915\u094d\u0924\u093f",
    "849": ",00",
    "850": "\u0943\u0924\u094d\u092f\u0941",
    "851": "\u093e\u0901\u0921",
    "852": "\u094b\u0932",
    "853": "\u093e\u0930\u0923",
    "854": " \u0916\u0941",
    "855": "\u0928\u094d\u091b\u0928\u094d",
    "856": " \u0938\u0941\u0928",
    "857": "\u0932\u0947 \u0924\u093f\u092e\u0940",
    "858": "\u091a\u093f",
    "859": "\u091c\u094d\u091c",
    "860": "\u091a\u093e\u0930",
    "861": "\u0932\u093e\u0908 \u0928",
    "862": "\u0964\u201d\n\u0924\u092c",
    "863": " \u0906\u092b",
    "864": "\u0926\u091b",
    "865": "\u092e\u093e \u092d",
    "866": "?\n",
    "867": "\u092a\u0928\u093f",
    "868": "\u093f\u092e\u094d\u0930\u094b ",
    "869": "\u0964 \u092f\u094b ",
    "870": "\u0932\u093f\u092f",
    "871": " \u092f\u0941\u0926\u094d\u0927",
    "872": "\u0947\u0926",
    "873": "\u0930\u093e\u091c\u093e\u0939\u0930\u0942",
    "874": " \u092e\u0948",
    "875": "\u0964 \u0938",
    "876": " \u0921",
    "877": "\u0930\u0939\u0947",
    "878": "\u0964 \u0939",
    "879": " \u092d\u093e\u0917",
    "880": "\u0926\u0942\u0924",
    "881": "\u0939\u094b\u0936",
    "882": "\u0939\u093e\u091c",
    "883": "\u093e \u0917\u0930\u094d\u0928",
    "884": "\u0942\u0932",
    "885": "\u0932\u0947 \u0939\u093e\u092e\u0940",
    "886": "\u0925\u093e\u0928",
    "887": "\u092a\u093e\u0932",
    "888": ", \u0924",
    "889": "\u0930\u094d\u0935",
    "890": "\u0930\u0939\u0930\u0942",
    "891": "\u092a\u094d\u0930\u0924\u094d\u092f\u0947\u0915",
    "892": " \u0915\u0941\u0928\u0948",
    "893": " \u0915\u0947\u0939\u0940",
    "894": ", \u0924\u093f\u0928\u0940\u0939\u0930\u0942",
    "895": "\u0906\u0936",
    "896": " \u092e\u093e\u0930\u094d",
    "897": "\u0928\u0941 \u0939\u0941\u0928\u0947\u091b",
    "898": "\u0915\u094b \u0938\u092e",
    "899": "\u092f\u093e\u0901",
    "900": " \u0905\u0928\u093f ",
    "901": "\u0941\u0930\u094d\u0916\u093e\u0939\u0930\u0942",
    "902": "\u0964\n\u0905\u0928\u093f",
    "903": "\u0964 \u0909\u0938",
    "904": "\u0932\u0947 \u0924\u0940",
    "905": "\u0932\u0947 \u092e\u0932\u093e\u0908 ",
    "906": "\u0925\u094d\u092f\u094b",
    "907": "\u0917\u094d",
    "908": "\u0926\u0941\u0937\u094d\u091f",
    "909": ",000",
    "910": "\u0932\u0947 \u0909\u0928",
    "911": "\u0964 \u0924\u093f\u0928\u0940\u0939\u0930\u0942\u0932\u0947 ",
    "912": "\u092c\u094d\u0930",
    "913": "\u0927\u093f\u0915\u093e\u0930\u0940\u0939\u0930\u0942",
    "914": "\u0928\u0941 \u092a\u0930\u094d\u091b",
    "915": " \u0938\u092e\u094d\u092e",
    "916": "\u0932\u093e\u0908 \u092c\u091a",
    "917": "\u0915\u093e \u092a\u093f\u0924\u093e ",
    "918": "\u0915\u0947\u0939\u0940",
    "919": "\u0926\u094d\u0930",
    "920": "\u094d\u092f\u093e\u0939",
    "921": "\u092a\u094d\u0930\u0924\u093f",
    "922": " \u092a\u0920\u093e\u090f",
    "923": "\u094b\u091c",
    "924": ", \u0924\u0930",
    "925": "\u0964\n\u0924\u092a\u093e\u0908\u0902",
    "926": "\u093e\u092a\u093e\u0924",
    "927": "\u0915\u0940 ",
    "928": "\u0930\u0923",
    "929": "\u0932\u093e\u0908 \u092d\u0928\u094d",
    "930": "\u093e \u0905",
    "931": "\u0938\u092e",
    "932": "\u0920\u0942",
    "933": "\u091b\u094b\u0930\u094b ",
    "934": "\u0915\u093e \u092a\u0930\u092e\u0947\u0936\u094d\u0935\u0930",
    "935": " \u092c\u0938",
    "936": "\u0924\u093f\u0939\u0930\u0942",
    "937": "\u091c\u0915\u093f\u092f\u093e\u0939",
    "938": "\u0932\u093e\u0908 \u092a\u094d\u0930",
    "939": "\u094d\u0935\u093e\u0938",
    "940": "\u0941\u0915",
    "941": "\u093e\u0930\u093f",
    "942": "\u092c\u0940",
    "943": " \u0905\u0938\u0932",
    "944": "\u0964 \u092f\u0938\u0930\u094d\u0925",
    "945": "\u090a\u0928",
    "946": "\u0939\u0930\u0942\u092e\u093e ",
    "947": ", \u0938",
    "948": "\u0932\u093e\u0908 \u0926",
    "949": "\u090f\u0932\u0940",
    "950": "\u093e\u0930\u094d\u0925\u0928",
    "951": "\u0932\u093e\u0908 \u0915",
    "952": " \u0917\u0930\u093f",
    "953": "\u0935\u093e\u092b",
    "954": "\u094b\u0924",
    "955": " \u0924\u093f\u0928\u0940",
    "956": " \u0935\u094d\u092f",
    "957": "\u0932\u0947 \u0924\u093f\u0928",
    "958": " \u0938\u094d",
    "959": "\u0932\u0947 \u092c",
    "960": "\u092e\u0941\u0916",
    "961": "\u0915\u093e \u0906",
    "962": "\u092f\u094c",
    "963": "\u0930\u093e\u091c\u094d\u092f",
    "964": "\u0915\u094b \u0925\u093f\u092f\u094b",
    "965": "\u0915\u0941\u0930\u093e ",
    "966": "\u0936\u094d\u091a",
    "967": " \u090f\u0932\u0940",
    "968": "\u0947\u0902",
    "969": "\u0940\u091c\u0939\u0930\u0942",
    "970": " \u0920\u093e\u0909\u0901",
    "971": "\u092d\u093e\u0907\u0939\u0930\u0942",
    "972": " \u0922",
    "973": "\u0936\u093e\u0932\u094b\u092e",
    "974": "\u0939\u094b\u0936\u093e\u092a\u093e\u0924",
    "975": "\u0915\u093e\u0936",
    "976": " \u0909\u0920",
    "977": "\u092c\u093e\u092c\u0941",
    "978": "\u0939\u093e\u0930\u0940",
    "979": "\u094b\u092c\u093e\u092e",
    "980": " \u092d\u0928\u094d\u0926\u093e ",
    "981": " \u091f",
    "982": "\u092e\u093e \u092c\u0938",
    "983": "-\u092a",
    "984": " \u0915\u094b",
    "985": " \u092f\u093e\u0915\u0942\u092c",
    "986": "\u0915\u0941\u0928\u0948",
    "987": "\u0930\u094d\u0935\u093e\u0926",
    "988": "\u0939\u0947\u0930",
    "989": "\u0915\u093e \u0925\u093f\u090f\u0964\n",
    "990": "\u0930\u093e\u0909",
    "991": "\u0928\u094d\u092f\u093e\u092f",
    "992": "\u0930\u093e\u090f",
    "993": " \u092a\u091b\u093f",
    "994": "\u0924\u0930",
    "995": " \u0927\u0947\u0930\u0948",
    "996": "\u0930\u094d\u0926",
    "997": "\u0915\u093e \u091b\u094b\u0930\u093e",
    "998": "\u0915\u094b \u0935\u093f\u0930\u0942\u0926\u094d\u0927",
    "999": "\u0903\u0916",
    "1000": "\u0932\u0947 \u092a\u0928\u093f",
    "1001": "\u0947\u091b\u0941",
    "1002": " \u092c\u093e\u0939\u093f\u0930",
    "1003": "\u093e\u0909\u0928\u0941 \u0939\u094b\u0938\u094d",
    "1004": "\u0924\u094d\u092f\u0928\u094d\u0924",
    "1005": "\u0925\u093f\u092f\u094b ",
    "1006": " \u0926\u0947\u0916\u093f",
    "1007": "\u0924\u093f\u0928",
    "1008": " \u0939\u0941\u0928\u094d",
    "1009": "\u091c\u0938",
    "1010": " \u092a\u0943\u0925\u094d\u0935\u0940",
    "1011": " \u0930\u094b",
    "1012": "\u0932\u0947 \u092f\u0938",
    "1013": "\u0926\u093e\u0938",
    "1014": "\u0935\u091a\u0928",
    "1015": "\u091c\u094d\u092f\u0942-",
    "1016": "\u0930\u094d\u092f\u093e\u0939",
    "1017": " \u092e\u0930\u094d",
    "1018": "\u0936\u0940\u0930\u094d\u0935\u093e\u0926",
    "1019": "\u093e\u0930\u093e ",
    "1020": "\u0939\u093e\u092e\u094d\u0930\u094b ",
    "1021": " \u0924\u0941",
    "1022": "\u0926\u094d\u0935\u093e\u0930\u093e ",
    "1023": "\u0924\u094d\u0928\u0940",
    "1024": "\u094b\u0921",
    "1025": "\u0948\u0928\u093f\u0915\u0939\u0930\u0942",
    "1026": "\u092d\u0942\u092e\u093f",
    "1027": "\u0932\u0947 \u0924\u094d\u092f\u094b ",
    "1028": " \u0924\u092f\u093e\u0930",
    "1029": "\u0936\u094d\u0936",
    "1030": "\u093f\u0938",
    "1031": " \u0905\u0928\u093f \u0924\u093f\u0928\u0940\u0939\u0930\u0942",
    "1032": "\u092c\u0932\u093f",
    "1033": "\u0939\u093e\u0915",
    "1034": "\u0917\u0930",
    "1035": "\u0928\u0947 \u091b\u0948\u0928",
    "1036": "\u0932\u0939\u0930\u0942",
    "1037": "\u092b\u094d\u0928\u0948",
    "1038": "\u0915\u094b \u0926",
    "1039": " \u0939\u093e",
    "1040": "\u0915\u094b \u0909",
    "1041": "\u0907\u0938\u0939\u093e\u0915",
    "1042": "\u0964 \u092f\u0938\u0915\u093e\u0930\u0923",
    "1043": "\u0932\u093f\u0915",
    "1044": "\u0932\u093e\u0908 \u0916",
    "1045": "\u0964 \u092f\u094b",
    "1046": "\u0938\u0930\u094d\u0935",
    "1047": "\u091f\u094b ",
    "1048": "\u092e\u093e \u0905",
    "1049": "\u092d\u093f",
    "1050": "\u0939\u093e\u092f\u0924",
    "1051": "\u0928\u094d\u0927",
    "1052": " \u0926\u093f\u0928\u0941\u092d\u092f\u094b",
    "1053": " \u0939\u093f",
    "1054": " \u0915\u0939\u093f",
    "1055": " \u092d\u0928\u0940",
    "1056": "\u0947\u0926\u0940",
    "1057": "\u093f\u0930\u090a\u0928",
    "1058": "\u0964\n\u0939\u0947 \u092a\u0930\u092e\u0947\u0936\u094d\u0935\u0930",
    "1059": "\u0964 \u091c\u092c",
    "1060": " \u0915\u093e\u0930\u0923",
    "1061": "\u0939\u0941\u0928\u094d",
    "1062": "\u0939\u092f\u094b\u0917",
    "1063": "\u0930\u093e\u0938\u094d\u0924",
    "1064": "\u0964 \u092e\u0947\u0930\u094b ",
    "1065": "\u0926\u091b\u0928\u094d",
    "1066": " \u092f\u0942\u0938\u0941\u092b",
    "1067": " \u092e\u0928",
    "1068": " \u0935\u093f\u0936",
    "1069": " \u091c\u0938\u094d\u0924\u094b ",
    "1070": " \u0906\u0909\u0901",
    "1071": "\u092c\u093e\u0932",
    "1072": "\u0947\u0921",
    "1073": " \u0906\u0909",
    "1074": "\u0947\u0964\n",
    "1075": " \u092d\u0928\u0947",
    "1076": "\u0915\u094b \u0918\u0930",
    "1077": "\u0947\u0935\u0915",
    "1078": "\u093f\u0928\u0947 ",
    "1079": " \u091b\u0941",
    "1080": "\u0915\u094b \u0916",
    "1081": "\u0915\u094d\u0930\u092e",
    "1082": "\u0935\u093e\u0939",
    "1083": "\u0964 \u0906",
    "1084": "\u093e\u0901\u0926\u0940",
    "1085": " \u0939\u0941\u0928",
    "1086": "\u091c\u0940\u0935\u0928",
    "1087": " \u092a\u094d\u0930\u0915\u093e\u0930",
    "1088": "\u0947\u0939\u0942",
    "1089": "\u092a\u0930\u093f",
    "1090": "\u093e\u0939\u094d\u0930",
    "1091": " \u0915\u093e\u0930\u094d\u092f",
    "1092": "\u092a\u094d\u0924",
    "1093": " \u091b\u094b\u0921",
    "1094": " \u092c\u0928\u093e",
    "1095": "\u0928\u094d\u0926\u0942\u0915",
    "1096": " \u0932\u0921",
    "1097": "\u0964 \u0924\u094d\u092f\u0938\u092a\u091b\u093f",
    "1098": "\u0935\u093e\u0939\u0930\u0942",
    "1099": " \u0905\u0928\u093f \u0905",
    "1100": " \u092f\u0939\u093e\u0901",
    "1101": ", \u092e\u0947\u0930\u094b ",
    "1102": " \u0932\u093e\u0917",
    "1103": " \u0936\u0915\u094d\u0924\u093f",
    "1104": " \u091c\u0941\u0928",
    "1105": "\u0938\u093e ",
    "1106": "\u0915\u093e \u0938\u0928\u094d\u0924\u093e\u0928\u0939\u0930\u0942",
    "1107": "\u0964 \u0924\u094d\u092f\u094b ",
    "1108": "\u0925\u093f\u090f\u0964\n",
    "1109": "\u092a\u094d",
    "1110": "\u0932\u0947 \u092d\u0928\u0947",
    "1111": "\u0920\u0940",
    "1112": "\u0939\u0941\u0901",
    "1113": "\u0938\u092e\u094d",
    "1114": " \u0924\u092c",
    "1115": " \u0915\u093e\u092e\u0939\u0930\u0942",
    "1116": "\u0932\u093e\u0908 \u092a\u0928\u093f",
    "1117": "\u092b\u0947\u0930\u093f",
    "1118": "\u0927\u0948\u0902",
    "1119": "\u092e\u093e \u091c",
    "1120": "\u0916\u093e\u0932",
    "1121": " \u0928\u093f\u0930\u094d\u092e\u093e\u0923",
    "1122": "\u0942\u091c\u093e\u0939\u093e\u0930\u0940",
    "1123": " \u092a\u093e\u0932\u0928",
    "1124": " \u092e\u0928\u094d\u0926\u093f\u0930",
    "1125": "\u090f\u0915\u094b \u0925\u093f\u092f\u094b",
    "1126": "\u093f\u092c",
    "1127": "\u0941\u0930",
    "1128": "\u091c\u094d\u092f\u0942-\u092d\u093e\u0907\u0939\u0930\u0942",
    "1129": "\u0915\u094d\u0924\u0948\u0928",
    "1130": "\u0964\u2019",
    "1131": "\u0930\u094d\u092f",
    "1132": "\u0915\u094b \u0935\u093f\u0937\u092f\u092e\u093e ",
    "1133": " \u092d\u0942\u092e\u093f",
    "1134": "\u0938\u0941\u0928",
    "1135": "\u0935\u091f\u093e ",
    "1136": "\u0928\u093f\u092f",
    "1137": "\u0930\u093f\u092a\u0930\u093f",
    "1138": "\u093f\u0930\u0939",
    "1139": " \u092c\u0947",
    "1140": "\u0925\u093f\u0907\u0928\u094d",
    "1141": " \u092d\u0928\u0947\u0930",
    "1142": " \u0938\u094d\u0925\u093e\u0928",
    "1143": "\u094d\u0928 \u0938",
    "1144": "\u0924\u093e\u0939\u0930\u0942",
    "1145": "\u0941\u0938\u094d\u0924",
    "1146": "\u0915\u093e \u092a\u0930\u093f\u0935\u093e\u0930",
    "1147": " \u0925\u093e\u0932",
    "1148": " \u092e\u0947\u0930\u093e ",
    "1149": "\u0915\u094d\u0930\u092e\u0923",
    "1150": "\u0928\u094d\u0928\u0947 ",
    "1151": "\u092b\u0932",
    "1152": "\u0932\u094d\u092f\u0948",
    "1153": "\u0936\u093f\u092f\u093e\u0939",
    "1154": ", \u201c\u092e",
    "1155": "\u091b\u094b\u0930\u0940\u0939\u0930\u0942",
    "1156": "\u0932\u0947 \u092f\u094b ",
    "1157": "\u0932\u0947 \u0917\u0930\u0947",
    "1158": " \u091c\u093e\u0928\u094d\u0926",
    "1159": "\u0964 \u0926\u093e\u090a\u0926",
    "1160": "\u0915\u094b \u091b\u0941",
    "1161": "\u092e\u093e\u0932\u093f\u0915",
    "1162": "\u093e \u0917\u0930\u094d\u091b\u0941",
    "1163": "\u0926\u092f",
    "1164": "\u093e\u090f\u0964\n",
    "1165": " \u091c\u093e\u0928",
    "1166": "\u0932\u093e\u0908 \u092a\u0930\u092e\u092a\u094d\u0930\u092d\u0941",
    "1167": "\u0932\u093e\u0908 \u0927",
    "1168": " \u092d\u0947\u091f",
    "1169": " \u0915\u093e",
    "1170": "\u0926\u094b\u092e",
    "1171": "\u092e\u093e \u0930\u093e\u0916",
    "1172": "\u0964 \u0939\u093e\u092e\u0940",
    "1173": "\u0947\u0935\u0915\u0939\u0930\u0942",
    "1174": "\u093f\u092f\u093e",
    "1175": "\u0964\n\u092e\u0947\u0930\u094b ",
    "1176": "\u0925\u093f\u090f\u0901",
    "1177": " \u0924\u093f\u0928\u0940\u0939\u0930\u0942\u0932\u0947 ",
    "1178": "\u0964 \u092f\u0926\u093f",
    "1179": "\u0947\u0932\u093e ",
    "1180": " \u092c\u091a",
    "1181": "\u094d\u091e",
    "1182": "\u0915\u094b \u0928",
    "1183": " \u0939\u0947\u0930",
    "1184": "\u0924\u093f\u092e\u0940\u0939\u0930\u0942",
    "1185": "\u0928\u094d\u0924\u093f",
    "1186": "\u0939\u0942\u0926\u093e ",
    "1187": "\u0938\u094d\u0925\u093e\u0928",
    "1188": " \u092a\u0942\u091c\u093e\u0939\u093e\u0930\u0940\u0939\u0930\u0942",
    "1189": "\u091c\u0947",
    "1190": "\u0927\u094d\u092f\u0947 ",
    "1191": "\u0938\u094d\u0924\u0941",
    "1192": "\u093e\u092e\u0940\u0928",
    "1193": "\u0902\u0915",
    "1194": "\u092c\u093f",
    "1195": "\u094b\u0917",
    "1196": "\u0939\u0932",
    "1197": "\u0932\u0947 \u0924\u094d\u092f",
    "1198": "\u093e\u0909\u0901\u091b",
    "1199": " \u0905\u092c\u094d\u0930\u093e\u0939\u093e\u092e",
    "1200": "\u0936\u0939\u0930\u0939\u0930\u0942",
    "1201": "\u091a\u094d\u091b",
    "1202": "\u093e\u0909\u0928\u0941 \u0939\u0941\u0928\u094d\u091b",
    "1203": "\u0930\u0940 ",
    "1204": " \u0906\u0907",
    "1205": "\u093e\u0922",
    "1206": " \u0926\u093f\u0928\u0947\u091b\u0941",
    "1207": "\u0920\u0942\u0932\u094b ",
    "1208": " \u0924\u0941\u0932\u094d\u092f",
    "1209": "\u092c\u093e\u0928",
    "1210": "\u094d\u0935\u0940\u0915\u093e\u0930",
    "1211": "\u0932\u093f\u0936",
    "1212": "\u092e\u093e \u0932",
    "1213": "\u0964\n\u0906",
    "1214": "\u093e\u092e\u0941",
    "1215": " \u0939\u0947\u0930\u094d",
    "1216": " \u091a\u0941",
    "1217": ", \u0939",
    "1218": "\u0926\u0940\u0939\u0930\u0942",
    "1219": " \u092e\u093e\u0928\u093f\u0938\u0939\u0930\u0942\u0932\u0947 ",
    "1220": "\u0935\u093f\u0936",
    "1221": " \u0938\u092e\u092f",
    "1222": "\u0938\u094d\u0924\u093e ",
    "1223": "\u092a\u0924",
    "1224": "\u0915\u094b \u092e\u0943\u0924\u094d\u092f\u0941",
    "1225": "\u0928\u0941 \u092d\u090f",
    "1226": "\u0947\u0909",
    "1227": "\u092e\u0948",
    "1228": "\u092e\u093e \u0909",
    "1229": " \u091b\u0948\u0928",
    "1230": " \u0924\u094d\u092f\u0939\u0940",
    "1231": "\u0924\u092c",
    "1232": "\u0941\u0926\u094d\u0930",
    "1233": " \u092a\u093e\u0928\u0940",
    "1234": "\u0932\u0947\u0916\u093f\u090f",
    "1235": " \u0932\u093f\u090f\u0930",
    "1236": " \u0939\u093e\u0924",
    "1237": "\u093e \u0930",
    "1238": " \u092c\u093e\u0932",
    "1239": " \u091a\u0922",
    "1240": "\u0935\u0938\u094d\u0925",
    "1241": " \u0917\u0930\u094d\u0928\u0941",
    "1242": "\u0939\u0930\u0942\u092c\u093e\u091f",
    "1243": " \u0905\u0924\u094d\u092f\u0928\u094d\u0924",
    "1244": "\u0915\u094b \u092a\u094d\u0930\u0936\u0902\u0938\u093e \u0917\u0930",
    "1245": "?\u201d\n",
    "1246": " \u0917\u0930\u0947 ",
    "1247": "\u0939\u0924",
    "1248": " \u0928\u093e",
    "1249": " \u0938\u094d\u0935\u0930\u094d\u0917",
    "1250": " \u092e\u093f\u0936\u094d\u0930",
    "1251": "\u0964\u201d\n\u092f",
    "1252": " \u0917\u0930\u0947 \u091c",
    "1253": "\u0935\u093e\u0928",
    "1254": "\u0939\u093e\u092e\u094d\u0930\u093e ",
    "1255": "\u0932\u093e\u0908 \u0926\u0947\u0916",
    "1256": "\u0909\u091f",
    "1257": "\u0925\u093e\u0939",
    "1258": "\u0939\u093e\u0928\u094d",
    "1259": "\u093f\u092e\u094d",
    "1260": " \u0909\u092a",
    "1261": "\u0932\u093e\u0908 \u092a\u0930\u093e\u0938\u094d\u0924",
    "1262": " \u091c\u0939\u093e\u0901",
    "1263": "\u0928\u0941\u0938\u093e\u0930",
    "1264": " \u092c\u094b",
    "1265": " \u0916\u0941\u0936\u0940",
    "1266": " \u092a\u0930\u092e\u0947\u0936\u094d\u0935\u0930\u0932\u0947 ",
    "1267": "\u0942\u091c",
    "1268": " \u0926\u0941\u0907",
    "1269": "\u0932\u093f\u0936\u094d\u0924",
    "1270": "\u0936\u093f",
    "1271": "\u0928\u094d\u092f\u093e\u092e\u0940\u0928",
    "1272": " \u0936\u093e\u0938\u0928",
    "1273": "\u094d\u0928 \u0938\u0915\u094d",
    "1274": "\u0932\u0947 \u0909\u0939\u093e\u0901",
    "1275": "\u0926\u0926",
    "1276": "\u092a\u0930\u094d",
    "1277": "\u0938\u093e\u0935",
    "1278": "\u0947\u0915\u093e \u0925\u093f\u090f",
    "1279": " \u0926\u0947\u090a",
    "1280": "\u091f\u0941",
    "1281": " \u0928\u0926\u0940",
    "1282": " \u0926\u0947\u0935",
    "1283": " \u092c\u093e\u0901\u091a",
    "1284": " \u091c\u0928\u094d\u092e",
    "1285": "\u0939\u093f\u091c\u0915\u093f\u092f\u093e\u0939",
    "1286": "\u094b \u092d",
    "1287": " \u0926\u092f",
    "1288": " \u0924\u0940 ",
    "1289": " \u0924\u0901",
    "1290": "\u0941\u0938\u094d\u0924\u0915",
    "1291": "\u0925\u0935\u093e ",
    "1292": " \u0924\u093f\u0930",
    "1293": " \u092f\u0926\u093f",
    "1294": "\u0932\u0947 \u0926\u093e\u090a\u0926",
    "1295": "\u0928\u0928\u094d\u0926",
    "1296": "\u093e \u092a\u0928\u093f",
    "1297": " \u0917\u093e\u0921",
    "1298": " \u092a\u0930\u093f\u0935\u093e\u0930",
    "1299": "\u0964 \u0924\u0940",
    "1300": " \u0928\u093e\u0909\u0901",
    "1301": "\u0964\n\u092a",
    "1302": " \u090a",
    "1303": "\u0964\n\u092f\u0938\u0915\u093e\u0930\u0923",
    "1304": "\u092a\u0923",
    "1305": "\u0938\u0902\u0917",
    "1306": "\u0932\u093e\u0908 \u092e\u093e\u0930\u094d",
    "1307": "\u0915\u094b \u0930\u0942\u092a",
    "1308": "\u092f\u094b\u0906\u092c",
    "1309": " \u0930 \u0905",
    "1310": "\u0915\u093e \u092d",
    "1311": "\u0926\u094b\u0937",
    "1312": "\u093f\u0924\u094d\u0924",
    "1313": "\u092e\u093e \u0917\u090f",
    "1314": "\u0940\u092e",
    "1315": " \u0918\u0930",
    "1316": "\u0928\u0947\u091b\u094c",
    "1317": " \u091a\u093f",
    "1318": "\u0915\u0941\u0930\u093e\u0939\u0930\u0942",
    "1319": " \u0917\u0930\u094d\u0928 \u0938",
    "1320": "\u0936\u094d\u0936\u0947",
    "1321": " \u0932\u094d\u092f\u093e\u090f",
    "1322": "\u0964\u201d\n\u0924\u0930",
    "1323": "\u094b\u0937",
    "1324": "\u0964 \u0924\u093f\u0928\u0940",
    "1325": "\u0964\n\u0924\u094d\u092f\u0938\u092a\u091b\u093f",
    "1326": "\u092f\u0926\u093f",
    "1327": "\u0930\u094d\u0936",
    "1328": "\u0932\u093e\u0908 \u091a",
    "1329": "\u0941\u0919\u094d\u0917",
    "1330": "\u0936\u0941\u0939\u0930\u0942",
    "1331": "\u094d\u0935\u0902\u0936",
    "1332": "\u0926\u091b\u0941",
    "1333": "\u0964 \u0936",
    "1334": "\u0939\u093e\u0921",
    "1335": "\u0928\u093f\u0930\u094d",
    "1336": "\u0936\u093e\u0938\u0928",
    "1337": "\u0932\u094d\u091f",
    "1338": "\u0917\u0941\u0935\u093e\u0939\u0930\u0942",
    "1339": "\u0964 \u0924\u094d\u092f",
    "1340": "\u094d\u0930\u093e \u092a",
    "1341": "\u092c\u0928\u093e\u090f",
    "1342": "\u093e\u0923",
    "1343": " \u091c\u094d\u091e",
    "1344": " \u092b\u0947\u0930\u093f",
    "1345": "\u0938\u0932",
    "1346": "\u0964\n\u092f\u0926\u093f",
    "1347": "\u092e\u094d\u0930",
    "1348": "\u0964 \u0905\u092c",
    "1349": " \u0907",
    "1350": " \u0926\u094d\u0935\u093e\u0930",
    "1351": " \u0905\u0918\u093f",
    "1352": " \u0938\u094d\u0935",
    "1353": "\u092b\u094d\u0928\u093e \u092a",
    "1354": "\u092a\u0924\u094d\u0924\u093f",
    "1355": "\u0942\u0930\u094d\u0935",
    "1356": "\u0915\u093f\u0928\u092d\u0928\u0947 ",
    "1357": "\u0915\u093e \u092a\u093f\u0924\u093e \u0925\u093f\u090f",
    "1358": "\u093e\u0915\u094b ",
    "1359": "\u0932 \u0938\u092e\u0942\u0939",
    "1360": " \u0926\u0941\u0937\u094d\u091f \u092e\u093e\u0928\u093f\u0938\u0939\u0930\u0942",
    "1361": "\u092e\u0940",
    "1362": "\u0926\u0947\u0935",
    "1363": " \u0936\u0941\u0930\u0942",
    "1364": "\u091b\u0964\n",
    "1365": "\u0964 \u0924\u093f\u092e\u0940",
    "1366": " \u092a\u0941\u0917",
    "1367": "\u0940 \u092a\u0924\u094d\u0928\u0940",
    "1368": "\u0932\u0947 \u092e\u093e\u0928\u093f\u0938\u0939\u0930\u0942",
    "1369": "\u0942\u0928",
    "1370": "\u0932\u093e\u0908 \u0918",
    "1371": "\u0928\u0941 \u092d\u092f\u094b ",
    "1372": "\u0928\u0941 \u092d\u090f\u0915\u094b \u0925\u093f\u092f\u094b",
    "1373": "\u091e\u094d",
    "1374": "\u0926\u0948\u0928\u0928\u094d",
    "1375": "\u091c\u093f\u0915",
    "1376": " \u0926\u0941\u0903\u0916",
    "1377": " \u092d\u0928\u0947, \u201c",
    "1378": "\u092e\u0938",
    "1379": ", \u0936",
    "1380": "\u0947\u0930\u093e \u092a",
    "1381": "\u092e\u093e\u0908",
    "1382": "\u093e-",
    "1383": "\u091c\u093e\u0930",
    "1384": "\u0917\u092e\u0935\u0915\u094d\u0924\u093e\u0939\u0930\u0942",
    "1385": "\u0936\u094d\u0936\u0942\u0930",
    "1386": "\u093e\u0939\u094d\u0930\u0948",
    "1387": "\u0915\u094b \u0924",
    "1388": "\u0932\u0947 \u0917\u0930\u094d\u0926\u093e ",
    "1389": "\u0940\u0938",
    "1390": "\u094b\u091c\u0928",
    "1391": "\u092f\u093e\u0901 \u0930\u093e\u091c\u093e ",
    "1392": " \u0917\u0930\u094d\u0928\u0941\u0939\u0941\u0928\u094d\u091b",
    "1393": "\u0928\u0941\u092d\u092f\u094b, \u201c",
    "1394": " \u092c\u0928\u093e\u0909",
    "1395": " \u0939\u0941\u0928\u0947\u091b\u0928\u094d",
    "1396": "\u092e\u0928\u094d\u0926\u093f\u0930",
    "1397": " 1",
    "1398": "\u0932\u0947 \u092f\u0930\u0942\u0936\u0932\u0947\u092e",
    "1399": " \u0939\u0941\u0928\u0941",
    "1400": "\u0915\u093e \u0930\u093e\u091c\u093e\u0939\u0930\u0942",
    "1401": " \u0930 \u092e",
    "1402": "\u0964\n\u0938",
    "1403": "\u093f\u0902\u0921",
    "1404": " \u0917\u0930\u094d\u0928\u0941\u0939\u094b\u0938\u094d",
    "1405": "\u0964 \u0907\u0938\u094d\u0930\u093e\u090f\u0932",
    "1406": "\u0915\u094b \u0938\u0947\u0935",
    "1407": "\u092b\u093f\u0930\u090a\u0928",
    "1408": "\u091c\u094d\u092f\u093e\u0939",
    "1409": "\u0938\u094d\u0930\u094b ",
    "1410": "\u0932\u0947 \u0909\u0924\u094d\u0924\u0930",
    "1411": "\u0964 \u092e\u0948\u0932\u0947 ",
    "1412": "\u0947 \u0930",
    "1413": "\u0920\u0940\u0915",
    "1414": " \u0915\u0941\u0930",
    "1415": " \u0939\u093e\u092e\u094d\u0930\u093e ",
    "1416": "\u092d\u093f\u0924\u094d\u0930",
    "1417": " \u092e\u094b",
    "1418": "\u0943\u092a",
    "1419": "\u094d\u0937",
    "1420": "\u092e\u0948\u0932\u0947 ",
    "1421": " \u0905\u0928\u093f \u0924\u093f\u0928",
    "1422": "\u0932\u0947 \u0906\u092b",
    "1423": "\u093e\u0901\u091a\u094d\u091a",
    "1424": "\u0930\u094d\u092b",
    "1425": "\u0928\u094b\u0915",
    "1426": " \u0917\u0930\u094d\u0928\u0947\u091b\u0941",
    "1427": "\u0915\u094b \u0917",
    "1428": "\u092a\u0940",
    "1429": "\u0925\u093e ",
    "1430": "\u0943\u0923",
    "1431": "\u0939\u093f\u0928",
    "1432": "\u093f\u0928\u0941",
    "1433": "\u0928\u093f\u0930\u094d\u092e\u093e\u0923",
    "1434": "\u0928\u0941\u0938\u0930\u0923",
    "1435": " \u090f\u0932\u0940\u0936\u093e",
    "1436": "\u0964\n\u0926\u093e\u090a\u0926",
    "1437": " \u0930\u0939\u0947",
    "1438": "\u0936\u0948",
    "1439": " \u0930\u093e\u0916\u094d",
    "1440": "\u0932\u093e\u0908 \u092d\u0947\u091f",
    "1441": " \u092c\u0941",
    "1442": " \u0924\u0940\u0928",
    "1443": "\u0932\u0947 \u0924\u093f\u0928\u0940\u0939\u0930\u0942\u0932\u093e\u0908",
    "1444": "\u0928\u094d\u0924\u094d\u0930",
    "1445": "\u093e\u0935",
    "1446": "\u0915\u094b \u0938\u092e\u094d",
    "1447": "\u092e\u093e \u092f",
    "1448": "\u0964 \u092a",
    "1449": "\u0926\u0941\u0907",
    "1450": "\u090f\u0915\u094b",
    "1451": "\u0964\u201d\n\u092f\u0938",
    "1452": "\u0905\u092c",
    "1453": " \u0926\u093f\u090f, \u201c",
    "1454": "\u0942\u0932\u094d\u092f",
    "1455": "\u094b\u091a",
    "1456": "\u0939\u093e\u092f\u0924\u093e \u0917\u0930\u094d",
    "1457": " \u0930 \u0938",
    "1458": " \u0932\u093e",
    "1459": "\u0932\u0947 \u0938\u092c\u0948",
    "1460": " \u0930\u093e\u091c",
    "1461": "\u0927\u093e\u0928",
    "1462": ", \u092a",
    "1463": "\u094d\u092f\u093e\u0928",
    "1464": " \u0905\u0928\u093f \u0938",
    "1465": " \u0909\u092d",
    "1466": " \u092a\u094d\u0930\u092f\u094b\u0917",
    "1467": "\u0936\u0941",
    "1468": "\u0939\u091c",
    "1469": "\u0964\u2019\n",
    "1470": " \u092d\u090f\u0930",
    "1471": " \u0939\u093f\u0902\u0921",
    "1472": "\u092e\u093e \u092d\u090f",
    "1473": " \u201c",
    "1474": "\u0915\u094b \u092a\u0930\u093f\u0935\u093e\u0930",
    "1475": " \u092d\u093f\u0924\u094d\u0930",
    "1476": ", \u092a\u0930\u092e\u092a\u094d\u0930\u092d\u0941",
    "1477": "\u0938\u093f",
    "1478": "\u0932\u0947 \u0924\u0940 ",
    "1479": "\u0964 \u090f",
    "1480": " \u0917\u0930\u094d\u091b\u0928\u094d",
    "1481": "\u093e\u0930\u094d\u0925\u0928\u093e ",
    "1482": "\u0915\u094b \u0906\u091c\u094d\u091e",
    "1483": "\u091c\u094d\u091e\u093e\u0928",
    "1484": "\u093e\u0930\u094b\u092c\u093e\u092e",
    "1485": "\u0939\u091c\u094d\u092f\u093e\u0939",
    "1486": " \u0917\u093f",
    "1487": "\u0938\u0930\u094d\u0935\u0926\u093e ",
    "1488": "\u0915\u093e \u0938\u092c\u0948 \u092e\u093e\u0928\u093f\u0938\u0939\u0930\u0942",
    "1489": "\u091d\u0948\u0902",
    "1490": "\u0926\u093f\u0928\u0941\u0939\u094b\u0938\u094d",
    "1491": "\u093f\u0930\u094d",
    "1492": " \u0916\u093e",
    "1493": " \u0905\u0928\u094d\u092f",
    "1494": "\u0932\u093e\u0908 \u0926\u093f\u090f",
    "1495": "\u0964\n\u092f\u0938\u0930\u094d\u0925",
    "1496": "\u0926\u0925\u0947",
    "1497": "\u093e \u0905\u0928\u093f",
    "1498": "\u092e\u093e \u0925\u093f\u090f",
    "1499": "\u0932\u0947 \u0916",
    "1500": " \u0924\u093f\u092e\u094d\u0930\u093e ",
    "1501": " \u0913",
    "1502": "\u0928\u093f\u0928\u094d",
    "1503": "\u0964\n\u201c",
    "1504": "\u0943\u0937\u094d\u091f",
    "1505": "\u0937\u094d",
    "1506": "\u0935\u0924",
    "1507": "\u0926\u094b ",
    "1508": "\u0941\u0926\u094d\u0927\u093f",
    "1509": " \u0917\u0930\u094d\u0928\u0941\u092d\u092f\u094b",
    "1510": " \u0924\u0940 \u092e\u093e\u0928\u093f\u0938\u0939\u0930\u0942",
    "1511": "\u0930\u094b\u0938",
    "1512": "\u092b\u0930\u094d\u0915",
    "1513": " \u0905\u0930\u0942",
    "1514": "\u094d\u092f\u093e",
    "1515": "\u0932\u093e\u0908 \u0930",
    "1516": "\u0905\u0918\u093f",
    "1517": "\u091b\u094b\u0930\u094b",
    "1518": "\u0947\u0928\u093e\u092a",
    "1519": "\u0928\u093f\u092f\u092e",
    "1520": "\u0902\u0915\u091f",
    "1521": "\u0915\u093e \u092a\u094d\u0930",
    "1522": " \u092a\u093e\u092a",
    "1523": "\u0943\u0926\u092f",
    "1524": "\u093e\u092e\u0930",
    "1525": "\u0939\u0947\u0932",
    "1526": "\u092e\u093e \u0924",
    "1527": "\u092c\u0930",
    "1528": "\u0930\u0942\u0916",
    "1529": "\u0927\u0928",
    "1530": "\u0939\u0941\u0928\u0941\u0939\u0941\u0928\u094d\u091b",
    "1531": "\u0932\u0947 \u0930\u093e\u091c\u093e",
    "1532": " \u0917\u0930\u0947\u0915\u094b ",
    "1533": " \u092a\u094d\u0930\u093e\u0930\u094d\u0925\u0928",
    "1534": "\u0930\u094d\u0925",
    "1535": "\u0932\u0947 \u0924\u093f\u092e\u0940\u0939\u0930\u0942",
    "1536": "\u0928\u093f\u0938\u094d",
    "1537": "\u091b\u094b\u0930\u0940",
    "1538": " \u0917\u0930\u0947 \u0905\u0928\u093f",
    "1539": "\u0947\u0932\u0947",
    "1540": " \u0905\u091d",
    "1541": " \u0917\u0941",
    "1542": "\u0918\u091f",
    "1543": "\u0964 \u0915",
    "1544": "\u092e\u0938\u094d\u092f\u093e\u0939",
    "1545": "\u0928\u094d\u092f\u093e\u0939",
    "1546": " \u092f\u094b\u0906\u092c",
    "1547": "\u093f\u092f\u094b ",
    "1548": "\u0928\u094d\u0926\u0947\u0936",
    "1549": "\u0964\u201d\u2018",
    "1550": " \u0924\u092a\u093e\u0908\u0902\u0915\u094b ",
    "1551": "\u0947\u0915\u093e",
    "1552": " \u092c\u0922",
    "1553": "\u0943\u0937\u094d\u091f\u093f",
    "1554": "\u092d\u0928\u094d\u0926\u093e ",
    "1555": " \u0939\u094b ",
    "1556": "!\u201d",
    "1557": "\u093f\u0930\u094b\u0927",
    "1558": " \u0939\u093e\u092e\u094d\u0930\u094b ",
    "1559": "\u0930\u093e\u0909\u0901",
    "1560": " \u092e\u0927\u094d\u092f\u0947 ",
    "1561": " \u0917\u0930\u0947\u0915\u093e \u0925\u093f\u090f",
    "1562": " \u0909\u0928\u0940",
    "1563": "\u092e\u093e\u0924\u094d\u0930",
    "1564": "\u090f\u0932\u0940\u0936\u093e",
    "1565": "\u0932\u0941\u0917",
    "1566": "\u094b\u092a",
    "1567": "\u0964 \u092e\u093e\u0928\u093f\u0938\u0939\u0930\u0942",
    "1568": "\u0939\u093f\u0932\u094b ",
    "1569": " \u0938\u0939",
    "1570": " \u0936\u0915\u094d\u0924\u093f\u0936\u093e\u0932",
    "1571": "-\u0917",
    "1572": "\u094d\u092f\u093e\u0932",
    "1573": "\u094d\u0930\u094b\u0927",
    "1574": "\u0937\u094d\u091f\u094d\u0930",
    "1575": "\u0917\u0930\u0947",
    "1576": "\u091b\u0928",
    "1577": "\u0915\u0941\u0930",
    "1578": "\u093e\u090f\u0901",
    "1579": "\u0938\u0941\u0928\u094d",
    "1580": "\u0920\u093e ",
    "1581": "\u0964 \u091c",
    "1582": "\u092f\u0939\u0942\u0926\u093e",
    "1583": "\u094d\u0930\u093e\u092e",
    "1584": " \u0928\u093f\u0915\u093e\u0932",
    "1585": "\u0964 \u092e\u0948",
    "1586": " \u0917\u0930\u0947\u0964\n",
    "1587": "\u0915\u093e \u0915",
    "1588": " \u0925\u093f\u090f\u0964 \u0924\u093f\u0928\u0940\u0939\u0930\u0942",
    "1589": "\u0940 \u0925\u093f\u090f",
    "1590": "\u0928\u0941 \u092d\u090f\u0915\u094b \u091b",
    "1591": "\u0930\u0942\u092c",
    "1592": " \u092c\u0938\u094d",
    "1593": " \u092f\u0938\u094d\u0924\u094b ",
    "1594": " \u0916\u093e\u0928",
    "1595": "\u092c\u094d\u0936\u093e\u0932\u094b\u092e",
    "1596": "\u0915\u093e \u092c",
    "1597": "\u092c\u093e\u0926",
    "1598": " \u091a\u0940\u091c",
    "1599": "\u0906\u0939\u093e\u092c",
    "1600": " \u091c\u093e\u090a",
    "1601": " \u0930\u093e\u0924",
    "1602": " \u0938\u093f\u0924",
    "1603": " \u0905\u0939\u093f",
    "1604": "\u0938\u0941\u0928\u0947",
    "1605": "\u0915\u093e \u092e",
    "1606": "\u0942\u0930\u094d\u0916",
    "1607": ", \u0915",
    "1608": "\u093e\u0928\u0940 ",
    "1609": "\u0947\u092c",
    "1610": "\u0926\u093f\u0928\u0941 \u092d\u092f\u094b",
    "1611": "\u0940\u0935\u093f\u0924",
    "1612": "\u092e\u093e \u092c\u0938\u094d",
    "1613": " \u092c\u0924",
    "1614": "\u0964 \u0938\u0941\u0932\u0947\u092e\u093e\u0928",
    "1615": "\u0938\u094d\u0924\u0941\u0939\u0930\u0942",
    "1616": " \u092a\u0930\u094d\u0935\u0924",
    "1617": "\u0915\u094b \u091b\u0947\u0909",
    "1618": "\u0928\u0940 ",
    "1619": "\u094d\u0930\u0939",
    "1620": " \u0938\u092e\u092f\u092e\u093e ",
    "1621": "\u0932\u093e\u0908 \u0906\u0936\u0940\u0930\u094d\u0935\u093e\u0926",
    "1622": "\u092d\u090f\u0915\u094b ",
    "1623": " \u0935\u094d\u092f\u0915\u094d\u0924\u093f",
    "1624": " \u0928\u093f\u0930\u094d",
    "1625": "\u0938\u094d\u0935",
    "1626": "\u0935\u094d\u092f\u0915\u094d\u0924\u093f",
    "1627": "\u094b\u0938\u094d",
    "1628": "\u0930\u0938",
    "1629": "\u0942\u0922",
    "1630": "\u093e\u0901\u0938\u093e",
    "1631": "\u0927\u0930\u094d\u092e",
    "1632": ", \u090f",
    "1633": "\u092e\u093e \u092a\u094d\u0930",
    "1634": "\u093f\u0924\u093e-\u092a",
    "1635": " \u0915\u0941\u0930\u093e ",
    "1636": "\u091e\u094d\u091c",
    "1637": "\u091c\u094b ",
    "1638": " \u0926\u093f\u0928\u0947 ",
    "1639": "\u0941\u0915\u094d\u0924",
    "1640": "\u0930\u093e\u092e\u094d\u0930\u093e ",
    "1641": "\u0926\u0947\u0936\u0939\u0930\u0942",
    "1642": "\u091a\u094c",
    "1643": ", \u092a\u0930\u092e\u0947\u0936\u094d\u0935\u0930",
    "1644": "\u0930\u0942\u0923",
    "1645": "\u092f\u094b\u0906\u0936",
    "1646": "\u0915\u094b \u0939",
    "1647": "\u0939\u0930\u0942\u0932\u0947 ",
    "1648": "\u0932\u0947 \u092f\u0939\u0942\u0926\u093e",
    "1649": " \u0917\u0930\u0947\u0928\u0928\u094d",
    "1650": "\u0924\u094d\u092f\u0939\u093e\u0901",
    "1651": " \u0936\u093e",
    "1652": " \u0906\u0915\u094d\u0930\u092e\u0923",
    "1653": "\u0941\u0930\u094d\u092f",
    "1654": "\u092f\u093e ",
    "1655": "\u0932\u0947 \u090f",
    "1656": "\u0932\u093e\u0908 \u0926\u0923\u094d\u0921",
    "1657": "\u0939\u0926\u0926",
    "1658": "\u0928\u094d\u0925\u0947",
    "1659": "\u0964 \u0924\u093f\u092e\u0940\u0939\u0930\u0942",
    "1660": "\u0932\u093e\u0908 \u0928\u0937\u094d\u091f",
    "1661": "? \u0915\u093f\u0928\u092d\u0928\u0947 ",
    "1662": "\u092e\u093e \u0932\u0947\u0916\u093f\u090f",
    "1663": " \u0905\u0928\u093f \u0924\u094d\u092f\u0938",
    "1664": " \u0924\u092a\u093e\u0908",
    "1665": "\u092f\u0902",
    "1666": "\u092e\u093e \u0928",
    "1667": "\u0932\u094d\u0932\u093e\u0939",
    "1668": "\u0948\u092e",
    "1669": "\u0936\u093e ",
    "1670": " \u0905\u0928\u093f \u092f",
    "1671": "\u0930\u0940\u0930",
    "1672": " \u092f\u0938\u0915\u093e\u0930\u0923",
    "1673": " \u092a\u093e\u090f",
    "1674": "\u094b\u092e\u093e ",
    "1675": " \u0915\u0938\u0948\u0932\u0947 ",
    "1676": "\u0964 \u0939\u0947 ",
    "1677": " \u0928\u0937\u094d\u091f",
    "1678": "\u0939\u0941\u0928",
    "1679": "\u093e\u092e\u093e\u0930",
    "1680": " \u092d\u092f",
    "1681": "\u091f\u094d",
    "1682": "\u0938\u094d\u0924\u0941\u0924\u093f",
    "1683": "\u0935\u0930\u094d\u0937",
    "1684": "\u0964\n\u0939\u0947 \u092a\u0930\u092e\u092a\u094d\u0930\u092d\u0941, \u092e",
    "1685": "\u0932\u093e\u0908 \u0906\u092b\u094d\u0928\u094b ",
    "1686": "\u091a\u093f\u0939\u093e\u0928",
    "1687": "\u0915\u093e \u091b\u094c",
    "1688": "\u0935\u093f\u0936\u094d\u0935\u093e\u0938",
    "1689": " \u0917\u0930\u093f\u0930\u0939\u0947",
    "1690": ", \u0930",
    "1691": "\u0924\u093e\u0928",
    "1692": "\u0940\u0939\u0930\u0942\u0932\u0947 ",
    "1693": " \u0926\u093f\u0928\u0941 \u092d\u092f\u094b",
    "1694": " \u0939\u0941\u0928\u0947 ",
    "1695": "\u0915\u094b \u0907",
    "1696": "\u0928\u093f\u090f",
    "1697": "\u0938\u0901\u0917\u0948",
    "1698": "\u0938\u0940",
    "1699": "\u092e\u0940\u0928",
    "1700": "\u0926\u0930",
    "1701": "\u0932\u094d\u0924",
    "1702": "\u0926\u093e\u091c\u094d\u092f\u0942-\u092d\u093e\u0907\u0939\u0930\u0942",
    "1703": " \u0926\u093e\u0916",
    "1704": "\u092e\u094b",
    "1705": "\u092e\u092c\u0932\u093f",
    "1706": " \u0909\u0928\u0932\u0947 ",
    "1707": "\u0928\u0936\u094d\u0936\u0947",
    "1708": " \u0905\u0930\u094d\u092a\u0923",
    "1709": "\u094b \u092a",
    "1710": "\u094b\u0921\u093e ",
    "1711": "\u0932\u093e\u0908 \u092e\u093e\u0930\u0947",
    "1712": "\u0936\u0924\u094d\u0930\u0941",
    "1713": " \u0938\u093f",
    "1714": " \u092d\u092f\u094b ",
    "1715": "\u0926\u093e\u0930",
    "1716": "\u0915\u094b \u0938\u093e\u092e\u0941",
    "1717": " \u092a\u0935\u093f\u0924\u094d\u0930",
    "1718": " \u0915\u094d\u0930\u094b\u0927",
    "1719": "\u093e \u0917\u0930\u094d\u0928\u0947 ",
    "1720": "\u0939\u094b\u092f\u093e",
    "1721": " \u0906\u092b\u0942",
    "1722": "\u0938\u094d\u0924\u094d\u0930",
    "1723": " \u091c\u093f",
    "1724": "\u094d\u0936\u093e\u0932\u094b\u092e",
    "1725": " \u092e\u0932\u093e\u0908",
    "1726": " \u092c\u0928\u093e\u0909\u0928\u0941 \u092d\u092f\u094b",
    "1727": " \u0905\u092f\u094d\u092f\u0942\u092c",
    "1728": "\u0938\u093e\u0925",
    "1729": " \u092a\u093e\u0930",
    "1730": "\u0915\u0930\u094d\u092e",
    "1731": "\u0932\u0947 \u0915\u0947 ",
    "1732": "\u0935\u0948",
    "1733": "\u0928\u094d\u091b\u094c",
    "1734": "\u092e\u093e\u0930",
    "1735": "\u092e\u093e \u0932\u094d\u092f",
    "1736": "\u0932\u0947 \u092e\u0932\u093e\u0908 \u0938",
    "1737": "\u093e\u0932\u093e ",
    "1738": " \u0915\u094d\u0937",
    "1739": " \u0938\u092e\u094d\u091d",
    "1740": "\u0924\u093f\u092e\u094d\u0930\u094b ",
    "1741": "\u0928\u094d\u0924\u0940",
    "1742": "\u0964\n\u092a\u0930\u092e\u0947\u0936\u094d\u0935\u0930\u0932\u0947 ",
    "1743": "\u092f\u094b\u0936\u093f\u092f\u093e\u0939",
    "1744": "\u093e\u090a\u0932",
    "1745": "\u0938\u093e\u0928",
    "1746": "\u0932\u093e\u0926",
    "1747": "\u0926\u0942\u0924\u0939\u0930\u0942",
    "1748": "\u0947\u0928\u093e\u0939\u0930\u0942",
    "1749": "\u0902\u0938\u0940",
    "1750": " \u0938\u094d\u0924",
    "1751": "\u0964\u201d\u2018\n",
    "1752": ", \u0924\u093f\u092e\u0940",
    "1753": " \u0917\u0930\u0947\u0902",
    "1754": "\u092c\u093e\u0901",
    "1755": " \u0917\u0930\u0947\u0930",
    "1756": "\u0939\u094b\u0907\u0928",
    "1757": "\u0901\u0916",
    "1758": "\u0928\u093e\u0928\u0940\u0939\u0930\u0942",
    "1759": "\u0926\u0941\u0937\u094d\u091f \u092e\u093e\u0928\u093f\u0938\u0939\u0930\u0942",
    "1760": "\u0915\u094b \u0905\u0918\u093f",
    "1761": "\u094b\u091f",
    "1762": "\u0964\n\u0905\u092c",
    "1763": " \u0930 ",
    "1764": "\u0932\u093e\u0908 \u0932",
    "1765": "\u0930\u093e\u091c\u093e \u0926\u093e\u090a\u0926",
    "1766": "\u0926\u093e-",
    "1767": "\u093f\u090f\u0915\u093e \u0925\u093f\u090f",
    "1768": " \u091f\u093e\u0922",
    "1769": "\u0924\u093f\u092e",
    "1770": " \u092a\u093e\u0909",
    "1771": "\u0915\u094d\u0915",
    "1772": "\u092d\u0928\u094d",
    "1773": "\u092c\u093e ",
    "1774": "\u0915\u093e \u091c",
    "1775": ", \u0939\u093e\u092e\u0940",
    "1776": "\u0924\u093f\u0939\u093e\u0938",
    "1777": "\u090a\u0932",
    "1778": " \u092c\u0938\u0947",
    "1779": "\u092f\u094b, \u201c",
    "1780": " \u092d\u0928\u094d\u0928\u0947 ",
    "1781": "\u092a\u094d\u0930\u0948\u092e",
    "1782": " \u092c\u093f\u0928\u094d\u092f\u093e\u092e\u0940\u0928",
    "1783": " \u0938\u0927\u0948\u0902",
    "1784": "\u0936\u093e\u0938",
    "1785": "\u0915\u094b \u091b\u094b\u0930\u093e ",
    "1786": "\u0932\u093e\u0908 \u0909",
    "1787": "\u0906\u0926\u0947\u0936",
    "1788": "\u091a\u0941",
    "1789": "\u094d\u091b",
    "1790": "\u090f\u0915\u091c\u0928\u093e ",
    "1791": " \u0930\u0942\u092a",
    "1792": "\u0964\n\u092e\u093e\u0928\u093f\u0938\u0939\u0930\u0942",
    "1793": "\u0942\u092a",
    "1794": "\u091c\u0930\u094d\u092f\u093e\u0939",
    "1795": " \u0905\u0928\u094d\u0928",
    "1796": " \u0915\u0939\u093f\u0932\u094d\u092f\u0948",
    "1797": "\u0936\u0938\u094d\u0924",
    "1798": "\u0915\u094b \u092c\u093e\u0930\u0947",
    "1799": "\u0938\u094d\u0924\u0930",
    "1800": "\u092e\u093f\u0915",
    "1801": " \u0915\u0930\u0942\u0923",
    "1802": "\u0932\u093e\u0908 \u092c\u094b\u0932",
    "1803": " \u0905\u0925\u0935\u093e ",
    "1804": "\u0964\u201d\n\u0924\u094d\u092f\u0938",
    "1805": " \u092b\u0930\u094d\u0915\u0947\u0930",
    "1806": " \u0928\u093f\u0938\u094d",
    "1807": " \u0917\u0930\u094d\u091b\u0941",
    "1808": " \u092c\u093e\u0901",
    "1809": "\u093e\u0932\u0947 ",
    "1810": "\u091c\u0947\u0930",
    "1811": "\u0928\u0941\u092d\u092f\u094b ",
    "1812": "\u091f\u0940",
    "1813": " \u0916\u094b",
    "1814": "\u092f\u094b\u0930\u093e\u092e",
    "1815": " \u0905\u0927\u093f\u0915\u093e\u0930\u0940\u0939\u0930\u0942",
    "1816": "\u0932\u093e\u0908 \u0935\u093f",
    "1817": "\u0939\u0947\u0930\u091a\u093e\u0939",
    "1818": " \u0917\u0930\u094d\u091b",
    "1819": "\u0942\u0936",
    "1820": "\u093e \u092a\u093e\u0932\u0928",
    "1821": "\u0939\u0940\u0928\u093e",
    "1822": "\u091c\u0928\u093e\u0939\u0930\u0942",
    "1823": "\u093e\u0930\u094d\u092e\u093f\u0915",
    "1824": "\u0936\u093e\u090a\u0932",
    "1825": " \u092e\u0930\u0947",
    "1826": " \u0930\u0925",
    "1827": " \u0924\u0947\u0930\u094b ",
    "1828": "\u0916\u0941\u0936\u0940",
    "1829": " \u0909\u0938\u0915\u094b ",
    "1830": "\u092d\u0930\u093f",
    "1831": "\u0923\u092f",
    "1832": " \u0932\u0917\u093e\u090f",
    "1833": "\u0928\u093e\u0928\u0940",
    "1834": "\u0932\u094b",
    "1835": "\u0943\u0924",
    "1836": " \u092e \u0924\u092a\u093e\u0908\u0902",
    "1837": "\u0915\u094b \u0938\u0928\u094d\u0926\u0942\u0915",
    "1838": " \u092d\u0947\u0921",
    "1839": "\u0940\u0939\u0930\u0941",
    "1840": "\u0928\u0928\u094d\u0924",
    "1841": "\u092c\u094d\u0930\u094b\u0928",
    "1842": "\u094d\u200c",
    "1843": "\u0915\u0938",
    "1844": " \u0915\u094d\u0930\u094b\u0927\u093f\u0924",
    "1845": " \u092f\u0940",
    "1846": "\u0930\u093e\u0924",
    "1847": "\u0964\n\u092e\u0948\u0932\u0947 ",
    "1848": "\u094b \u0917\u0930\u094d",
    "1849": "\u0932\u093e\u0908 \u092d\u0928\u0947",
    "1850": "\u0964 \u092a\u094d\u0930\u0924\u094d\u092f\u0947\u0915",
    "1851": " \u0905\u0930\u093e\u092e",
    "1852": "\u091a\u093e\u0901\u0926\u0940",
    "1853": " \u092c\u094b\u0932",
    "1854": "\u0907\u0930\u0939\u0947",
    "1855": " \u092a\u093f",
    "1856": "? \u0915\u0947 ",
    "1857": " \u0930\u093e\u092e\u094d\u0930\u094b ",
    "1858": "\u0915\u094b \u0935\u093f\u0930\u094b\u0927",
    "1859": "\u0936\u094d\u0930",
    "1860": " \u0926\u093f\u0928\u0941\u0939\u0941\u0928\u094d\u091b",
    "1861": " \u0938\u0941\u0930\u0915\u094d\u0937",
    "1862": " \u0936\u0939\u0930\u0939\u0930\u0942",
    "1863": " \u092a\u0930\u094d\u091b",
    "1864": "\u0942\u0930\u094d\u0924\u093f\u0939\u0930\u0942",
    "1865": "\u093f\u0924\u093e-\u092a\u0941\u0930\u094d\u0916\u093e\u0939\u0930\u0942",
    "1866": "\u0915\u094d\u0924\u091c\u0928",
    "1867": "\u0948\u0928\u093f\u0915",
    "1868": " \u0926\u0923\u094d\u0921",
    "1869": "\u0964\n\u091c",
    "1870": " \u0935\u093f\u0936\u094d\u0935\u093e\u0938",
    "1871": "\u0964\u201d\n\u092f\u0938\u0915\u093e\u0930\u0923",
    "1872": "\u093e\u092e\u0940",
    "1873": "\u092a\u093f",
    "1874": " \u0939\u094c",
    "1875": "\u093e\u0909\u0928\u0941",
    "1876": "\u0932\u0947 \u091c\u0947 ",
    "1877": "\u092c\u093e\u091f \u092c\u091a",
    "1878": "\u092e\u093e \u092c\u0938\u094d\u0928\u0947 ",
    "1879": " \u092c\u0941\u091d",
    "1880": "\u0964 \u0924\u094d\u092f\u0939\u093e\u0901",
    "1881": "\u0938\u094d\u0928\u0947",
    "1882": "\u092c\u0928\u093e",
    "1883": "\u0927\u0948",
    "1884": " 2",
    "1885": "\u0916\u093e\u0928",
    "1886": "\u091e\u094d\u091c\u0947\u0932",
    "1887": "\u0915\u093e \u0935\u093f",
    "1888": "\u0922\u0941\u0919\u094d\u0917",
    "1889": "\u0928 \u0938\u0915\u094d\u091b",
    "1890": "\u0917\u092e\u0935\u0915\u094d\u0924\u093e ",
    "1891": "\u0926\u093f\u0928\u0941 \u0939\u094b\u0938\u094d",
    "1892": "\u0928\u0941 \u0939\u0941\u0901",
    "1893": " \u0938\u093e\u0925",
    "1894": " \u092e\u093f",
    "1895": "\u0932\u0947 \u0924\u0940 \u092e\u093e\u0928\u093f\u0938\u0939\u0930\u0942",
    "1896": " \u091a\u093e\u0901\u0926\u0940",
    "1897": "\u0915\u0930\u093e\u0930",
    "1898": "\u092a\u0930\u092e\u092a\u094d\u0930\u092d\u0941 \u092a\u0930\u092e\u0947\u0936\u094d\u0935\u0930",
    "1899": " \u092a\u0930\u092e\u092a\u094d\u0930\u092d\u0941\u0915\u094b \u092e\u0928\u094d\u0926\u093f\u0930",
    "1900": "\u090f\u0932\u093f\u092f\u093e",
    "1901": " \u0939\u0941\u0928\u094d\u091b\u0928\u094d",
    "1902": " \u0930 \u0924\u093f\u0928",
    "1903": "\u094b\u0928\u093e",
    "1904": "\u094b\u0928\u093e\u0925",
    "1905": "\u094b\u0928\u093e\u0925\u0928",
    "1906": " \u091c\u0940\u0935\u0928",
    "1907": "\u092e\u0947\u0930\u093e ",
    "1908": " \u0924\u092a\u093e\u0908\u0902\u0932\u0947 ",
    "1909": " \u091a\u0940\u091c\u0939\u0930\u0942",
    "1910": "\u0930\u0942\u0928",
    "1911": "\u091a\u093f\u0924",
    "1912": " \u0909\u091c\u094d\u091c",
    "1913": "\u0915\u093e \u0915\u0941\u0930\u093e\u0939\u0930\u0942",
    "1914": "\u093e\u092a\u094d\u0924",
    "1915": " \u0917\u0930\u094d\u0926\u0948",
    "1916": "\u092e\u094d\u092e\u094b\u0928",
    "1917": " \u091c\u0940\u0935\u093f\u0924",
    "1918": " \u0906\u0907\u092e\u093e\u0908",
    "1919": "\u0940 \u0925\u093f\u0907\u0928\u094d",
    "1920": "\u094d\u0928\u0947 \u091b\u0948\u0928",
    "1921": " \u092d\u0928\u094d\u0926",
    "1922": "\u0964 \u0915\u093f\u0928",
    "1923": "\u0927\u094d\u092f\u093e\u0928",
    "1924": " \u0905\u0928\u0941\u0938\u093e\u0930",
    "1925": "\u0915\u094b \u0938\u094d\u0924\u0941\u0924\u093f",
    "1926": " \u092c\u0932\u093f",
    "1927": "\u0930\u093e\u091c\u093e \u0938\u0941\u0932\u0947\u092e\u093e\u0928",
    "1928": "\u0939\u094b\u092f",
    "1929": "\u094b\u0939",
    "1930": "\u0902\u0938\u093e\u0930",
    "1931": " \u0938\u093e\u0924",
    "1932": "\u0928\u0947\u0939\u0930\u0942",
    "1933": "\u0964\n\u0924\u0940",
    "1934": "\u0915\u094b \u0909\u092a",
    "1935": "\u0915\u093e \u0938\u092e",
    "1936": "\u0906\u0939\u093e\u091c",
    "1937": "\u0939\u0942\u0926\u0940\u0939\u0930\u0942",
    "1938": "\u0932\u0947 \u091c\u0935\u093e\u092b",
    "1939": "\u0915\u093e \u0905\u0927\u093f\u0915\u093e\u0930\u0940\u0939\u0930\u0942",
    "1940": "\u092c\u093e\u091f \u092e",
    "1941": " \u0915\u0947\u0939\u0940 ",
    "1942": " \u0917\u0930\u0940",
    "1943": "\u092c\u094d\u0926",
    "1944": " \u0936\u0924\u094d\u0930",
    "1945": "\u093e\u0930\u0947 ",
    "1946": "\u0939\u0924\u094d\u0935",
    "1947": "\u092f\u093e\u0901 \u0930\u093e\u091c\u093e \u092d\u090f",
    "1948": " \u092f\u0930\u0942\u0936\u0932\u0947\u092e\u092e\u093e ",
    "1949": "\u0930\u094d\u0916\u093e\u0932",
    "1950": " \u0906\u0928\u0928\u094d\u0926",
    "1951": "\u091c\u0938\u094d\u0924\u0948",
    "1952": "\u093e\u0909\u0928\u0947\u091b\u0941",
    "1953": "\u0928\u094d\u092f\u0935\u093e\u0926",
    "1954": "\u093e\u0928\u094d\u0924",
    "1955": "\u0915\u0940 \u092a\u0924\u094d\u0928\u0940",
    "1956": " \u0915\u092e",
    "1957": "\u0915\u094b \u0915\u0930\u093e\u0930",
    "1958": "\u0932\u0947 \u092f\u0942\u0938\u0941\u092b",
    "1959": "\u0935\u0930\u093f\u092a\u0930\u093f",
    "1960": "\u0930\u0915\u094d\u0937\u093e \u0917\u0930\u094d",
    "1961": " \u0924\u0925\u093e ",
    "1962": "\u0930\u0939\u092c\u093e\u092e",
    "1963": "\u0928\u0941 \u092a\u0930\u094d\u0928\u0947 ",
    "1964": "\u0964\n\u0939\u0947 \u092a\u0930\u092e\u092a\u094d\u0930\u092d\u0941, \u0924\u092a\u093e\u0908\u0902",
    "1965": "\u0939\u092a\u0942\u0930\u094d\u0923",
    "1966": "\u0930\u094d\u0926\u0915\u0948",
    "1967": "\u0964\n\u0905\u092f\u094d\u092f\u0942\u092c",
    "1968": "\u0935\u0940",
    "1969": "\u0964 \u0905\u0928\u093f \u0924\u093f\u0928\u0940\u0939\u0930\u0942",
    "1970": "-\u092c",
    "1971": " \u0939\u094b\u0907\u0928",
    "1972": "\u0930\u0942\u092d\u0942\u092e\u093f",
    "1973": " \u092c\u0947\u0924",
    "1974": "\u0932\u094d\u0932\u093e",
    "1975": "\u0928\u094d\u0924\u093e\u0928\u0939\u0930\u0942",
    "1976": "\u0935\u093e\u091c",
    "1977": " \u092a\u0941\u0930\u094d\u092f",
    "1978": "\u0928 \u0938\u0915",
    "1979": "\u0915\u093e \u0938\u0947\u0935\u0915\u0939\u0930\u0942",
    "1980": "\u092a\u0930\u094d\u091b",
    "1981": "\u0924\u094d\u0938",
    "1982": " \u0935\u093e",
    "1983": " \u092a\u0930\u092e\u092a\u094d\u0930\u092d\u0941\u0932\u0947 ",
    "1984": ", \u0917",
    "1985": ", \u0906",
    "1986": "\u094b\u091a\u094d",
    "1987": " \u0915\u0947\u091f",
    "1988": "\u0932\u093e\u0908 \u0924\u093f\u0928\u0940\u0939\u0930\u0942",
    "1989": "\u093e\u0909\u0901\u091b\u0928\u094d",
    "1990": " \u092a\u0930\u094d\u0916",
    "1991": "\u0930\u0947\u0915",
    "1992": "\u0936\u0947\u0937",
    "1993": "\u0905\u0928\u0941",
    "1994": "\u0932\u0947 \u092e\u0928\u094d\u0926\u093f\u0930",
    "1995": "\u0938\u0930",
    "1996": "\u0939\u092a\u0942\u0930\u094d\u0923 \u0915\u0930\u0942\u0923",
    "1997": "\u093f\u090f\u0915\u094b ",
    "1998": "\u091c\u093e\u090a",
    "1999": " \u0909\u0928\u0940\u0939\u0930\u0942",
    "2000": "\u0935\u093e\u0938",
    "2001": "\u091c\u094d\u091e\u093e ",
    "2002": " \u0907\u0938\u094d\u0930\u093e\u090f\u0932\u0915\u093e \u092e\u093e\u0928\u093f\u0938\u0939\u0930\u0942",
    "2003": " \u0935\u0930\u094d\u0937\u0938\u092e\u094d\u092e",
    "2004": " \u0930\u093e\u0916\u0947",
    "2005": "\u093e\u091f",
    "2006": "\u0924\u0948",
    "2007": "\u093e\u0901\u0938",
    "2008": "\u093e\u0930\u093e",
    "2009": " \u0917\u0930\u094d\u0928 \u0938\u0915\u094d",
    "2010": "\u0932\u0948",
    "2011": "\u091c\u093f",
    "2012": "\u0935\u0947\u0926\u0940",
    "2013": " \u0924\u0948\u0902",
    "2014": "\u0964\u201d\n\u092f\u0938\u0930\u094d\u0925",
    "2015": "\u0938\u094d\u0928\u0947\u0939\u092a\u0942\u0930\u094d\u0923 \u0915\u0930\u0942\u0923",
    "2016": " \u0936\u093e\u090a\u0932",
    "2017": "\u0932\u093e\u0908 \u0938\u092e\u094d",
    "2018": "\u091a\u094d\u092f",
    "2019": "\u093e\u0901\u091a\u094d\u091a\u0948",
    "2020": "\u0964 \u0924\u0940 ",
    "2021": "\u0939\u093f\u0930",
    "2022": " \u092f\u093e",
    "2023": "\u093e\u0932\u0941",
    "2024": "\u0915\u093e \u091b\u094b\u0930\u093e \u0905",
    "2025": "\u093e\u0901\u0922",
    "2026": " \u0925\u093e\u0932\u0947",
    "2027": "\u0930\u0947 ",
    "2028": "\u0915\u0940 \u0906",
    "2029": "\u093e\u0909\u0928\u0947 \u091b\u0941",
    "2030": "\u093e\u092f\u094b",
    "2031": "\u092e\u093e \u0932\u0917",
    "2032": "\u0926\u0947\u090a",
    "2033": "\u093e\u0932\u0939\u0930\u0942",
    "2034": " \u0928\u094d\u092f\u093e\u092f",
    "2035": "\u0932\u0947 \u0926\u0947\u0916",
    "2036": "\u0915\u093e \u0938\u0947\u0928\u093e",
    "2037": "\u092c\u093e\u091f \u0906\u090f",
    "2038": "\u0935\u0947\u0936",
    "2039": " \u0905\u092c\u094d\u0936\u093e\u0932\u094b\u092e",
    "2040": "\u093e\u0901\u091a\u094b ",
    "2041": "\u0964 \u0924\u0940 \u092e\u093e\u0928\u093f\u0938\u0939\u0930\u0942",
    "2042": " \u0915\u0924\u093f",
    "2043": ", \u091c\u0938",
    "2044": " \u091c\u094d\u091e\u093e\u0928",
    "2045": " \u0926\u093f\u0907",
    "2046": "\u0930\u094d\u092e\u0924",
    "2047": " \u0905\u0938\u094d\u0935\u0940\u0915\u093e\u0930",
    "2048": " \u0932\u0947\u0935\u0940\u0939\u0930\u0942",
    "2049": "\u092d\u0940\u0924",
    "2050": " \u090f\u0932\u093f\u092f",
    "2051": "\u0932\u0947 \u092d\u0928\u0947, \u201c\u092e",
    "2052": "\u0928\u0947 \u091b",
    "2053": "\u093f\u092f\u093e ",
    "2054": "\u0964\n\u092c",
    "2055": " \u0932\u093f\u090f",
    "2056": "\u0947\u0915\u093e ",
    "2057": " \u0915\u093e\u0930\u094d\u092f\u0939\u0930\u0942",
    "2058": "\u0932\u093f\u092f\u094b ",
    "2059": "\u092e\u093e \u091b",
    "2060": " \u0907\u0938\u094d\u0930\u093e\u090f\u0932\u0940\u0939\u0930\u0942",
    "2061": " \u2018",
    "2062": "\u0915\u094b \u0936\u0939\u0930",
    "2063": "\u0915\u094b \u092a\u0935\u093f\u0924\u094d\u0930",
    "2064": " \u0930\u0915\u094d\u0937",
    "2065": " \u091c\u093e\u0928\u094d",
    "2066": "\u0927\u093e ",
    "2067": " \u0924\u0932",
    "2068": "\u0939\u093e\u092e\u0940 ",
    "2069": " \u091d\u0948\u0902",
    "2070": "\u0920\u093e",
    "2071": " \u091b\u094b\u0930\u093e\u0939\u0930\u0942",
    "2072": "\u0915\u094b \u0938\u092e\u092f\u092e\u093e ",
    "2073": "\u093e\u0932\u0940",
    "2074": "\u091a\u093e\u0930\u0948",
    "2075": " \u0932\u0917\u0947",
    "2076": "\u0947\u0928\u093e\u092a\u0924\u093f",
    "2077": " \u0938\u0902",
    "2078": "\u0915\u094b \u0915\u093e\u092e",
    "2079": "\u0939\u0942\u0926\u093e \u0905\u0928\u093f",
    "2080": "\u0932\u0947 \u092a\u0930\u092e\u092a\u094d\u0930\u092d\u0941\u0915\u094b \u092e\u0928\u094d\u0926\u093f\u0930",
    "2081": " \u0926\u0947\u0935\u0924\u093e\u0939\u0930\u0942",
    "2082": "\u093f\u092e\u094d\u092e\u093e",
    "2083": "\u0928\u093e\u0939\u0930\u0942",
    "2084": "\u0924\u0928",
    "2085": "\u0928 \u0938\u0915\u094d\u0924\u0948\u0928",
    "2086": "\u0936\u094d\u091a\u092f",
    "2087": " \u091b\u094c",
    "2088": "\u0932\u0947 \u0924\u093f\u092e\u094d\u0930\u094b ",
    "2089": " \u091b\u093e\u0921",
    "2090": "\u093e\u0909\u0901\u0926\u0948",
    "2091": "\u092d\u0928\u0947",
    "2092": "\u0917\u094d\u0917",
    "2093": "\u0936\u093e\u0928\u094d\u0924\u093f",
    "2094": "\u0930\u094d\u0935\u0936\u0915\u094d\u0924\u093f",
    "2095": " \u0905\u0930\u094d\u0915\u094b ",
    "2096": "\u0932\u093e\u0908 \u0924\u092a\u093e\u0908\u0902",
    "2097": "\u092a\u0930\u093f\u0935\u093e\u0930",
    "2098": " \u0905\u0927\u093f\u0915\u093e\u0930",
    "2099": "\u0928\u094c",
    "2100": "\u0928\u094d\u092e\u093e",
    "2101": "\u0935\u0939\u093e\u0930",
    "2102": " \u0906\u0917",
    "2103": "\u0930\u0942\u0928\u094d",
    "2104": "\u0909\u092a",
    "2105": " \u092a\u0942\u091c\u093e\u0939\u093e\u0930\u0940",
    "2106": "\u0932\u093e\u0936",
    "2107": " \u091c\u093e\u0928\u094d\u0926\u091b\u0941",
    "2108": " \u0925\u093f\u090f\u0964 \u092f",
    "2109": " \u091c\u0928\u093e",
    "2110": "\u093f\u0928\u0947",
    "2111": " \u0915\u0941\u0930\u093e",
    "2112": "\u0901\u091f",
    "2113": " \u0915\u0937\u094d\u091f",
    "2114": "\u0936\u0915",
    "2115": "\u092f\u093e\u0930\u094b\u092c\u093e\u092e",
    "2116": "-\u091b\u094b\u0930\u0940\u0939\u0930\u0942",
    "2117": "\u0915\u094d\u0924\u091c\u0928\u0939\u0930\u0942",
    "2118": " \u0930 \u092a",
    "2119": "\u0932\u0947 \u0906\u092b\u0942",
    "2120": "\u093f\u091c",
    "2121": " \u092e\u0932\u093e\u0908 ",
    "2122": "\u0938\u0947\u0935\u0915",
    "2123": " \u0905\u0928\u0941",
    "2124": "\u0926\u093e\u092c",
    "2125": "\u0964 \u0928",
    "2126": " \u0928\u093f\u092f",
    "2127": "\u093e\u0924\u093e\u0930",
    "2128": "\u0947\u0932\u0947\u0915",
    "2129": "\u0939\u094b\u092f\u093e\u0926\u093e",
    "2130": " \u0917\u0930\u0947\u0964 \u0924\u093f\u0928\u0940\u0939\u0930\u0942",
    "2131": " \u0917\u094b",
    "2132": " \u092c\u0928\u094d\u0926",
    "2133": "\u0915\u094b \u0936\u0915\u094d\u0924\u093f",
    "2134": " \u0935\u093f\u0935\u093e\u0939",
    "2135": "\u0942\u092e",
    "2136": "\u0964\n\u0938\u0941\u0932\u0947\u092e\u093e\u0928",
    "2137": "\u0915\u093e\u092e\u0939\u0930\u0942",
    "2138": " \u092f\u0947\u0939\u0942",
    "2139": "\u0939\u093f\u0932\u094d\u092f\u0948",
    "2140": "\u0939\u094b\u092f\u093e\u0915",
    "2141": "\u0932\u093e\u0908 \u0938\u094b\u0927",
    "2142": " \u0938\u093e\u0939\u094d\u0930\u0948",
    "2143": "\u093f\u0902\u0939",
    "2144": "\u093e\u0915\u093f",
    "2145": " \u0915\u0930\u094d\u092e",
    "2146": "\u0914\u0902",
    "2147": "\u0916\u094d\u092f",
    "2148": "\u0906\u092b\u094d\u0928\u094b ",
    "2149": "\u0939\u093f\u0932\u093e ",
    "2150": "\u090f\u0909\u091f",
    "2151": " \u0930\u093f\u0938",
    "2152": "\u0926\u0941\u0903\u0916",
    "2153": " \u0925\u093f\u090f\u0964\n\u092f",
    "2154": "\u0930\u094d\u0928",
    "2155": "\u0917\u0941\u0935\u093e ",
    "2156": " \u0926\u093f\u0928\u0941 \u092d\u090f\u0915\u094b ",
    "2157": "\u0932\u093e\u0908 \u0938\u0939\u092f\u094b\u0917",
    "2158": " \u0936\u093e\u0928\u094d\u0924\u093f",
    "2159": "\u0964\n\u0924\u093f\u092e\u0940",
    "2160": " \u092f\u0924\u093f",
    "2161": "\u091c\u092f",
    "2162": "\u0915\u094b \u092e\u093e",
    "2163": " \u091c\u0947 ",
    "2164": "\u091c\u0938\u094d\u0924\u094b ",
    "2165": "\u0935\u0936",
    "2166": " \u0938\u092e\u0941\u0926\u094d\u0930",
    "2167": "\u094d\u092f\u093e\u0901",
    "2168": "\u0928\u094d\u0925\u094d\u092f\u094b",
    "2169": " \u0926\u093e\u091c\u094d\u092f\u0942-\u092d\u093e\u0907\u0939\u0930\u0942",
    "2170": "\u0938\u092e\u094d\u092a\u0942\u0930\u094d\u0923",
    "2171": "\u092e\u0941\u0916\u0939\u0930\u0942",
    "2172": " \u0930\u0939\u0928\u0947\u091b",
    "2173": "\u092e\u093e\u092f\u093e\u0939",
    "2174": "\u0964\n\u0939\u0947 \u092a\u0930\u092e\u0947\u0936\u094d\u0935\u0930, \u0924\u092a\u093e\u0908\u0902",
    "2175": " \u0917\u0930\u094d\u092f\u094b",
    "2176": "\u0915\u094b \u0915\u0941",
    "2177": "\u0940 \u0938\u0948\u0928\u093f\u0915\u0939\u0930\u0942",
    "2178": "\u0939\u094b ",
    "2179": "\u0924\u094d\u0928\u0940\u0939\u0930\u0942",
    "2180": "\u092e\u093e \u0917\u093e\u0921",
    "2181": " \u0926\u093f\u0928\u094d\u091b\u0941",
    "2182": ", \u0924\u094d\u092f\u0938",
    "2183": "0,000",
    "2184": "\u0913\u092c",
    "2185": "\u0917\u092e\u0935\u0915\u094d\u0924\u093e",
    "2186": " \u092c\u0928\u093e\u0909\u0928",
    "2187": " \u0917\u0930\u093e\u0909",
    "2188": " \u092a\u093e\u0930\u093f",
    "2189": "\u0922\u094b",
    "2190": "\u0915\u094b \u0936\u093e\u0938\u0928",
    "2191": "\u0932\u094d\u092f\u093e\u0939",
    "2192": "\u0928\u0941\u092d\u090f\u0915\u094b \u0925\u093f\u092f\u094b",
    "2193": "\u0915\u094d\u0930\u094b\u0927",
    "2194": "\u0941\u0938\u094d\u0924\u0915\u092e\u093e \u0932\u0947\u0916\u093f\u090f",
    "2195": " \u0930\u0939\u092c\u093e\u092e",
    "2196": "\u0915\u0930\u094d\u092f\u093e\u0939",
    "2197": "\u091b\u094b\u0930\u094b \u091c",
    "2198": " \u090f\u0915\u091c\u0928\u093e ",
    "2199": "\u0940\u0924 \u0917",
    "2200": "\u0930\u094d\u0924\u094d\u0924",
    "2201": "\u0917\u0924",
    "2202": "\u0930\u094d\u0926\u0928",
    "2203": "\u091b\u094b\u0930\u093e \u0925\u093f\u090f",
    "2204": "\u0926\u093e-\u0938\u0930\u094d\u0935\u0926\u093e ",
    "2205": " 3",
    "2206": "\u0932\u094d\u0932\u093e ",
    "2207": "\u0928\u093f\u0930\u094d\u0923\u092f",
    "2208": "\u0947\u0915\u094b",
    "2209": "\u092c\u0932",
    "2210": "\u0948\u0932\u0947 \u092e",
    "2211": " \u092d\u094b\u091c\u0928",
    "2212": " \u092f\u0938\u0930\u094d\u0925",
    "2213": "\u0932\u0947 \u0924\u094d\u092f\u0939\u0940",
    "2214": "\u093e\u0909\u0928\u0941 \u0939\u0941\u0928\u0947\u091b",
    "2215": " \u091a\u0932",
    "2216": "\u092a\u093e",
    "2217": "\u0932\u093e\u0908 \u0918\u0943\u0923",
    "2218": "\u0930\u093e\u0916\u094d",
    "2219": "\u0932\u093e\u0908 \u091c\u0935\u093e\u092b",
    "2220": " \u092c\u0947\u0932\u093e ",
    "2221": " \u0915\u094b\u0939\u0940",
    "2222": "\u0915\u094b \u0939\u0947\u0930\u091a\u093e\u0939",
    "2223": ", \u091c\u094b ",
    "2224": " \u0938\u0941\u0928\u094d",
    "2225": "\u091f\u094d\u091f\u093e\u0928",
    "2226": " \u0905\u0928\u093f \u092a",
    "2227": "\u0913\u0938\u094d",
    "2228": ", \u092c",
    "2229": "\u0928\u093f\u092f\u092e\u0939\u0930\u0942",
    "2230": " \u091a\u093e\u0939\u0928\u094d\u091b\u0941",
    "2231": "\u0932\u0947\u0935\u0940",
    "2232": "\u092a\u094d\u0930\u093e\u0930\u094d\u0925\u0928\u093e ",
    "2233": "\u091d\u0942",
    "2234": ", \u0915\u093f\u0928\u092d\u0928\u0947 ",
    "2235": " \u0907\u0938\u0939\u093e\u0915",
    "2236": "\u092c\u093e\u092c\u0947\u0932",
    "2237": "\u0915\u093e \u0915\u0941\u0932\u0939\u0930\u0942",
    "2238": "\u0932\u0947\u0906",
    "2239": "\u091a\u0922",
    "2240": " \u092d\u0928\u093f",
    "2241": "\u092d\u093e\u0917",
    "2242": "\u092e\u093e \u0906\u090f",
    "2243": "\u090f\u0915\u094b\u091b",
    "2244": "\u0936\u0947\u0924",
    "2245": " \u0924\u094d\u092f\u093e\u0917",
    "2246": "\u092e\u093e\u0924",
    "2247": " \u0924\u093f\u092e\u0940 ",
    "2248": "\u0925\u093f\u090f\u0928",
    "2249": "\u093f\u0902\u0939\u093e\u0938",
    "2250": "\u0932\u0947 \u0928",
    "2251": "\u092c\u093e\u091f \u092c\u093e\u0939\u093f\u0930",
    "2252": " \u0938\u0947\u0935",
    "2253": "\u092c\u0940\u092f",
    "2254": "\u0940\u090f\u0932",
    "2255": "\u0921\u0930",
    "2256": "\u0915\u093e\u0930\u094d\u092f",
    "2257": " \u092e\u0941",
    "2258": "\u0915\u0947\u0928\u0928\u094d",
    "2259": ", \u0928",
    "2260": " \u0930 \u0906",
    "2261": "\u0925\u0941",
    "2262": " \u091a\u093e\u0901",
    "2263": "\u0964\n\u0909\u0939\u093e\u0901",
    "2264": "\u094d\u0935\u0930\u094d\u0917\u0926\u0942\u0924",
    "2265": " \u0905\u0928\u093f \u0909\u0928",
    "2266": "\u093f\u090f\u0915\u094b \u0925\u093f\u092f\u094b",
    "2267": "\u0915\u094b \u0907\u0924\u093f\u0939\u093e\u0938",
    "2268": "\u0936\u093f\u0915\u094d\u0937",
    "2269": "\u0936\u094d\u091a\u0930\u094d\u092f",
    "2270": "\u094d\u0924\u093e\u0930",
    "2271": "\u0941\u0930\u0942\u0937",
    "2272": " \u0906\u0939\u093e\u092c",
    "2273": "\u0936\u094d\u0936\u0942\u0930\u0915\u093e \u0930\u093e\u091c\u093e",
    "2274": " \u092d\u0930\u094b\u0938",
    "2275": "\u0932\u093e\u0908 \u0939",
    "2276": "\u0932\u093e\u0908 \u092d\u0928",
    "2277": "\u091a\u0940\u091c\u0939\u0930\u0942",
    "2278": "\u0932\u093e\u0908 \u092a\u094d\u0930\u0947\u092e",
    "2279": " \u0905\u092c\u0940",
    "2280": "\u0907\u0901",
    "2281": "\u092e\u094d\u0928",
    "2282": "\u092e\u094d\u0928\u094b\u0928",
    "2283": "\u092e\u094b\u0928",
    "2284": "\u091f\u093e\u0909",
    "2285": " \u0925\u093f\u092f\u094b ",
    "2286": "\u0928\u0941 \u092d\u092f\u094b \u0905\u0928\u093f",
    "2287": "\u093f\u092f\u094b\u0928",
    "2288": "\u0932\u093e\u0908 \u092d\u0928\u094d\u0928\u0941\u092d\u092f\u094b, \u201c",
    "2289": " \u0938\u0928\u094d\u0926\u0942\u0915",
    "2290": "\u091a\u0947",
    "2291": "\u0939\u0947 \u092a\u0930\u092e\u092a\u094d\u0930\u092d\u0941",
    "2292": "\u0964 \u0930\u093e\u091c\u093e",
    "2293": "\u092a\u093e\u092a",
    "2294": " \u092c\u0939\u093f\u0928",
    "2295": "\u0932\u093e\u0908 \u092e\u0947\u0930\u094b ",
    "2296": ", \u092f\u0938",
    "2297": "\u0915\u093e \u0905\u0917\u0941\u0935\u093e\u0939\u0930\u0942",
    "2298": " \u091a\u093e\u0901\u0921",
    "2299": ", \u092f\u0926\u093f",
    "2300": "\u0935\u091a\u0928\u0939\u0930\u0942",
    "2301": " \u0939\u094b\u092e\u092c\u0932\u093f",
    "2302": " \u0917\u0930\u094d\u0928\u0947\u091b\u0928\u094d",
    "2303": "\u0936\u0941\u0926\u094d\u0927",
    "2304": "\u0926\u0947\u0935\u0924\u093e\u0939\u0930\u0942",
    "2305": "\u093e \u092c",
    "2306": "\u0932\u0947 \u092f\u093e\u0915\u0942\u092c",
    "2307": "\u092c\u094d\u0930\u093e\u092e",
    "2308": " \u090f\u0938\u093e\u0935",
    "2309": " \u0938\u0948\u0928\u093f\u0915\u0939\u0930\u0942",
    "2310": "\u091b\u0948\u0928\u0928\u094d",
    "2311": "\u0915\u094b \u0930",
    "2312": "\u0932\u0947 \u090f\u0915",
    "2313": "\u0938\u094d\u0930",
    "2314": ", \u091c",
    "2315": "\u0915\u093e \u0939",
    "2316": "\u092e\u093e \u092c\u0938\u0947",
    "2317": " \u0917\u093f\u0932\u093e\u0926",
    "2318": "\u0964\u201d\n\u0905",
    "2319": "\u0938\u092e\u092f",
    "2320": "\u0907\u0938\u094d\u0930\u093e\u090f\u0932\u0915\u093e \u092e\u093e\u0928\u093f\u0938\u0939\u0930\u0942",
    "2321": "\u0939\u0924\u094d\u0935\u092a\u0942\u0930\u094d\u0923",
    "2322": "\u0938\u0915\u094d",
    "2323": " \u0924\u0940 \u0938\u092c\u0948",
    "2324": "\u0947\u0924\u094d\u0930",
    "2325": " \u092a\u0930\u092e\u0947\u0936\u094d\u0935\u0930\u0915\u094b ",
    "2326": " \u0917\u0947",
    "2327": "\u093f\u0902\u0939\u093e\u0938\u0928",
    "2328": " \u092c\u091c",
    "2329": "\u0915\u093e \u0936\u0924\u094d\u0930\u0941\u0939\u0930\u0942",
    "2330": "\u0932\u093e\u0908 \u0925\u093e\u0939",
    "2331": " \u0917\u0930\u094d\u0928\u0941 \u0939\u0941\u0928\u094d\u091b",
    "2332": "\u093e\u0909\u0928 \u0938\u0915\u094d",
    "2333": "\u0932\u093e\u0917\u094d",
    "2334": " \u0917\u0930\u0947\u0915\u093e ",
    "2335": " \u0926\u094b\u0937",
    "2336": "\u092e\u093e \u0924\u093f\u0928\u0940\u0939\u0930\u0942",
    "2337": "\u0964\n\u0924\u093f\u092e\u0940\u0939\u0930\u0942",
    "2338": "\u0964\n\u0924\u094d\u092f\u094b ",
    "2339": "\u0939\u093e\u092f\u0924\u093e",
    "2340": " \u092c\u0928\u093e\u092f\u093e\u0939",
    "2341": "\u092e\u093e\u0928\u094d\u0926",
    "2342": "\u0930\u094d\u0915\u093e",
    "2343": "\u0928\u094d\u0924\u0939\u0930\u0942",
    "2344": "\u0932\u094d\u0915\u093f\u092f\u093e\u0939",
    "2345": "\u0932\u094d\u0924\u0940",
    "2346": "\u092c\u0942\u0915",
    "2347": "\u0926\u0928\u0947",
    "2348": "\u0927\u093e\u0930\u094d\u092e\u093f\u0915",
    "2349": "\u0930\u093e\u092c",
    "2350": "\u092c\u094b\u0936\u0947\u0924",
    "2351": " \u0938\u092e\u094d\u092a\u0942\u0930\u094d\u0923",
    "2352": "\u0948\u0915\u093e\u0930\u0923",
    "2353": "\u0915\u094b \u092a\u091b\u093f",
    "2354": "\u0915\u0947\u0939\u0940 ",
    "2355": "\u0964\n\u0915",
    "2356": "\u0928\u093f\u092f\u093e\u0939",
    "2357": "\u0932\u093f\u0936\u094d\u0924\u0940\u0939\u0930\u0942",
    "2358": "\u0925\u0947 ",
    "2359": "\u091d\u0948",
    "2360": "\u092c\u0941\u091d",
    "2361": "\u092a\u0932\u094d\u091f",
    "2362": " \u0915\u093e\u091f",
    "2363": "\u093e\u0932\u094b ",
    "2364": "\u0932\u0947 \u0927\u0947\u0930\u0948",
    "2365": "\u0940 \u092d\u090f",
    "2366": " \u092c\u093e\u091f",
    "2367": "\u0926\u092e",
    "2368": "\u094d\u0930\u0940\u0939\u0930\u0942",
    "2369": "\u0932\u0947 \u092e\u094b",
    "2370": "\u093e\u0926\u094d\u092f",
    "2371": "\u0932\u093e\u092e",
    "2372": "\u0938\u094d\u0935\u093e\u092e\u0940",
    "2373": " \u0916\u094b\u091c",
    "2374": " \u092a\u094d\u0930\u0947\u092e",
    "2375": "\u092e\u0924\u093f",
    "2376": " \u0915\u0938\u0948",
    "2377": " \u0915\u0938\u0948\u0932\u0947 \u092a\u0928\u093f",
    "2378": "\u092e\u094d\u092e\u093e ",
    "2379": "\u0915\u094b \u0925\u093f\u090f\u0901",
    "2380": "\u093e\u0926\u094b\u0915",
    "2381": " \u0926\u093e\u0916\u0930\u0938",
    "2382": "!\u201d\n",
    "2383": " \u092c\u0942\u0922",
    "2384": "\u0939\u0947\u092e",
    "2385": " \u0915\u0930\u093e\u0930",
    "2386": " \u0939\u0943\u0926\u092f",
    "2387": " \u0924\u0930\u094d\u092b",
    "2388": "\u0932\u0947 \u0909\u0924\u094d\u0924\u0930 \u0926\u093f\u090f, \u201c",
    "2389": "\u0939\u0930\u0947\u0915",
    "2390": "\u092e\u0923\u094d\u0921",
    "2391": "\u093e\u0907\u0901",
    "2392": "\u0942\u091a",
    "2393": "\u092c\u0942\u0915\u0926\u0928\u0947",
    "2394": "\u0915\u094b \u0938\u094d\u0928\u0947\u0939\u092a\u0942\u0930\u094d\u0923 \u0915\u0930\u0942\u0923",
    "2395": " \u0928\u0930\u093e\u092e\u094d\u0930\u094b ",
    "2396": "\u094d\u0930\u0947\u0932",
    "2397": "\u092e\u093e \u0915",
    "2398": "\u0932\u093e\u0908 \u0917",
    "2399": " \u091c\u0928\u093e \u092e\u093e\u0928\u093f\u0938\u0939\u0930\u0942",
    "2400": "\u0930\u094d\u0926\u0928 \u0928\u0926\u0940",
    "2401": "\u0925\u093f\u0908",
    "2402": " \u0915\u0941\u0932 \u0938\u092e\u0942\u0939",
    "2403": "\u092e\u0942\u0932\u094d\u092f",
    "2404": "\u092a\u0915\u094d\u0937",
    "2405": "\u090a\u0928\u094d",
    "2406": "\u093e \u0917\u0930\u093f",
    "2407": " \u0938\u0901\u0917",
    "2408": "\u0932\u093e\u0908 \u0938\u0939\u093e\u092f\u0924\u093e \u0917\u0930\u094d",
    "2409": " \u091c\u0938\u094d\u0924\u093e ",
    "2410": " \u0918\u091f",
    "2411": "\u0930\u093f\u092f\u093e\u0939",
    "2412": "\u093e\u0939\u093f\u0930",
    "2413": "\u0932\u0947 \u092a\u094d\u0930",
    "2414": "\u0926\u0948\u091b",
    "2415": "\u0942\u0901",
    "2416": ", \u092e\u0948\u0932\u0947 ",
    "2417": "\u092f\u094c\u0902",
    "2418": " \u0938\u0941\u0930\u0915\u094d\u0937\u093f\u0924",
    "2419": "\u0926\u094d\u092f",
    "2420": "\u0915\u094b \u091c\u0940\u0935\u0928",
    "2421": "\u091a\u093e\u0930\u0948\u0924\u093f\u0930",
    "2422": " \u0917\u0930\u0947 \u091c\u0938",
    "2423": "\u093e \u0917\u0930\u0940",
    "2424": "\u0916\u0947\u0924",
    "2425": "\u0939\u0940\u0928",
    "2426": "\u092a\u094d\u0924\u093e\u0928",
    "2427": " \u0935\u0930\u094d\u0937 \u0936\u093e\u0938\u0928",
    "2428": "\u0915\u093e \u0925\u093f\u090f\u0964",
    "2429": " \u0932\u0948",
    "2430": " \u092d\u0941",
    "2431": " \u091c\u093e\u0928\u0947 ",
    "2432": "\u0936\u093f\u0936",
    "2433": "\u0932\u0947 \u092e\u0947\u0930\u093e ",
    "2434": " \u0926\u0942\u0924",
    "2435": "\u0928\u0941\u092d\u090f\u0915\u094b ",
    "2436": ", \u0909\u0938",
    "2437": "\u0939\u0930\u0942 \u092a\u0928\u093f",
    "2438": "\u0915\u093e\u0920",
    "2439": " \u0928\u093f\u0938\u094d\u0915",
    "2440": "\u0924\u094d\u0915",
    "2441": " \u0939\u091f",
    "2442": " \u092a\u093e\u0932",
    "2443": "\u0928\u093f\u0928\u094d, \u201c",
    "2444": ", \u0907\u0938\u094d\u0930\u093e\u090f\u0932",
    "2445": "\u092e\u093e \u092a\u0928\u093f",
    "2446": "\u0948\u0932",
    "2447": "\u0964 \u092e\u0947\u0930\u093e ",
    "2448": "\u0932\u0947 \u0906\u092b\u094d\u0928\u093e \u092a",
    "2449": "\u0930\u0940 \u0928\u0948",
    "2450": " \u092a\u093e\u0930\u0947",
    "2451": "\u0915\u094b \u0935\u094d\u092f",
    "2452": "\u0964\n\u092e\u0947\u0930\u093e ",
    "2453": "\u091b\u0928\u094d\u0964 \u0924\u093f\u0928\u0940\u0939\u0930\u0942",
    "2454": "\u0915\u093e \u0938\u093e\u0925",
    "2455": " \u0936\u0941\u0930\u0942 \u0917\u0930\u0947",
    "2456": "\u0964 \u092e \u0924\u092a\u093e\u0908\u0902",
    "2457": "\u0935\u0930",
    "2458": "\u093f\u0928\u0901",
    "2459": " \u0928\u093f\u0930\u094d\u0926\u094b\u0937",
    "2460": "\u0915\u094b \u0938\u092e\u094d\u092e\u093e\u0928",
    "2461": "\u0932\u093e\u091c\u093e\u0930",
    "2462": "\u0915\u094b \u0938\u092c\u0948",
    "2463": " \u092c\u0941\u0926\u094d\u0927\u093f",
    "2464": "\u091f\u0941\u0915\u094d\u0930",
    "2465": " \u092b\u093f\u0930\u090a\u0928",
    "2466": " \u091c\u0938\u0932\u0947 ",
    "2467": " \u091d\u0942",
    "2468": " \u092c\u093e\u092c\u0947\u0932",
    "2469": "\u0927\u093f\u0915",
    "2470": "\u0932\u093e\u092c\u093e\u0928",
    "2471": " \u0926\u093f\u092f\u094b",
    "2472": "\u0932\u0941\u0917\u093e ",
    "2473": " \u092e\u093e\u0917",
    "2474": " \u0939\u0947\u092c\u094d\u0930\u094b\u0928",
    "2475": "\u0964 (",
    "2476": "\u0930\u093e\u0928\u0940",
    "2477": " \u0926\u092f\u093e\u0932\u0941",
    "2478": "\u092c\u0928\u0947\u0930",
    "2479": "\u0964 \u0909\u0928\u0932\u0947 ",
    "2480": "\u093f\u092c\u094b\u0928",
    "2481": "\u0947\u0964 \u0924\u093f\u0928\u0940\u0939\u0930\u0942",
    "2482": "\u0926\u094b\u0928\u093f\u092f\u093e\u0939",
    "2483": " \u0917\u0930\u094d\u092f\u094c",
    "2484": "\u092c\u0928\u094d\u0927",
    "2485": "\u0928\u0941 \u092d\u090f\u0928",
    "2486": "\u091c\u093e\u092f",
    "2487": "\u0930\u094d\u0915\u094b ",
    "2488": "\u0930\u094d\u0935\u0936\u0915\u094d\u0924\u093f\u092e\u093e\u0928",
    "2489": " \u0938\u0941\u0928\u0947",
    "2490": " \u0905\u0928\u093f \u0924\u092a\u093e\u0908\u0902",
    "2491": "\u094b\u0921\u093e\u0939\u0930\u0942",
    "2492": " \u0930\u093e\u0937\u094d\u091f\u094d\u0930",
    "2493": "\u092e\u093e \u0924\u092a\u093e\u0908\u0902",
    "2494": "\u0936\u0915\u094d\u0924\u093f\u0936\u093e\u0932",
    "2495": "\u091b\u094d\u092f\u093e\u0928",
    "2496": "\u091b\u0928\u094d\u0964\n",
    "2497": "\u093e\u0915\u094b \u092a",
    "2498": "\u0947\u0930\u0940",
    "2499": "\u0938\u094d\u0924\u0948\u0902",
    "2500": "\u0964 \u0915\u093f\u0928\u092d\u0928\u0947 ",
    "2501": "\u092e\u094d\u092d",
    "2502": "\u0938\u0941\u0930\u0915\u094d\u0937",
    "2503": "\u0915\u094b \u092a\u094d\u0930\u0924\u094d\u092f\u0947\u0915",
    "2504": "\u0905\u0938\u0932",
    "2505": "\u0943\u092a\u092f\u093e ",
    "2506": "\u093f\u0915\u094d\u0937",
    "2507": "\u0939\u0930\u0942 \u0930",
    "2508": "\u093f\u0936\u094d\u0930 \u0926\u0947\u0936",
    "2509": "\u0915\u093e \u092a\u0941\u0930\u094d\u0916\u093e\u0939\u0930\u0942",
    "2510": "\u0915\u094b \u092d\u0942\u092e\u093f",
    "2511": " \u091a\u093e\u0921",
    "2512": " \u0935\u093e ",
    "2513": " \u0939\u093f\u091c\u0915\u093f\u092f\u093e\u0939",
    "2514": "\u092a\u094d\u0930\u093e\u0923",
    "2515": "\u0947, \u201c",
    "2516": "\u091d\u0941",
    "2517": "\u0932\u0947 \u090f\u0909\u091f\u093e ",
    "2518": "\u0932\u093e\u0908 \u092f\u094b ",
    "2519": "\u094b\u0916",
    "2520": "\u091b\u093e\u0921",
    "2521": "\u0932\u093e\u0908 \u0926\u093e\u090a\u0926",
    "2522": " \u092e\u0940",
    "2523": "\u0928\u0947 \u091b\u0928\u094d",
    "2524": "\u0915\u094b \u0938\u093e\u092e\u0941\u0928\u094d\u0928\u0947 ",
    "2525": " \u0926\u094d\u0935\u093e\u0930\u093e ",
    "2526": " \u092e\u0939\u093e\u0928\u094d",
    "2527": "\u0947\u0937",
    "2528": ", \u0909\u0928",
    "2529": "\u0924\u0941",
    "2530": "\u0926\u0947\u0916\u0947",
    "2531": "\u0964\n\u0924\u093f\u0928",
    "2532": "\u0964\n\u092e\u0948",
    "2533": "\u0930\u092e\u093e",
    "2534": "\u0932\u093e\u0908 \u090f\u0915",
    "2535": " \u0939\u0941\u0928\u0941\u0939\u0941\u0928\u094d",
    "2536": " \u0939\u093e\u0901",
    "2537": "\u0915\u094b \u091a",
    "2538": "\u0915\u094b \u092e\u0941\u0916",
    "2539": "\u0915\u094b \u0905\u0928\u0941\u0938\u0930\u0923",
    "2540": "\u094c\u0902 \u0935\u0930\u094d\u0937",
    "2541": " \u0905\u0928\u093f \u0906",
    "2542": "\u0938\u0947\u0930",
    "2543": "\u093e \u0917\u0930\u094d\u0926\u091b\u0941",
    "2544": "\u094b\u0936",
    "2545": "\u0930\u0942\u092c\u0947\u0928",
    "2546": "\u0917\u093e\u0930",
    "2547": ", \u0909\u0939\u093e\u0901",
    "2548": "-\u0917\u093e\u0928",
    "2549": " \u092e\u093e\u0930",
    "2550": "\u0930\u094d\u0935\u0924",
    "2551": " \u090f\u0909\u091f",
    "2552": "\u0915\u093e \u0917",
    "2553": "\u0915\u093e \u0924",
    "2554": " \u0905\u0928\u093f \u0909\u0938",
    "2555": " \u092e\u0941\u0916",
    "2556": "\u0920\u094b ",
    "2557": "\u092c\u094d\u0926\u0939\u0930\u0942",
    "2558": " \u091b\u094b\u0930\u093e",
    "2559": " \u0938\u092c\u0948 \u092e\u093e\u0928\u093f\u0938\u0939\u0930\u0942",
    "2560": "\u093f\u0928\u094d",
    "2561": "\u0932\u0947 \u0924\u0940 \u0938\u092c\u0948",
    "2562": "\u092e\u0939\u0932",
    "2563": "\u0928\u093e\u0926\u093e\u092c",
    "2564": " \u0930\u094b\u0915",
    "2565": "\u092b\u094d\u0930",
    "2566": " \u092d\u0928\u094d\u0928\u0941\u0939\u0941\u0928\u094d\u091b",
    "2567": "\u092e\u0924",
    "2568": "\u0921\u094b",
    "2569": "\u0926\u0932",
    "2570": "\u091c\u094d\u091c\u093f\u0924",
    "2571": " \u092b\u0930\u094d\u0915\u093f\u090f",
    "2572": " \u0920\u0942\u0932\u094b ",
    "2573": "\u0915\u094b \u0938\u092e\u092f",
    "2574": " \u0917\u0930\u0947\u0964 \u0924\u093f\u0928",
    "2575": "\u0932\u0947 \u092e\u093e",
    "2576": " \u092a\u094d\u0930\u0926\u093e\u0928",
    "2577": " \u0907\u0938\u094d\u0930\u093e\u090f\u0932\u0915\u093e \u092a\u0930\u092e\u0947\u0936\u094d\u0935\u0930",
    "2578": "\u0928\u0941 \u0939\u0941\u0901\u0926\u0948\u0928",
    "2579": "\u0939\u094b\u0938",
    "2580": "\u092a\u093e\u0939",
    "2581": "\u0932\u0947 \u0930\u093e\u091c\u093e ",
    "2582": "\u0935\u093f\u0937\u092f\u092e\u093e ",
    "2583": " \u0930 \u0924\u093f\u0928\u0940\u0939\u0930\u0942",
    "2584": " \u0909\u092d\u093f\u090f",
    "2585": "\u0964 \u090a",
    "2586": "\u093e\u0908\u0939\u0930\u0942",
    "2587": " \u0917\u0930\u094d\u0928\u0915\u093e \u0928\u093f\u092e\u094d\u0924\u093f",
    "2588": "\u0932\u093e\u0908 \u092a\u094d\u0930\u093e\u0930\u094d\u0925\u0928",
    "2589": "\u092e\u093e \u092a\u0930\u092e\u092a\u094d\u0930\u092d\u0941",
    "2590": " \u091c\u0932",
    "2591": "\u0930\u0942\u0939\u0930\u0942",
    "2592": " \u092c\u094b\u0932\u094d",
    "2593": "\u0917\u0930\u094d\u0926\u0925\u0947",
    "2594": "-\u0915",
    "2595": " \u0907\u0938\u094d\u0930\u093e\u090f\u0932\u0915\u093e \u0930\u093e\u091c\u093e ",
    "2596": "\u0915\u094b \u092a\u0942\u091c",
    "2597": " \u0917\u0930\u0947 \u091c\u094b ",
    "2598": "\u0930\u093f\u090f",
    "2599": "\u093e\u0932\u093e\u0939\u0930\u0942",
    "2600": " \u092f\u0939\u0942\u0926\u093e\u0915\u093e \u0930\u093e\u091c\u093e ",
    "2601": "\u0938\u093e\u092a",
    "2602": "\u092e\u093e\u090f\u0932",
    "2603": "\u091c\u0947\u0920\u093e ",
    "2604": "\u0964 \u0939\u0947 \u092a\u0930\u092e\u092a\u094d\u0930\u092d\u0941",
    "2605": "\u0932\u0947 \u092a\u0943\u0925\u094d\u0935\u0940",
    "2606": " \u0917\u0930\u094d\u0926\u091b\u0928\u094d",
    "2607": "\u092c\u094d\u091c",
    "2608": "\u093f\u092e\u094d\u0930\u093e ",
    "2609": "\u0926\u093e\u091c\u094d\u092f\u0942",
    "2610": " \u0915\u0948",
    "2611": "\u092d\u092f\u094b ",
    "2612": " \u0925\u093f\u092f\u094b\u0964\n",
    "2613": "\u0932\u093e\u0908 \u0907\u0938\u094d\u0930\u093e\u090f\u0932",
    "2614": " \u0936\u0924\u094d\u0930\u0941\u0939\u0930\u0942",
    "2615": "\u093e \u0917\u0930\u094d\u0928\u0947\u091b\u0928\u094d",
    "2616": "\u0927\u093f\u0915\u093e\u0930\u0940",
    "2617": "\u0938\u094d\u092f",
    "2618": "\u0916\u0941\u091f\u094d\u091f",
    "2619": " \u0928\u092f\u093e\u0901 \u0930\u093e\u091c\u093e \u092d\u090f",
    "2620": "\u0940 \u0930",
    "2621": "\u091c\u093e\u0928",
    "2622": "\u0928\u094d\u0926\u0930",
    "2623": "\u0915\u093e \u091b\u094b\u0930\u093e \u092f",
    "2624": "\u0964\u201d\n\u0924\u094d\u092f\u0938\u092a\u091b\u093f",
    "2625": "\u0932\u093e\u0908 \u092d\u0928\u0947, \u201c\u092e",
    "2626": "\u0916\u093e",
    "2627": "\u0915\u093e \u0905\u0928\u094d\u092f",
    "2628": "\u094b\u0915\u0930",
    "2629": "\u093e\u090f\u0915\u094b ",
    "2630": "\u0935\u093f\u0930\u0942\u0926\u094d\u0927",
    "2631": "\u092a\u0925",
    "2632": "\u092e\u093e \u0930",
    "2633": "\u093e \u0917\u0930\u094d\u0928\u0947\u091b\u0941",
    "2634": "\u0926\u0936",
    "2635": "\u0928\u0941 \u0939\u0941\u0928\u094d\u0928",
    "2636": "\u0915\u0940 \u091b\u094b\u0930",
    "2637": "\u0919\u094d\u0917\u0932",
    "2638": "\u0964 \u0915\u093f\u0928? \u0915\u093f\u0928\u092d\u0928\u0947 ",
    "2639": "\u092e\u0947\u0930",
    "2640": " \u0926\u093f\u0928\u0941 \u0939\u0941\u0928\u0947\u091b",
    "2641": "\u0947\u0928-",
    "2642": " \u0938\u0902\u0915\u091f",
    "2643": "\u092a\u093e\u0932\u0941",
    "2644": "\u0920\u093e\u0939\u0930\u0942",
    "2645": "\u0915\u094b \u0926\u0932",
    "2646": "\u0928\u093f\u0938\u094d\u0924\u093e\u0930",
    "2647": "\u0964 \u092f\u093e\u0915\u0942\u092c",
    "2648": "\u0939\u0941\u0928\u094d\u0928",
    "2649": " \u0938\u0939\u093f\u0924",
    "2650": "\u0905\u092f\u094d\u092f\u0942\u092c",
    "2651": "\u0947\u0938\u094d\u0930\u094b ",
    "2652": "\u0915\u094b \u0915\u093e\u0930\u0923",
    "2653": "\u0939\u094d\u0930",
    "2654": "\u093e\u0936",
    "2655": "\u092e\u093e \u0928\u0948",
    "2656": "\u0932\u0947 \u0905\u092c",
    "2657": " \u092c\u093e\u0939\u094d\u0930",
    "2658": "\u092a\u094d\u092a",
    "2659": "\u092e\u093e \u0932\u0921",
    "2660": "\u0932\u094d\u0932\u094b ",
    "2661": "\u091c\u094b\u0930",
    "2662": "\u0932\u093e\u0908 \u090f\u0909\u091f\u093e ",
    "2663": "\u092e\u094d\u092a\u0942\u0930\u094d\u0923",
    "2664": "\u092a\u094d\u0930\u0924\u093f\u091c\u094d\u091e",
    "2665": "\u0915\u094b \u0930\u0942\u092a\u092e\u093e ",
    "2666": " \u092f\u0939\u0940",
    "2667": "\u092e\u092f",
    "2668": "-\u090f",
    "2669": "\u0928\u094d\u0964\n",
    "2670": " \u0930\u093e\u091c\u093e\u0939\u0930\u0942",
    "2671": "\u0947\u0928\u093e ",
    "2672": "\u0932\u0947 \u0906\u092b\u094d\u0928\u093e \u092e\u093e\u0928\u093f\u0938\u0939\u0930\u0942",
    "2673": "\u0939\u0940\u0924",
    "2674": "\u0928\u094b\u0915\u0930\u0939\u0930\u0942",
    "2675": "\u0940 \u0938\u094d\u0924",
    "2676": "\u092e\u093e\u0938",
    "2677": "\u0936\u0947\u092c\u093e",
    "2678": "\u0947\u0921\u093e ",
    "2679": " \u0932\u093f\u0928",
    "2680": "\u0917\u0930\u0940",
    "2681": "\u0942\u0930\u094d\u0935\u0915",
    "2682": "\u0932\u0947 \u0938\u0941\u0932\u0947\u092e\u093e\u0928",
    "2683": "\u0935\u0936\u094d\u092f",
    "2684": "\u0907\u091a\u094d\u091b",
    "2685": "\u093e\u0938\u093f\u0924",
    "2686": "\u0930\u0925",
    "2687": "\u0924\u094d\u0924\u092e",
    "2688": "\u092e\u093e \u091c\u093e",
    "2689": " \u092a\u0932\u094d\u091f",
    "2690": "\u0939\u093e\u092f\u0924\u093e ",
    "2691": "\u0932\u0947 \u0939\u093e\u092e\u094d\u0930\u094b ",
    "2692": " \u091c\u093e\u0924\u093f",
    "2693": "\u0915\u094b \u0918",
    "2694": "\u0935\u094d\u092f\u0915\u094d\u0924\u093f\u0939\u0930\u0942",
    "2695": "\u092e\u093e \u0905\u0928\u093f",
    "2696": "\u0915\u094b \u0906\u091c\u094d\u091e\u093e\u0939\u0930\u0942",
    "2697": "\u0939\u093f\u092f\u093e\u0939",
    "2698": "\u0903\n",
    "2699": "\u0928 \u092a",
    "2700": "\u0939\u093e\u092e\u094d\u0930\u093e \u092a",
    "2701": "\u0916\u093e ",
    "2702": " \u0939\u093e\u092e\u094d\u0930\u093e \u092a\u0930\u092e\u0947\u0936\u094d\u0935\u0930",
    "2703": " \u092d\u092f\u092d\u0940\u0924",
    "2704": "\u0915\u093e \u0930\u093e\u091c\u093e\u0939\u0930\u0942\u0915\u094b \u0907\u0924\u093f\u0939\u093e\u0938",
    "2705": " \u092f\u0939\u094b\u0936\u093e\u092a\u093e\u0924",
    "2706": " \u0924\u094d\u092f\u0938\u094d\u0924\u094b ",
    "2707": "\u092b\u0928\u094d\u0924\u0939\u0930\u0942",
    "2708": "\u092f\u094b\u0924",
    "2709": "\u0936\u094d\u092e\u093e\u090f\u0932",
    "2710": " \u0905\u092c\u094d\u0930\u093e\u092e",
    "2711": "\u0930\u094b\u0938\u093e ",
    "2712": "\u092a\u0928\u093e ",
    "2713": "\u0964\n\u092f\u093e\u0915\u0942\u092c",
    "2714": "\u0915\u094b \u0928\u091c\u093f\u0915",
    "2715": " \u091b\u093e",
    "2716": ", \u092e\u0948",
    "2717": "\u092d\u0928\u094d\u0926",
    "2718": "\u093f\u091c\u094d\u0930\u0947\u0932",
    "2719": "\u0932\u0947 \u092f\u0938\u094d\u0924\u094b ",
    "2720": "\u0915\u094b \u090f\u0915",
    "2721": "\u094d\u0928\u0947 \u091b\u094c",
    "2722": "\u0947\u0928\u0928\u094d",
    "2723": "\u0901\u0921",
    "2724": "\u093e\u0938\u0901\u0917",
    "2725": "\u0932\u094d\u0915",
    "2726": "\u0915\u0940 \u091b\u094b\u0930\u0940",
    "2727": "\u0940 \u090f",
    "2728": "\u0939\u0941\u092e\u0942\u0932\u094d\u092f",
    "2729": " \u0930 \u0909\u0938",
    "2730": "\u0915\u094b \u0930\u093e\u091c\u094d\u092f",
    "2731": "\u0939\u093f\u0902",
    "2732": "\u0926\u0930\u094d\u0936",
    "2733": "\u0940\u091a",
    "2734": "\u0932\u093e\u0908 \u0927\u0947\u0930\u0948",
    "2735": "\u0915\u094b \u0906\u0926\u0947\u0936",
    "2736": "\u091f\u093e\u0922",
    "2737": " \u0917\u0930\u094d\u0928\u0941 \u092d\u092f\u094b",
    "2738": "\u0915\u094b \u090f\u0909\u091f\u093e ",
    "2739": "\u0915\u093e \u092a\u093f\u0924\u093e",
    "2740": "\u0932\u0947 \u0936",
    "2741": " \u092a\u0936\u0941\u0939\u0930\u0942",
    "2742": "\u0909\u0901\u0926\u094b ",
    "2743": ", \u091c\u092c",
    "2744": " \u0925\u093f\u090f\u0928",
    "2745": "\u0964\n\u0924\u0940 \u092e\u093e\u0928\u093f\u0938\u0939\u0930\u0942",
    "2746": "\u092f\u094b\u0938\u094d",
    "2747": " \u092a\u093e\u0930\u094d\u0928",
    "2748": "\u0930\u093e\u0937\u094d\u091f\u094d\u0930",
    "2749": "\u0924\u094d\u092e\u093e",
    "2750": " \u0927\u094d\u0935\u0902\u0936",
    "2751": "\u092d\u093e",
    "2752": "\u0932\u0947 \u092d\u0928\u094d\u0928\u0941\u092d\u092f\u094b, \u201c",
    "2753": "\u092e\u093e\u0928\u094d\u0926\u093e\u0930",
    "2754": "\u093e \u0917\u0930\u093f\u0930\u0939\u0947",
    "2755": " \u092a\u0930\u093f",
    "2756": " \u0932\u0941\u0915",
    "2757": " \u0938\u092f",
    "2758": "\u092e\u0941",
    "2759": "\u0930\u093e\u0928",
    "2760": "\u0942\u090f\u0932",
    "2761": " \u091a\u0941\u0928\u093f\u090f",
    "2762": "\u094d\u0928 \u0938\u0915\u094d\u0924\u0948\u0928",
    "2763": "\u0928\u094d\u0927\u0915\u093e\u0930",
    "2764": "\u0941\u0928\u0903",
    "2765": " \u092a\u094d\u0930\u093e\u0923",
    "2766": "\u0930\u0941",
    "2767": "\u0930\u093e\u0939\u0947\u0932",
    "2768": "\u093e\u0909\u0928\u0940",
    "2769": " \u0921\u0930",
    "2770": "\u0924\u0930\u0935\u093e\u0930",
    "2771": " \u092c\u0917",
    "2772": " \u092c\u093f\u0924",
    "2773": "\u0927\u093e\u0930\u0923",
    "2774": "\u0932\u0947 \u0915\u0947\u0939\u0940",
    "2775": "! \u092e",
    "2776": "\u0915\u093e \u090f\u0915",
    "2777": "\u0964 \u0930",
    "2778": "\u0939\u0947\u0930\u094d",
    "2779": "\u093e\u0930\u093f\u0926\u093f\u090f",
    "2780": "\u0932\u093e\u0908 \u092e\u093e\u0930",
    "2781": "\u0928\u093e\u0924\u093e\u0928",
    "2782": "\u092c\u0947\u0932\u093e ",
    "2783": "\u0932\u093e\u0908 \u0924\u094d\u092f\u0938",
    "2784": "\u0925\u093f\u092f\u094c",
    "2785": "\u0964\n\u0909\u0938",
    "2786": "\u0924\u093e\u090f",
    "2787": "\u0940 \u0938\u092c",
    "2788": " \u092e\u0938\u0901\u0917",
    "2789": "\u0932\u093e\u0908 \u0924",
    "2790": "\u0915\u093e \u0905\u0917\u0941\u0935\u093e ",
    "2791": "\u0932\u093e\u0908 \u0909\u0928",
    "2792": " \u0938\u093e\u0939",
    "2793": "\u092c\u0947",
    "2794": "\u0932\u0947 \u0906\u092b\u094d\u0928",
    "2795": "\u092c\u094b\u0932",
    "2796": " \u0924\u094b\u0921\u093e ",
    "2797": " \u092a\u093e\u0909\u0928\u0947 ",
    "2798": "\u0925\u0947\u0964\n",
    "2799": "\u0964 \u0909\u0928\u0932\u0947 \u092d\u0928\u0947, \u201c",
    "2800": "\u093e \u0917\u0930\u094d\u091b\u0928\u094d",
    "2801": "\u091c\u0928\u093e",
    "2802": "\u0915\u093e \u0928",
    "2803": " \u0915\u0942",
    "2804": "\u0915\u093e \u0935",
    "2805": "\u094d\u0928\u0941",
    "2806": "\u0915\u093e\u0930\u0940",
    "2807": " \u0909\u0921",
    "2808": "\u094d\u0928\u0941 \u092d\u092f\u094b",
    "2809": "\u0926\u094b\u0938\u094d\u0930\u094b ",
    "2810": "\u0932\u0947 \u0924\u093f\u0928\u0940\u0939\u0930\u0942\u0932\u093e\u0908 ",
    "2811": " \u0930\u093e\u091c\u094d\u092f",
    "2812": "\u0917\u094d\u0932\u094b ",
    "2813": "0 \u0939\u093e\u0924",
    "2814": "\u0915\u0947\u092e",
    "2815": " \u0938\u093e\u092e\u0930",
    "2816": " \u0905\u0917\u092e\u0935\u0915\u094d\u0924\u093e\u0939\u0930\u0942",
    "2817": "\u092e\u093e \u0915\u093f",
    "2818": "\u092c\u093f\u092f\u093e\u0939",
    "2819": " \u0905\u0928\u093f \u0932\u0947\u0935\u0940\u0939\u0930\u0942",
    "2820": " \u091c\u093e\u0924\u093f\u0939\u0930\u0942",
    "2821": " \u0926\u0941\u0937\u094d\u091f\u0939\u0930\u0942",
    "2822": " \u0905\u0924\u093f",
    "2823": "\u0928\u0941 \u092d\u0928\u0940",
    "2824": "\u0932\u093f\u092f\u093e ",
    "2825": "\u0915\u0941\u0930\u093e",
    "2826": "\u0915\u094b \u092a\u094d\u0930\u0947\u092e",
    "2827": " \u0935\u0930\u094d\u0937\u0915\u093e \u0925\u093f\u090f",
    "2828": "\u0906\u092b\u094d\u0928\u093e ",
    "2829": "\u0964 \u092f\u094b\u0906\u092c",
    "2830": "\u0915\u094b \u0939\u093e\u0924",
    "2831": " \u0917\u0930\u093e\u090f",
    "2832": "\u0964 \u092c",
    "2833": "\u0903 \u201c",
    "2834": "\u094d\u0930\u0939\u0923",
    "2835": "\u093e\u0928\u093e ",
    "2836": "\u0915\u093e \u092f",
    "2837": "\u0915\u093e \u0938\u0947\u0928\u093e\u0939\u0930\u0942",
    "2838": " \u0926\u093f\u090f\u0901",
    "2839": " \u0935\u0940",
    "2840": " \u092d\u090f\u0928",
    "2841": "\u0926\u092e\u0948",
    "2842": " \u0936\u0915\u094d\u0924\u093f\u0936\u093e\u0932\u0940",
    "2843": "\u094d\u092f\u094c",
    "2844": "\u0932\u093e\u0908 \u0925\u093e\u0939\u093e ",
    "2845": "\u0930\u093e\u091c\u093f\u0924",
    "2846": "\u0940 \u0928\u0948",
    "2847": " \u0909\u092a\u0939\u093e\u0930",
    "2848": "\u092e\u093e \u091c\u093e\u0928",
    "2849": "\u0932\u093e\u0908 \u0928\u093f",
    "2850": " \u0906\u0926\u0947\u0936",
    "2851": "\u0932\u0947 \u092d\u0928\u0940",
    "2852": "\u093e\u0909\u0928\u0941\u0939\u094b\u0938\u094d",
    "2853": " \u0906\u090a",
    "2854": "\u0915\u094b\u0939\u0940",
    "2855": "\u0925\u093f\u092f\u094b \u0905\u0928\u093f",
    "2856": " \u092e\u0938\u093f\u0924",
    "2857": "\u0922\u093e\u0915",
    "2858": "\u093e \u0917\u0930\u0947\u0902",
    "2859": "\u0943\u0926\u094d\u0927",
    "2860": "\u092e\u093e \u092d\u090f\u0915\u094b ",
    "2861": " \u0905\u0928\u093f \u0936",
    "2862": " \u0906\u0915\u093e\u0936",
    "2863": "\u0917\u0941\u0923",
    "2864": " \u092d\u0947\u0921\u093e\u0939\u0930\u0942",
    "2865": "\u093e\u090f\u0915\u093e \u0925\u093f\u090f",
    "2866": " \u091c\u0938\u0930\u0940",
    "2867": "\u0915\u0941\u0928\u0948 \u092a\u0928\u093f",
    "2868": "\u0915\u094b \u0935\u0947\u0926\u0940",
    "2869": "\u0915\u094b \u0935\u0930\u093f\u092a\u0930\u093f",
    "2870": "\u092a\u0928\u093e",
    "2871": "\u0928\u0941\u092d\u0935",
    "2872": "\u092e\u093e \u090f\u0915",
    "2873": " \u0920",
    "2874": " \u090f\u0926\u094b\u092e",
    "2875": "\u091c\u0947\u092c\u0947\u0932",
    "2876": "\u0932\u093e\u0908 \u092b\u0947\u0930\u093f",
    "2877": "\u0915\u093e \u0928\u093f\u092e\u094d\u0924\u093f \u0924\u092f\u093e\u0930",
    "2878": " \u092e\u093e\u0928\u093f\u0938\u0939\u0930\u0941",
    "2879": "\u0932\u094d\u0932\u0942\u092e",
    "2880": " \u0915\u0928\u093e\u0928",
    "2881": "\u092c\u0942\u0915\u0926\u0928\u0947\u0938\u0930",
    "2882": "\u0939\u093e\u0928\u093e\u0928",
    "2883": "\u0942\u0905",
    "2884": "\u0942\u091a\u0940",
    "2885": "\u091c\u094d\u091e\u093e\u0939\u0930\u0942",
    "2886": "\u0915\u093e \u0938\u092e\u0938\u094d\u0924",
    "2887": "\u094d\u0930\u093e\u0939\u0930\u0942",
    "2888": " \u0905\u0924\u094d\u092f\u0928\u094d\u0924\u0948",
    "2889": "\u0940\u0921",
    "2890": "\u0915\u0941\u091f",
    "2891": "\u092e\u093e\u091a\u093e\u0930",
    "2892": "\u092e\u093e \u0916",
    "2893": "\u0935\u091f",
    "2894": "\u0915\u094b \u0938\u0902",
    "2895": " \u092c\u0947\u0902\u0938\u0940",
    "2896": "\u0930\u094d\u0915\u0947",
    "2897": "\u0932\u093e\u0908 \u0909\u0938",
    "2898": " \u0917\u0930\u094d\u0928\u0941 \u092a\u0930\u094d\u091b",
    "2899": " \u0905\u092a",
    "2900": "\u0964\u201d \u0924\u092c",
    "2901": "\u0926\u0923\u094d\u0921",
    "2902": " \u0926\u0941\u0935\u0948",
    "2903": "\u0915\u093e \u0928\u093e\u0909\u0901",
    "2904": "\u0930\u093e\u0927\u0928",
    "2905": "\u0940 \u0928",
    "2906": "\u0939\u093f\u0932\u0947",
    "2907": "\u0915\u094b \u0938\u0947\u0935\u0915",
    "2908": " \u092d\u0930\u093f",
    "2909": " \u0906\u0936\u0940\u0930\u094d\u0935\u093e\u0926",
    "2910": "\u0932\u0947 \u0932",
    "2911": " \u0932\u0947\u0916",
    "2912": ", \u092e \u0924\u092a\u093e\u0908\u0902",
    "2913": "\u0939\u093e\u0936",
    "2914": "\u0913\u091b\u094d\u092f\u093e\u0928",
    "2915": " \u0928\u091c\u093f\u0915",
    "2916": "\u0920\u0942\u0932\u093e ",
    "2917": "\u0940 \u0930\u093e\u091c\u093e ",
    "2918": "\u0947 \u091c\u094b ",
    "2919": "\u0928\u0947\u091b\u094c\u0902",
    "2920": " \u092a\u0930\u0947",
    "2921": "\u093f\u090f\u0915\u093e ",
    "2922": "\u0964 \u0930\u093e\u091c\u093e ",
    "2923": "\u092a\u0941",
    "2924": "! \u092a\u0930\u092e\u092a\u094d\u0930\u092d\u0941",
    "2925": "\u0941\u091f",
    "2926": "\u092e\u0927\u094d\u092f\u0947 ",
    "2927": "\u0925\u093f\u092f\u094b\u0964\n",
    "2928": "\u0936\u093e\u0928",
    "2929": " \u092a\u094d\u0930\u0924\u093f\u091c\u094d\u091e",
    "2930": " 6",
    "2931": " \u092c\u093f\u0939\u093e\u0928",
    "2932": " \u0935\u0947\u0926\u0940",
    "2933": " \u0935\u093f\u0937\u092f\u092e\u093e ",
    "2934": "\u0915\u094b \u0935\u094d\u092f\u0935\u0938\u094d\u0925",
    "2935": "\u0932\u0947 \u092a\u094d\u0930\u0924\u094d\u092f\u0947\u0915",
    "2936": "\u092c\u094b\u0924",
    "2937": "\u0936\u094d\u091a\u093f\u092e",
    "2938": "\u0932\u0947 \u092d\u0928\u094d\u0928\u0941\u092d\u092f\u094b",
    "2939": " \u0922\u0941\u0919\u094d\u0917",
    "2940": " \u091a\u094c",
    "2941": " \u091c\u094b\u0917",
    "2942": "\u0939\u093f\u092e\u093e",
    "2943": " \u092e\u0928 \u092a",
    "2944": " \u0927\u0942\u092a",
    "2945": " \u091c\u0939\u093e\u091c",
    "2946": "\u092e\u0928",
    "2947": " \u091f\u093e\u0922\u093e ",
    "2948": "\u0928\u093f\u0938\u094d\u0924\u093e\u0930 \u091a\u093e\u0921",
    "2949": ", \u092f\u094b",
    "2950": " \u092d\u092f\u094b \u0905\u0928\u093f",
    "2951": "\u093f\u092f\u093e\u092e\u093e ",
    "2952": " \u092f\u094b\u091c\u0928\u093e\u0939\u0930\u0942",
    "2953": "\u0924\u093f\u0928\u0940",
    "2954": "\u0939\u091c\u0940",
    "2955": " \u0935\u093f\u0936\u093e\u0932",
    "2956": "\u0964 \u092f\u094b\u0906\u0936",
    "2957": "\u0935\u094d\u092f\u0935\u0938\u094d\u0925",
    "2958": "\u0926\u0915\u093f\u092f\u093e\u0939",
    "2959": "\u090f\u0938\u093e\u0935",
    "2960": " \u091c\u0928\u094d\u092e\u0947",
    "2961": " \u092a\u0930\u092e\u0947\u0936\u094d\u0935\u0930\u0915\u094b \u092e\u0928\u094d\u0926\u093f\u0930",
    "2962": "\u0938\u094d\u0924\u0935",
    "2963": "\u094d\u0935\u092f\u0902",
    "2964": " \u0938\u094d\u0935\u092f\u0902",
    "2965": "\u0932\u093e\u0908 \u0927\u094d\u0935\u0902\u0936",
    "2966": "\u0939\u093e\u092e\u0940\u0939\u0930\u0942",
    "2967": "\u0926\u0941\u0937\u094d\u091f \u092e\u093e\u0928\u093f\u0938",
    "2968": "\u0964\n\u092f\u0942\u0938\u0941\u092b",
    "2969": "\u0964\u201d\n\u0926\u093e\u090a\u0926",
    "2970": ", \u0915\u0947 ",
    "2971": " \u0925\u093f\u090f\u0901",
    "2972": "\u0938\u094b ",
    "2973": "\u0924\u093f\u092f\u093e\u0930",
    "2974": "\u0940 \u092a\u0924\u094d\u0928",
    "2975": "\u0917\u093e\u0921",
    "2976": " \u092d\u0947\u0932\u093e ",
    "2977": "-\u0905",
    "2978": " \u0926\u093f\u090f\u0930",
    "2979": "\u0964 \u0924\u0930 \u092e",
    "2980": "\u0932\u093e\u0908 \u091b\u094b\u0921",
    "2981": "\u0925\u093e\u0939\u093e \u092a",
    "2982": " \u0926\u0947\u0916\u094d",
    "2983": "\u0932\u093e\u0908 \u0924\u094d\u092f\u094b ",
    "2984": "\u0932\u093e\u0908 \u092d\u0947\u091f\u094d\u0928",
    "2985": "\u0964)",
    "2986": " \u0905\u0917\u0941\u0935\u093e\u0939\u0930\u0942",
    "2987": " (",
    "2988": "\u0964\u201d \u092f\u0938\u0915\u093e\u0930\u0923",
    "2989": "\u0935\u0928",
    "2990": "\u0915\u094b \u0906\u0935\u093e\u091c",
    "2991": " \u0938\u093e",
    "2992": "\u0947\u0938",
    "2993": "\u0939\u0940\u0928\u093e ",
    "2994": " \u0938\u0926\u093e-\u0938\u0930\u094d\u0935\u0926\u093e ",
    "2995": "\u0926\u093f\u0928\u0947 ",
    "2996": "\u093e\u092a\u093f\u0924",
    "2997": "\u093f\u0926\u093f\u090f",
    "2998": " \u092a\u094d\u0930\u093e\u092a\u094d\u0924",
    "2999": " \u092d\u0928\u0947 \u092e",
    "3000": " \u0916\u0947\u0924",
    "3001": "\u0932\u093e\u0908 \u092a\u0915\u094d\u0930",
    "3002": " \u0927\u0930\u094d\u092e",
    "3003": " \u0938\u0941\u0924",
    "3004": " \u092f\u093e\u0924\u094d\u0930",
    "3005": "\u094c\u0902 \u0926\u093f\u0928",
    "3006": "\u0930\u092e\u093e\u0925\u093f",
    "3007": "\u0915\u094b \u092e\u0941",
    "3008": " \u0935\u093e\u0927\u094d\u092f",
    "3009": "\u0932\u093e\u0908 \u0938\u0941",
    "3010": " \u092d\u090f\u0915\u093e ",
    "3011": "\u093e\u0928\u094b ",
    "3012": "! \u0924\u092a\u093e\u0908\u0902",
    "3013": "\u0932\u093e\u0908 \u0915\u0947 ",
    "3014": " \u0939\u0941\u0928\u0941\u0939\u0941\u0928\u094d\u0925\u094d\u092f\u094b",
    "3015": " \u0917\u0930\u094d\u0926",
    "3016": "\u0922\u0940",
    "3017": "\u0938\u0924\u094d\u092f",
    "3018": "\u0915\u094b \u0906\u091c\u094d\u091e\u093e \u092a\u093e\u0932\u0928",
    "3019": "\u0940 \u091b",
    "3020": "\u0915\u0941\u0901",
    "3021": " \u092e\u0939\u0940\u0928\u093e",
    "3022": " \u0938\u092e\u0915\u094d\u0937",
    "3023": "\u0932\u0947 \u0935\u093f",
    "3024": "\u0924\u0901",
    "3025": " \u092a\u0942\u0930\u094d\u0923",
    "3026": "\u0947\u0926\u0940\u0939\u0930\u0942",
    "3027": " \u092e\u0939\u093e\u0928",
    "3028": "\u0926\u093e\u092f",
    "3029": "\u091c\u0939\u093e\u0901",
    "3030": "\u0939\u0930\u0942 \u0925\u093f\u090f",
    "3031": "\u094b\u0915\u093e\u0939\u0930\u0942",
    "3032": "\u093e\u092a\u0939\u0930\u0942",
    "3033": " \u091c\u093e\u0928\u094d\u0928\u0941\u0939\u0941\u0928\u094d\u091b",
    "3034": "\u0932\u0947 \u091a",
    "3035": " \u0936\u0941\u0926\u094d\u0927",
    "3036": " \u0915\u093e\u0932",
    "3037": " \u092a\u093e\u0909\u0901",
    "3038": "\u0940\u092c",
    "3039": "\u0915\u093e \u091b\u094b\u0930\u093e \u0925\u093f\u090f\u0964\n",
    "3040": "\u0932\u0947 \u0905\u092c\u094d\u0930\u093e\u0939\u093e\u092e",
    "3041": " \u0939\u0947 ",
    "3042": " \u0939\u093e\u092e\u093e\u0928",
    "3043": "\u0932\u093e\u0908 \u092c\u091a\u093e\u0909\u0928\u0941 \u0939\u094b\u0938\u094d",
    "3044": "\u0928\u093f\u0936\u094d\u091a\u092f",
    "3045": " \u0916\u093e\u090f",
    "3046": ", \u0905\u0928\u093f \u092e",
    "3047": " \u0936\u0939\u0930\u092e\u093e ",
    "3048": "\u0915\u094b \u0930\u093e\u091c\u093e ",
    "3049": "\u092c\u093e\u091f\u094b ",
    "3050": "\u0917\u094d\u0932\u093e ",
    "3051": "\u0932\u093e\u0908 \u0915\u0947\u0939\u0940",
    "3052": " \u0917\u092f\u094b",
    "3053": " \u0906\u091c",
    "3054": " \u0921\u0930\u093e\u090f",
    "3055": "\u0964 \u092f\u0938\u0930\u0940",
    "3056": "\u0932\u0947 \u0930",
    "3057": "\u094b\u0937\u0923",
    "3058": "\u0942\u0938",
    "3059": " \u092c\u0928\u093e\u0907",
    "3060": "\u0915\u094b \u0938\u093e\u0925",
    "3061": "\u0915\u094b \u092c\u0947",
    "3062": "\u0939\u093f\u0902\u0921",
    "3063": "\u090f\u0930",
    "3064": " \u0906\u092b\u0948\u0902",
    "3065": "\u0916\u094b",
    "3066": " \u0905\u0928\u093f \u0909\u0939\u093e\u0901",
    "3067": " \u0905\u0928\u093f \u0924\u093f\u092e\u0940",
    "3068": "\u0964 \u0905\u0928\u093f \u092e",
    "3069": "\u0932\u093e\u0908 \u0927\u0928\u094d\u092f\u0935\u093e\u0926",
    "3070": "\u0938\u0928\u094d\u0924\u093e\u0928\u0939\u0930\u0942",
    "3071": "\u0917\u094d\u092f",
    "3072": " \u0926\u093f\u0902",
    "3073": "\u0932\u0947 \u0905\u0930\u093e\u092e",
    "3074": " \u0926\u093f\u0928\u0947",
    "3075": " \u0939\u094c\u0902",
    "3076": " \u092f\u0930\u094d\u0926\u0928 \u0928\u0926\u0940",
    "3077": " \u0924\u094d\u092f\u0938\u092a\u091b\u093f",
    "3078": "\u0915\u0941\u0932",
    "3079": "\u0925\u094d\u092f\u094b ",
    "3080": " \u0938\u092e\u094d\u092a\u0924\u094d\u0924\u093f",
    "3081": " \u0930 \u0909\u0928",
    "3082": "\u093e\u0928\u0915",
    "3083": "\u0932\u093e\u0908\u0902",
    "3084": " \u092d\u0908",
    "3085": "\u0928\u0947 \u091b\u0941",
    "3086": "\u0917\u0947",
    "3087": "\u0938\u0902",
    "3088": "\u0901\u0917\u0928",
    "3089": " \u0905\u091d\u0948",
    "3090": " \u0905\u0928\u094d\u0924",
    "3091": ", \u092e\u0947\u0930\u093e ",
    "3092": "\u092e\u093e \u0909\u092d",
    "3093": "\u0915\u094b \u092a\u094d\u0930\u093e\u0930\u094d\u0925\u0928\u093e ",
    "3094": "\u0926\u093f\u0928\u0941\u092d\u092f\u094b",
    "3095": "\u0915\u093e \u092a\u0930\u092e\u092a\u094d\u0930\u092d\u0941 \u092a\u0930\u092e\u0947\u0936\u094d\u0935\u0930",
    "3096": " \u092e\u0927\u094d\u092f\u0947 \u090f\u0915",
    "3097": ", \u0924\u092c",
    "3098": " \u0930\u093e\u091c\u093e \u0938\u0941\u0932\u0947\u092e\u093e\u0928",
    "3099": "\u0901\u0927\u0948",
    "3100": "\u0942\u0932\u094d\u092f\u0935\u093e\u0928",
    "3101": "\u0930\u0942\u092c \u0938\u094d\u0935\u0930\u094d\u0917",
    "3102": " \u0905\u0928\u093f \u092f\u0938",
    "3103": " \u091c\u0938\u0932\u0947 \u0917\u0930\u094d\u0926\u093e ",
    "3104": " \u0925\u094b\u0915",
    "3105": "\u0947\u0928-\u0939\u0926\u0926",
    "3106": "\u0930\u093e-",
    "3107": " \u092f\u094b\u0906\u0936",
    "3108": "\u0902\u0919\u094d\u0917",
    "3109": "\u0926\u094d\u0926",
    "3110": "\u0915\u093e \u091b\u094b\u0930\u093e\u0939\u0930\u0942-",
    "3111": "\u0964\n\u0915\u093f\u0928",
    "3112": "\u0939\u093e\u092e\u093e\u0928",
    "3113": "\u0928\u0928\u094d\u0924\u0938\u092e\u094d\u092e",
    "3114": "\u0915\u094b \u0915\u0941\u0930\u093e ",
    "3115": "\u0926\u0947\u0936\u0940\u0939\u0930\u0942",
    "3116": " \u0939\u0941\u0928\u0947\u091b\u0941",
    "3117": "\u0947\u0932\u0939",
    "3118": "\u0925\u093f\u0907\u0928",
    "3119": " \u0908",
    "3120": "\u0925\u0947 \u0905\u0928\u093f",
    "3121": "\u091c\u093e\u0928\u094d",
    "3122": "\u0942\u0930\u093e ",
    "3123": "\u0928\u094d\u0924\u0941",
    "3124": " \u0926\u093f\u0928\u0941\u0939\u0941\u0928\u0947\u091b",
    "3125": "\u0932\u093e\u0908 \u0930\u093e\u091c\u093e",
    "3126": " \u0924\u093f\u0928\u0932\u0947 ",
    "3127": " \u092d\u0924\u094d\u0915",
    "3128": "\u0909\u091c\u094d\u091c",
    "3129": "\u0928\u093f\u092e\u094d\u0924",
    "3130": "\u0964\n\u0907\u0938\u094d\u0930\u093e\u090f\u0932",
    "3131": " \u092f\u094b\u0917\u094d\u092f",
    "3132": " \u092a\u0930\u092e\u0947\u0936\u094d\u0935\u0930 \u0939\u0941\u0928\u0941\u0939\u0941\u0928\u094d\u091b",
    "3133": "\u0938\u0947\u0928\u093e",
    "3134": "\u0928\u0947 \u091b\u094c",
    "3135": "\u092e\u094d\u092e\u094b\u0928\u0940\u0939\u0930\u0942",
    "3136": "\u0915\u094b \u0926\u094d\u0935\u093e\u0930",
    "3137": " \u092a\u0930\u094d\u0916\u093e\u0932",
    "3138": "\u0942\u0907\u0901",
    "3139": "\u0938\u094b\u091a",
    "3140": " \u091c\u093f\u0924",
    "3141": " \u092c\u0939\u093f\u0928\u0940",
    "3142": "\u093e\u092a\u0928",
    "3143": "\u0915\u0947\u091f",
    "3144": "\u0930\u094d\u092c",
    "3145": " \u0924\u094d\u092f\u094b \u092e\u093e\u0928\u093f\u0938",
    "3146": "\u0925\u0947\u0902",
    "3147": "\u092e\u093e \u092a\u0941\u0917",
    "3148": "\u0915\u093e \u0925\u093f\u090f\u0964 \u0924\u093f\u0928\u0940\u0939\u0930\u0942",
    "3149": "\u092c\u093e\u091f\u094b",
    "3150": "\u0932\u093e\u0908 \u0906\u0915\u094d\u0930\u092e\u0923",
    "3151": " \u0926\u0936",
    "3152": "\u093e\u0939\u093f\u0928\u0947 ",
    "3153": ", \u0924\u093f\u092e\u0940\u0939\u0930\u0942",
    "3154": "\u0932\u093e\u0908 \u092c\u091a\u093e\u0909\u0901",
    "3155": " \u0909\u091a\u094d\u091a",
    "3156": "\u0930\u094d\u0924\u0940",
    "3157": "\u0938\u094b",
    "3158": "\u0915\u094d\u0937\u093f",
    "3159": " \u092c\u0928\u093e\u0909\u0901",
    "3160": " \u0917\u0930\u0947\u0964 \u0909\u0928",
    "3161": "\u0930\u0947 \u0905\u0928\u093f",
    "3162": " \u0938\u0941\u0916",
    "3163": " \u0926\u0932",
    "3164": " \u091a\u093e\u0930",
    "3165": "\u093e\u090f \u0905\u0928\u093f",
    "3166": "\u0923\u094d\u0921\u093e\u0930",
    "3167": "\u0938\u0941\u0928\u093f",
    "3168": "\u093f\u0932",
    "3169": "\u0928\u093e\u0936",
    "3170": " \u0930\u0925\u0939\u0930\u0942",
    "3171": "\u092f\u0930\u0942\u0936\u0932\u0947\u092e",
    "3172": "\u093e\u0932\u0940\u0938",
    "3173": "\u093f\u092e\u094b\u0928",
    "3174": " \u090f\u0932\u093f\u092f\u093e",
    "3175": " \u0909\u0926\u093e\u0938",
    "3176": "\u0926\u093e\u0916",
    "3177": " \u092f\u094b\u0930\u093e\u092e",
    "3178": "\u0932\u0947 \u0924\u093f\u0928\u0940\u0939\u0930\u0942\u0932\u093e\u0908 \u092d\u0928\u0947, \u201c",
    "3179": "\u0947\u0930\u0939",
    "3180": " \u092b\u0948\u0932",
    "3181": "\u0915\u093e \u0915\u0941\u0932 \u0938\u092e\u0942\u0939",
    "3182": " \u0939\u0930\u0947\u0915",
    "3183": "\u0915\u094b \u0938\u092e\u0915\u094d\u0937",
    "3184": "\u092c\u093e\u0916",
    "3185": "\u0930\u094d\u0928\u093f\u0930\u094d\u092e\u093e\u0923",
    "3186": " \u0926\u093f\u0928\u094d\u091b",
    "3187": "\u0915\u094b \u0938\u094d\u0928\u0947\u0939\u092a\u0942\u0930\u094d\u0923 \u0915\u0930\u0942\u0923\u093e \u0905",
    "3188": " \u0932\u093e\u092c\u093e\u0928",
    "3189": " \u0938\u093f\u0915",
    "3190": "\u0930\u0947\u0930",
    "3191": "\u0907\u0938\u0915\u0947",
    "3192": "\u093e\u0909\u0928 \u0938",
    "3193": "\u0906\u092b\u094d\u0928\u0948",
    "3194": " \u092a\u0939\u093e\u0921",
    "3195": "\u0924\u0930\u094d\u092b",
    "3196": "\u0940 \u0932",
    "3197": "\u0932\u0947 \u0928\u0948",
    "3198": " \u092c\u0932\u093f\u092f\u094b ",
    "3199": "\u0917\u0930\u094d\u0928",
    "3200": " \u092a\u0930\u093f\u0935\u093e\u0930 \u0938\u092e\u0942\u0939",
    "3201": " \u0932\u093e\u092e",
    "3202": "\u0938\u094d\u0915\u093e\u0930",
    "3203": "\u093e\u0938\u0915",
    "3204": " \u0917\u0930\u094d\u0928\u0941 \u0939\u0941\u0928\u0947\u091b",
    "3205": " \u0915\u093e\u0920",
    "3206": "\u092f\u0928\u094d\u0924\u094d\u0930",
    "3207": "\u094b\u091a\u094d\u091a",
    "3208": "\u0915\u093e \u091c\u0928",
    "3209": "\u092b\u094d\u0930\u0947\u091f",
    "3210": " \u0938\u0947\u0928\u093e",
    "3211": " \u0938\u0940",
    "3212": "\u0928\u0941\u092a\u0930\u094d\u091b",
    "3213": "\u0915\u094b \u0926\u0947\u0936",
    "3214": " \u092a\u0924\u094d\u0930",
    "3215": "\u091c\u093e\u0928\u094d\u0926",
    "3216": "\u093e\u0909\u0928\u0941\u092d\u092f\u094b",
    "3217": "\u0915\u0939\u093e\u0901 \u0917\u090f",
    "3218": " \u0924\u093f\u0930\u094d",
    "3219": " \u0917\u0930\u0947\u0964",
    "3220": "\u093e\u0908\u0902",
    "3221": "\u092d\u093e\u0935",
    "3222": "\u0905\u092c\u094d\u0936\u093e\u0932\u094b\u092e",
    "3223": " \u0939\u0947\u0930\u094d\u0928",
    "3224": "\u092d\u093f\u0928\u094d\u0928",
    "3225": " \u092a\u093e\u0907",
    "3226": " \u0906\u092b\u0928\u094d\u0924",
    "3227": "\u0915\u094b \u091b\u094b\u0930\u094b ",
    "3228": "\u0915\u094b \u0935\u091a\u0928",
    "3229": " \u0906\u090f\u0915\u094b ",
    "3230": "\u0932\u0947 \u0924\u0940 \u0915\u0941\u0930\u093e\u0939\u0930\u0942",
    "3231": "\u091b\u094d\u092f",
    "3232": "\u0927\u093e\u0939\u0930\u0942",
    "3233": "\u0964 \u0938\u092c\u0948",
    "3234": "\u0964\n\u0939\u093e\u092e\u0940",
    "3235": " \u091a\u093e\u0901\u0921\u0948",
    "3236": "\u092e\u093e \u092b",
    "3237": " \u0925\u093f\u090f\u0964 ",
    "3238": "\u0932\u0947 \u0924\u094d\u092f\u0939\u093e\u0901",
    "3239": " \u0935\u091f\u093e ",
    "3240": "\u0915\u094d\u0937\u093f\u0923",
    "3241": " \u092e\u0947\u0930\u094b \u0938",
    "3242": " \u091c\u0928\u093e \u0935\u094d\u092f\u0915\u094d\u0924\u093f\u0939\u0930\u0942",
    "3243": ", \u092f\u094b ",
    "3244": " \u0939\u0941\u0901\u0926\u0948\u0928",
    "3245": "\u0915\u0938\u0948\u0932\u0947 ",
    "3246": "\u092e\u0939\u093e\u0928\u094d",
    "3247": " \u0939\u0941\u0928\u0947 \u091b\u0948\u0928",
    "3248": "\u092e\u093e \u092a\u0930\u092e\u0947\u0936\u094d\u0935\u0930",
    "3249": "\u0917\u094b",
    "3250": "\u094b \u0917\u0930",
    "3251": " \u0926\u093f\u0928\u0941 \u0939\u094b\u0938\u094d",
    "3252": "\u092f\u094b\u091c\u0928\u093e\u0939\u0930\u0942",
    "3253": "\u0906\u0901\u0916",
    "3254": "\u0922\u0941",
    "3255": " \u0938\u094d\u0935\u0940\u0915\u093e\u0930",
    "3256": "\u0964\n\u0928",
    "3257": "\u0907\u0936\u094d\u092e\u093e\u090f\u0932",
    "3258": "\u0939\u093e\u0930\u0942\u0928",
    "3259": "\u0939\u0942\u0926\u093e \u0905\u0928\u093f \u092f\u0930\u0942\u0936\u0932\u0947\u092e",
    "3260": "\u092c\u093e\u091f\u0903",
    "3261": "\u0927\u094d\u0935\u0902\u0936",
    "3262": ", \u0905\u0928\u093f \u0924\u093f\u0928\u0940\u0939\u0930\u0942",
    "3263": "\u0941\u0928\u0903\u0930\u094d\u0928\u093f\u0930\u094d\u092e\u093e\u0923",
    "3264": "\u0939\u093e\u0938\u0942\u0930",
    "3265": "\u092e\u093e\u0925\u093f \u092d\u0930\u094b\u0938",
    "3266": "\u092e\u093e \u090f\u0909\u091f\u093e ",
    "3267": " \u0924\u094d\u092f\u0938 \u092e\u093e\u0928\u093f\u0938",
    "3268": " \u091c\u094b\u0928\u093e\u0925\u0928",
    "3269": "\u0915\u093e \u091a",
    "3270": "\u0964\n\u092f\u0939\u0942\u0926\u093e",
    "3271": " \u0915\u0938\u0930\u0940",
    "3272": "\u0920\u093e\u090f",
    "3273": "\u092f\u094b\u0917\u094d\u092f",
    "3274": "\u0928\u0941 \u092d\u090f\u0915\u094b\u091b",
    "3275": "\u0915\u094b \u092b",
    "3276": " \u0917\u0930\u094d\u0926\u093e ",
    "3277": " \u092e\u093e\u091d",
    "3278": "\u093e\u0939\u0947\u0932",
    "3279": "\u092c\u093f\u0928\u094d\u092f\u093e\u092e\u0940\u0928",
    "3280": "\u091c\u0941",
    "3281": "\u0915\u094b\u0936\u093f\u0936",
    "3282": " \u092e\u093e\u0930\u0947",
    "3283": "\u0930\u093e\u092a",
    "3284": " \u0938\u094d\u0924\u094d\u0930\u0940",
    "3285": "\u0936\u093e\u0938\u0915",
    "3286": " \u092e \u0924\u093f\u092e\u0940",
    "3287": "\u0917\u0941\u0935\u093e",
    "3288": " \u0915\u0920",
    "3289": " \u092e\u0942\u0930\u094d\u0916",
    "3290": "\u0939\u0941\u0901\u0926\u093e ",
    "3291": " \u0939\u0941\u0928\u0947\u091b\u094c",
    "3292": "\u092a\u0935\u093f\u0924\u094d\u0930",
    "3293": "\u091d\u094d\u092f\u093e\u0932",
    "3294": "\u092e\u093e \u092e\u093e\u0928\u093f\u0938\u0939\u0930\u0942",
    "3295": "\u092b\u094d\u0930\u0947\u091f\u093f\u0938",
    "3296": "\u0930\u094d\u092a\u0923",
    "3297": " \u091d\u0941\u0915",
    "3298": "\u0964 \u092f\u0938\u0948\u0932\u0947 ",
    "3299": "\u0936\u0947\u092c\u093e ",
    "3300": "\u0940 \u0936",
    "3301": "\u0924\u094d\u0938\u093e\u0939",
    "3302": "\u092f\u093e\u0924\u094d\u0930",
    "3303": " \u0924\u0930\u0935\u093e\u0930",
    "3304": " \u0930 \u0936",
    "3305": " \u0938\u0915",
    "3306": " \u0935\u094d\u092f\u0935\u0939\u093e\u0930",
    "3307": "\u0936\u093f\u092e\u0940",
    "3308": "\u0932\u093e\u0908 \u0935\u093f\u0935\u093e\u0939",
    "3309": "\u0932\u0947 \u0918",
    "3310": "\u0936\u094d\u0928",
    "3311": " \u0906\u0917\u094b ",
    "3312": "\u0915\u094b \u092e\u0939\u0932",
    "3313": "\u0964\n\u0938\u092c\u0948",
    "3314": " \u0938\u093e\u0926\u094b\u0915",
    "3315": "\u0947\u0930\u093e \u092a\u093f\u0924\u093e",
    "3316": "\u094d\u0928\u0947 \u091b\u0928\u094d",
    "3317": "\u092e\u093e \u092a\u0930\u094d",
    "3318": "\u0964 \u0924\u0930 \u0924\u093f\u0928\u0940\u0939\u0930\u0942",
    "3319": " \u092e\u0939",
    "3320": " \u0924\u094d\u092f\u0938 \u0920\u093e\u0909\u0901",
    "3321": "\u091a\u0947\u0937\u094d\u091f",
    "3322": "\u0918\u091f\u0928\u093e ",
    "3323": "\u093f\u0930\u0939\u0947\u0915\u094b ",
    "3324": "\u0932\u0947 \u0938\u0941",
    "3325": "\u092b\u0942",
    "3326": "\u093e \u0917\u0930\u094d\u0928\u0941\u0939\u0941\u0928\u094d\u091b",
    "3327": "\u0915\u091f",
    "3328": "\u0964 \u092f\u0939\u0942\u0926\u093e",
    "3329": "\u092e\u093e \u0932\u094d\u092f\u093e\u090f",
    "3330": "\u0932\u094d\u092f\u093e\u090f",
    "3331": "\u092e\u0941\u0926\u094d\u0930",
    "3332": "\u0964 \u0909\u0928\u0940",
    "3333": " \u091c\u0928",
    "3334": "\u0938\u092e\u094d\u092e \u092e",
    "3335": "\u0941\u0935",
    "3336": "\u092c\u093e\u0924",
    "3337": "\u0947\u0928\u093e\u092a\u0924\u093f\u0939\u0930\u0942",
    "3338": "\u0905\u0928\u0941\u092e\u0924\u093f",
    "3339": "? \u0915\u093f\u0928",
    "3340": " \u0917\u0930\u094d\u0925\u0947",
    "3341": "\u0935\u093f\u0937",
    "3342": "\u0907\u092e\u093e\u0908",
    "3343": "\u0909\u0928\u0940",
    "3344": "\u0940 \u0925\u093f\u090f\u0964\n",
    "3345": " \u0916\u093e\u0926\u094d\u092f",
    "3346": "\u0930\u093e\u092e\u094b\u0924",
    "3347": " \u092e\u093f\u0936\u094d\u0930 \u0926\u0947\u0936",
    "3348": "\u0927\u093e\u0928\u0939\u0930\u0942",
    "3349": "\u0932\u093e\u0908 \u092f",
    "3350": "\u092a\u0930\u092e\u092a\u094d\u0930\u092d\u0941\u0915\u094b \u092e\u0928\u094d\u0926\u093f\u0930",
    "3351": "\u0938\u0928",
    "3352": " \u091b\u094b",
    "3353": " \u092d\u0928\u094d\u0928\u0941\u092d\u090f\u0915\u094b \u0925\u093f\u092f\u094b",
    "3354": "\u0947 \u091c\u0938",
    "3355": " \u0917\u0930\u0947 \u091c\u0938\u0932\u093e\u0908 \u092a\u0930\u092e\u092a\u094d\u0930\u092d\u0941",
    "3356": "\u093f\u0924 \u092d\u090f",
    "3357": "\u0930\u094d\u0935\u0936\u0915\u094d\u0924\u093f\u092e\u093e\u0928 \u092a\u0930\u092e\u0947\u0936\u094d\u0935\u0930",
    "3358": ", \u092f\u0938\u0930\u094d\u0925",
    "3359": "\u092c\u0941\u092c\u093e",
    "3360": "\u0937\u094d\u0920",
    "3361": "\u0915\u093e \u0906\u092b\u0928\u094d\u0924\u0939\u0930\u0942",
    "3362": "\u0932\u094d\u091b",
    "3363": " \u091a\u093f\u0939\u093e\u0928",
    "3364": "\u0926\u093f\u092f\u093e\u0939",
    "3365": "\u0905\u092c\u094d\u0930\u093e\u0939\u093e\u092e",
    "3366": "\u0924\u094d\u0938\u0935",
    "3367": "\u0928\u0928\u094d\u0924\u0938\u092e\u094d\u092e \u0930\u0939\u0928\u0947\u091b",
    "3368": " \u0906\u0909\u0901\u0926\u0948",
    "3369": "\u0932\u0947 \u092d\u0928\u094d\u092f\u094b, \u201c",
    "3370": " \u092d\u093e\u0917\u0947",
    "3371": " \u0935\u0930\u093f\u092a\u0930\u093f",
    "3372": "\u0948\u0928\u094d",
    "3373": "\u093e\u0901\u091d",
    "3374": "\u0932\u093e\u0908 \u092e\u093e\u0930\u094d\u0928",
    "3375": " \u0924\u0940 \u092a",
    "3376": "\u092e\u093e\u0925\u093f \u0936\u093e\u0938\u0928",
    "3377": " \u0917\u0930\u094d\u0928 \u091a\u093e\u0939",
    "3378": " \u092d\u0928",
    "3379": "\u0930\u093e\u0909\u0928",
    "3380": "\u0930\u0940\u092e",
    "3381": "\u0938\u092e\u094d\u091d",
    "3382": "\u0915\u093e \u0939\u0941\u0928\u094d",
    "3383": " \u0930\u093e\u091c\u093e \u0926\u093e\u090a\u0926",
    "3384": " \u092e\u0939\u0924\u094d\u0935\u092a\u0942\u0930\u094d\u0923",
    "3385": "\u092a\u0940\u092c\u094b\u0936\u0947\u0924",
    "3386": "\u0938\u094d\u0928",
    "3387": "\u0939\u0940\u0930\u093e\u092e",
    "3388": "\u094d\u0926\u0948",
    "3389": " \u092e\u0939\u0940\u0928\u093e ",
    "3390": " \u092c\u094b\u0915",
    "3391": " \u0926\u093f\u090f\u0915\u093e \u0925\u093f\u090f",
    "3392": " \u0906\u092b\u0948",
    "3393": ",\n\u201c",
    "3394": "\u0932\u093e\u0908 \u091a\u0941",
    "3395": "\u0928 \u0938\u0915\u094d\u091b\u094c",
    "3396": " \u0935\u093f\u0936\u0947\u0937",
    "3397": " \u0926\u093e\u0938",
    "3398": "\u0964 \u092f\u094b\u0930\u093e\u092e",
    "3399": "\u094b\u0906\u092c",
    "3400": " \u0925\u093f\u090f\u0964\n\u0905",
    "3401": "\u092e\u0947\u0932\u0947\u0915",
    "3402": "\u0928\u094b\u0915\u0930",
    "3403": "\u0932\u093e\u0908 \u092b",
    "3404": "\u0964\u201d \u092f\u0938\u0930\u094d\u0925",
    "3405": "\u092f\u094b\u091c\u0928\u093e ",
    "3406": ",000 \u092e\u093e\u0928\u093f\u0938\u0939\u0930\u0942",
    "3407": " \u0905\u0928\u093f \u0907\u0938\u094d\u0930\u093e\u090f\u0932",
    "3408": "\u093e \u0917\u0930\u0947\u0930",
    "3409": "\u0928\u0941 \u092d\u0928\u0947",
    "3410": " \u0906\u092b\u094d\u0928\u0948",
    "3411": " \u0906\u0908",
    "3412": "\u0932\u0947 \u0909\u0928\u0940\u0939\u0930\u0942",
    "3413": " \u0917\u0930\u093f\u0926\u093f\u090f",
    "3414": "\u0915\u094b \u0939\u0924\u094d\u092f",
    "3415": " \u0915\u0941\u0928\u0948 \u092a\u0928\u093f",
    "3416": " \u091c\u094d\u091e\u093e\u0928\u0940",
    "3417": "\u0964\n\u090f\u0915",
    "3418": "\u092e\u094d\u0915",
    "3419": " \u092a\u0943\u0925\u094d\u0935\u0940\u092e\u093e ",
    "3420": " \u091c\u0924\u093f",
    "3421": "\u092c\u0924",
    "3422": "\u0932\u0947 \u0939",
    "3423": "\u0939\u0940\u092e\u093e\u0938",
    "3424": "\u0937\u0921",
    "3425": "\u093e\u0930\u094d\u0925\u0928\u093e",
    "3426": "\u0909\u0928\u0947 ",
    "3427": ", \u092e\u093e",
    "3428": " \u0906\u0909\u0928\u0947 ",
    "3429": " \u0930 \u0928",
    "3430": " \u0906\u092e\u093e",
    "3431": "\u092e\u093e \u092c\u0938\u094d\u0925\u0947",
    "3432": " \u0926\u094d\u0935\u093e\u0930\u092a\u093e\u0932",
    "3433": "\u091a\u091f\u094d\u091f\u093e\u0928",
    "3434": " \u090f\u092a\u094d\u0930\u0948\u092e",
    "3435": "\u092c\u093e\u0926\u0932",
    "3436": "\u0943\u0922",
    "3437": "\u093e\u0909\u0928\u0941 \u092d\u092f\u094b ",
    "3438": "\u0915\u094b \u0917\u0941\u0923",
    "3439": "\u091c\u0941\u0928",
    "3440": "\u0936\u0930\u0940\u0930",
    "3441": " \u092c\u093f\u0928\u094d\u0924\u0940",
    "3442": "\u0928\u0941\u0939\u0941\u0928\u0947\u091b",
    "3443": "\u093f\u0924\u093e \u0926\u093e\u090a\u0926",
    "3444": "\u0926\u093e\u0938\u0939\u0930\u0942",
    "3445": " \u091f\u0941",
    "3446": " \u0916\u0941\u0936",
    "3447": "\u0939\u0930\u0942\u0915\u093e ",
    "3448": " \u0924\u093f\u0928\u0915\u093e ",
    "3449": "\u0915\u093e\u0901\u0938\u093e",
    "3450": "\u091f\u0915",
    "3451": "\u0964\n\u0930\u093e\u091c\u093e ",
    "3452": "\u0915\u093e \u0930\u093e\u091c\u093e \u092d\u090f",
    "3453": " \u092a\u0941\u0938\u094d\u0924\u0915\u092e\u093e \u0932\u0947\u0916\u093f\u090f",
    "3454": "\u0935\u093e\u0923",
    "3455": " \u092a\u0941\u0930\u0942\u0937",
    "3456": " \u0935\u0938\u094d\u0924\u0941\u0939\u0930\u0942",
    "3457": "\u0926\u0942",
    "3458": "\u093f\u092f\u094b\u0938\u094d",
    "3459": "\u0932\u0947 \u092a\u093e\u0928\u0940",
    "3460": " \u0906\u092b\u094d\u0928\u093e \u092a",
    "3461": " \u0927\u094d\u092f\u093e\u0928",
    "3462": "\u0939\u0947 \u092a\u0930\u092e\u0947\u0936\u094d\u0935\u0930",
    "3463": "\u0932\u0947 \u0906\u0915\u093e\u0936",
    "3464": " \u0935\u0930\u094d\u0937\u0915\u093e \u0925\u093f\u090f \u091c\u092c",
    "3465": " \u0924\u094d\u092f\u0938\u094d\u0924\u093e ",
    "3466": "\u0947\u0935\u0932",
    "3467": "\u0915\u094b \u0936\u093f\u0915\u094d\u0937",
    "3468": "\u0936\u0941\u0932\u094d\u0932",
    "3469": "\u0939\u094b\u092f\u093e\u0915\u0940\u092e",
    "3470": " \u092f\u0939\u0942\u0926\u0940\u0939\u0930\u0942",
    "3471": "\u0964 \u092f\u0942\u0938\u0941\u092b",
    "3472": "\u0932\u0947 \u0938\u094d\u0935\u092f\u0902",
    "3473": " \u092a\u094d\u0930\u092e\u0941\u0916\u0939\u0930\u0942",
    "3474": "\u0915\u093e \u091b\u094b\u0930\u093e\u0939\u0930\u0942 \u0905\u0928\u093f",
    "3475": " \u091a\u0941\u0928\u0947",
    "3476": "\u0939\u093e\u0938\u0942\u0930\u0938",
    "3477": " \u0928\u0926\u093f\u0928\u0941\u0939\u094b\u0938\u094d",
    "3478": " \u0924\u093f\u0928\u0940\u0939\u0930\u0941",
    "3479": " \u092e\u094b\u0930\u094d\u0926\u0915\u0948",
    "3480": " \u090f\u0938\u094d\u0924\u0930",
    "3481": "\u0964\n\u0926\u0941\u0937\u094d\u091f \u092e\u093e\u0928\u093f\u0938\u0939\u0930\u0942",
    "3482": "\u0926\u094d\u092d\u093f",
    "3483": "\u0932\u0947\u092c\u0940\u092f",
    "3484": "\u0932\u0947\u092c\u0940\u092f\u0925\u093e\u0928",
    "3485": "\u0915\u094b \u0938\u094d\u0928\u0947\u0939\u092a\u0942\u0930\u094d\u0923 \u0915\u0930\u0942\u0923\u093e \u0905\u0928\u0928\u094d\u0924\u0938\u092e\u094d\u092e \u0930\u0939\u0928\u0947\u091b",
    "3486": "\u093e\u0930\u093e\u0908",
    "3487": " \u0930\u093f\u092c",
    "3488": " \u0930\u093e\u0939\u0947\u0932",
    "3489": "\u0932\u0941\u0917\u093e\u0939\u0930\u0942",
    "3490": "\u0915\u094b \u0936\u093f\u0930",
    "3491": "\u0915\u094b \u091b\u094b\u0930\u093e",
    "3492": " \u0938\u093e\u0901\u091a\u094d\u091a\u0948",
    "3493": "\u0932\u0947 \u092d\u0928\u0947, \u201c\u092a\u0930\u092e\u092a\u094d\u0930\u092d\u0941",
    "3494": "\u0928\u0948\u092e",
    "3495": "\u0932\u0947 \u092f\u094b\u0906\u092c",
    "3496": " \u092e\u0930\u0942\u092d\u0942\u092e\u093f",
    "3497": "\u0932\u093e\u0908 \u0938\u0939\u093e\u092f\u0924",
    "3498": " \u0920\u0940\u0915",
    "3499": "\u0915\u094b \u092d\u090f",
    "3500": " \u092b\u0930\u094d\u0915\u0947",
    "3501": " \u0939\u0941\u0901\u0926\u0948",
    "3502": "\u093f\u0936\u094d",
    "3503": "\u0932\u093e\u0908 \u0906\u092b\u094d\u0928\u093e ",
    "3504": "\u0932\u093e\u0908 \u092f\u0938",
    "3505": "\u092c\u0947\u0930",
    "3506": "\u094b-",
    "3507": "\u092e\u093e\u0930\u094d",
    "3508": "\u091d\u0941\u0923\u094d\u0921",
    "3509": "\u0913\u092c\u0947\u0926",
    "3510": " \u091a\u0922\u093e\u090f",
    "3511": " \u0924\u094d\u092f\u0939\u0940 ",
    "3512": "\u0938\u093f\u0924\u0948",
    "3513": "\u093e \u0905\u0928\u0941\u0938\u093e\u0930",
    "3514": "\u092c\u0928\u093e\u0909\u0928\u0941 \u092d\u092f\u094b",
    "3515": " \u0938\u0924\u094d\u092f",
    "3516": "\u092f\u0940",
    "3517": "\u0915\u094b \u0930\u093e\u091c",
    "3518": "\u0942\u092b\u094d\u0930\u0947\u091f\u093f\u0938",
    "3519": "\u0922\u093e\u0932\u0939\u0930\u0942",
    "3520": "\u092e\u093e\u0928\u0939\u0930\u0942",
    "3521": "\u092c\u0928\u093e\u092f\u093e\u0939",
    "3522": ", \u0924\u093f\u0928",
    "3523": "\u0909\u0901\u0926\u0948",
    "3524": " \u0917\u0930\u094d\u092d",
    "3525": "\u0915\u093e \u0915\u0947\u0939\u0940",
    "3526": "\u092c\u0947\u0924",
    "3527": "\u092c\u093e\u091f \u092a",
    "3528": " \u091c\u094b\u0921",
    "3529": " \u0924\u094d\u092f\u0938\u094d\u0924\u0948",
    "3530": "\u0947\u0915\u0947\u0932",
    "3531": "50",
    "3532": " \u0930 \u0909\u0939\u093e\u0901",
    "3533": " \u0939\u094b \u091c\u0938",
    "3534": "\u0940 \u091a",
    "3535": "\u0964\n\u092f\u094b ",
    "3536": " \u0905\u0928\u094d\u092f \u092e\u093e\u0928\u093f\u0938\u0939\u0930\u0942",
    "3537": " \u0921\u0930\u093e\u0909",
    "3538": "\u0964 \u091c\u0938",
    "3539": "\u0924\u094d\u092f\u0939\u0940",
    "3540": "\u0915\u094d\u0930\u0940",
    "3541": "\u0947\u092c\u094d\u0930",
    "3542": "\u0915\u094b \u0936\u0930\u0940\u0930",
    "3543": "\u0938\u093f\u0924 \u0915\u0941\u0930",
    "3544": "\u092e\u093e\u0928\u0940",
    "3545": "\u092f\u0938\u094d\u0924\u094b ",
    "3546": "\u0915\u094b \u0930\u0915\u094d\u0937\u093e \u0917\u0930\u094d",
    "3547": "\u0915\u094b \u092a\u0930\u092e\u0947\u0936\u094d\u0935\u0930",
    "3548": " \u0905\u0928\u093f \u092f\u0939\u0942\u0926\u093e",
    "3549": " \u0932\u093f\u0928\u0941",
    "3550": " \u0905\u0928\u093f \u0906\u092b\u094d\u0928\u094b ",
    "3551": "\u0907\u0938\u094d",
    "3552": " \u0938\u0943\u0937\u094d\u091f\u093f",
    "3553": ", \u092e\u093e\u0928\u093f\u0938\u0939\u0930\u0942",
    "3554": "\u0932\u0947 \u0917\u0930\u0947\u0915\u093e \u0925\u093f\u090f",
    "3555": " \u0938\u0947\u0928\u093e\u092a\u0924\u093f",
    "3556": "\u0932\u093f\u0936\u094d\u0924\u0940 \u092e\u093e\u0928\u093f\u0938\u0939\u0930\u0942",
    "3557": "\u092c\u093e\u0928\u094b\u0928",
    "3558": "\u091c\u0928\u093e \u0917\u0930\u094d",
    "3559": " \u0917\u0930\u094d\u0926\u091b\u0941",
    "3560": "-\u092c\u0940\u091c\u0939\u0930\u0942",
    "3561": " \u0917\u0930\u094d\u0928\u0941\u0939\u0941\u0928\u0947\u091b",
    "3562": "\u0932\u093e\u0908 \u092a\u0935\u093f\u0924\u094d\u0930",
    "3563": "\u091c\u0930",
    "3564": "\u093e\u092f\u0903",
    "3565": "\u093e\u0930\u0940\u0939\u0930\u0942",
    "3566": " \u0922\u093e\u0932",
    "3567": "\u092e\u093e \u0936\u093e\u0938\u0928",
    "3568": "\u0932\u093e\u0908 \u0909\u0924\u094d\u0924\u0930",
    "3569": "\u092f\u093e\u0915\u0942\u092c",
    "3570": "\u0915\u093e\u092f\u093e",
    "3571": " \u0939\u0947\u0930\u091a\u093e\u0939",
    "3572": "\u093f\u0936\u094d\u0930\u093e\u092e",
    "3573": "\u0935\u093f\u0936\u094d\u0930\u093e\u092e",
    "3574": " \u0927\u0928",
    "3575": "\u0921\u093e\u0930",
    "3576": " \u092f\u094b\u0936\u093f\u092f\u093e\u0939",
    "3577": " \u0924\u0941\u0932\u094d\u092f\u093e\u090f",
    "3578": " \u0928\u093e\u0936",
    "3579": "\u0926\u093e\u092f\u093e\u0939",
    "3580": "\u0915\u093e \u092a\u093f\u0924\u093e \u0925\u093f\u090f\u0964\n",
    "3581": " \u0924\u093f\u0928\u0940\u0939\u0930\u0942\u0915\u093e ",
    "3582": "\u0930\u094d\u092e\u0924 \u0917\u0930\u0947",
    "3583": "\u0940\u0924\u0939\u0930\u0942",
    "3584": " \u0906\u092b\u0928\u094d\u0924\u0939\u0930\u0942\u092c\u093e\u091f",
    "3585": " \u0906\u092b\u0928\u094d\u0924\u0939\u0930\u0942\u092c\u093e\u091f \u092c\u093e\u0939\u094d\u0930",
    "3586": "\u092a\u0930\u092e\u0947\u0936\u094d\u0935\u0930\u0915\u094b \u092e\u0928\u094d\u0926\u093f\u0930",
    "3587": " \u0915\u0943",
    "3588": "\u092c \u092e\u093e\u0928\u093f\u0938\u0939\u0930\u0942",
    "3589": "\u090f\u0938\u094d\u0924\u0930",
    "3590": "\u092d\u0915\u094d\u0924\u091c\u0928\u0939\u0930\u0942",
    "3591": "\u091b\u094b\u0930\u094b \u091c\u0928\u094d\u092e",
    "3592": " \u0932\u0942\u0924",
    "3593": "\u0930\u093f\u092c",
    "3594": "\u0928\u094d\u092f\u094c",
    "3595": " \u0918\u0941",
    "3596": "\u0932\u093e\u0908 \u092c\u094b\u0932\u093e\u090f",
    "3597": "\u0940 \u091b\u0941",
    "3598": " \u0928\u0917\u0930",
    "3599": "\u0948 \u0915\u093e\u0930\u0923",
    "3600": "\u092d\u093f\u0937",
    "3601": "\u0917\u093f",
    "3602": "\u091c\u0940",
    "3603": " \u0938\u094b\u0927",
    "3604": "\u0964\u201d \u0924\u0930",
    "3605": " \u0917\u090f\u0930",
    "3606": "\u0932\u0947 \u0907\u0938\u094d\u0930\u093e\u090f\u0932\u0940\u0939\u0930\u0942",
    "3607": "\u0964 \u0909",
    "3608": "\u0915\u092e",
    "3609": " \u091c\u0928\u093e \u091b\u094b\u0930\u093e\u0939\u0930\u0942",
    "3610": "\u0915\u093e\u0928\u094d\u091b",
    "3611": "\u094c\u0924",
    "3612": "\u0928\u093f\u0930\u094d\u0926\u094b\u0937",
    "3613": "\u0940 \u091b\u0928\u094d",
    "3614": "\u0928\u0941 \u092a\u0930\u094d\u0928\u0947\u091b",
    "3615": " \u091c\u093e\u0901",
    "3616": "\u0930\u093e\u0927",
    "3617": "\u093f\u0930\u0939\u0947\u0915\u093e \u0925\u093f\u090f",
    "3618": "\u0932\u093e\u0908 \u0924\u093f\u0928",
    "3619": "\u092a\u0947",
    "3620": " \u091a\u093e",
    "3621": "\u0915\u094b \u092c\u093f",
    "3622": "\u0935\u093f\u091a\u093e\u0930",
    "3623": "\u092f\u0938\u0915\u093e\u0930\u0923",
    "3624": "\u0915\u094b \u0930\u0942\u0916",
    "3625": "\u0907\u0938\u094d\u0930\u093e\u090f\u0932\u0940\u0939\u0930\u0942",
    "3626": "\u091b\u0948\u0928\u094c",
    "3627": "\u0964 \u0924\u093f\u0928\u0940 ",
    "3628": "\u0932\u093e\u0908 \u092e\u093f\u0936\u094d\u0930",
    "3629": "\u093e \u0917\u094b",
    "3630": "\u093f\u0928\u094d\u091b",
    "3631": "\u0926\u093e \u0938\u0930\u094d\u0935\u0926\u093e ",
    "3632": "\u0932\u0947 \u092a\u093e\u092a",
    "3633": "\u0964 \u0924\u093f\u092e\u094d\u0930\u094b ",
    "3634": "\u0915\u094b \u0906\u092b\u094d\u0928\u0948",
    "3635": " \u0928\u093f\u092f\u092e",
    "3636": "\u0928\u094d\u0924\u094d\u0930\u0923",
    "3637": " \u0915\u094d\u0937\u0947\u0924\u094d\u0930",
    "3638": "\u0936\u093f\u0930",
    "3639": " \u0905\u0928\u093f \u0928",
    "3640": "\u0938\u094d\u0924\u094d\u0930\u0940",
    "3641": "\u0915\u094d\u0932\u094b ",
    "3642": " \u0917\u0930\u094d\u091b\u094c",
    "3643": " \u0932\u0941\u0917",
    "3644": " \u0924\u093e",
    "3645": "\u0932\u0947 \u092c\u0928\u093e\u090f",
    "3646": " \u091c\u0938\u094d\u0924\u0948\u0902",
    "3647": "\u0932\u093e\u0908 \u0906\u0926\u0947\u0936",
    "3648": "\u0939\u0928",
    "3649": " \u092d\u093e\u0907",
    "3650": " \u091c\u092e\u094d\u092e\u093e ",
    "3651": "\u092f\u093e\u0938",
    "3652": "\u0948\u0928\u0928\u094d",
    "3653": "\u0932\u093e\u0908 \u0909\u0939\u093e\u0901",
    "3654": " \u0916\u094b\u091c\u094d",
    "3655": "\u091b\u093e",
    "3656": "12",
    "3657": " \u0928\u092a",
    "3658": "\u0915\u094b \u0932\u093e\u0936",
    "3659": "\u0947 \u091c\u0924\u093f",
    "3660": "\u0915\u094b \u0938\u094d\u0925\u093e\u0928",
    "3661": " \u0930 \u0924\u092a\u093e\u0908\u0902",
    "3662": " \u0935\u0930\u094d\u0937 \u092a\u0941\u0917",
    "3663": " \u0917\u0930\u093f\u090f",
    "3664": "\u0915\u094b \u092a\u093e\u092a",
    "3665": " \u0938\u0915\u094d\u091b\u094c",
    "3666": "\u0932\u0947 \u092e\u0932\u093e\u0908 \u092c\u091a",
    "3667": "\u0917\u0930\u094d\u0926",
    "3668": "\u092e\u093e \u092f\u0941\u0926\u094d\u0927",
    "3669": "\u092e\u093e \u0918",
    "3670": " \u0915\u0947\u0939\u0940 \u092a\u0928\u093f",
    "3671": "\u092d\u0947\u0921",
    "3672": "\u092e\u093e \u0938\u0947\u0935",
    "3673": "\u0920\u093e\u0909\u0901\u0939\u0930\u0942",
    "3674": " \u0917\u0930\u094d\u0928 \u0938\u0915",
    "3675": " \u0938\u092e\u094d\u092e\u093e\u0928",
    "3676": " \u0905\u0928\u093f \u092a\u0930\u092e\u092a\u094d\u0930\u092d\u0941",
    "3677": " \u0915\u0941\u0928\u0948 \u092e\u093e\u0928\u093f\u0938",
    "3678": ", \u0924\u094d\u092f\u094b ",
    "3679": " \u0917\u0930\u094d\u0926\u0925\u0947",
    "3680": "\u0932\u093e\u0908 \u092d\u0928\u094d\u0928\u0941\u092d\u092f\u094b",
    "3681": "\u0942\u0930\u094d\u0924\u093f",
    "3682": "\u092e\u094d\u092c\u093e",
    "3683": "\u0922\u094b\u0915\u093e\u0939\u0930\u0942",
    "3684": ", \u0939\u0947 ",
    "3685": "\u0930\u094d\u0935\u094b\u091a\u094d\u091a",
    "3686": "\u0938\u094d\u0935\u0930\u094d\u0917",
    "3687": " \u0924\u094d\u092f\u0924\u093f",
    "3688": "\u092e\u093e \u092a\u094d\u0930\u092f\u094b\u0917",
    "3689": "\u092e\u093e\u0915\u094b \u0928\u093e\u0909\u0901",
    "3690": " \u092e\u0942\u0930\u094d\u0924\u093f\u0939\u0930\u0942",
    "3691": "\u0930\u093e\u091c\u093e \u0906\u0939\u093e\u092c",
    "3692": "\u093e\u0937",
    "3693": "\u092e\u093e\u0925\u093f \u0906\u0915\u094d\u0930\u092e\u0923",
    "3694": "\u0939\u0941\u0928\u094d\u091b\u0928\u094d",
    "3695": "\u0915\u093e \u091b\u094c\u0902",
    "3696": " \u0935\u093f\u0936\u094d\u0930\u093e\u092e",
    "3697": " \u0928\u093e\u092e\u093e\u0928",
    "3698": " \u0939\u094b\u0938",
    "3699": "\u0939\u0930\u0942 \u0905\u0928\u093f",
    "3700": "\u0917\u094d\u0930",
    "3701": "\u094b\u0936\u093e\u0915",
    "3702": "\u093e\u092a\u093e\u0928",
    "3703": " \u092e\u0928\u0936\u094d\u0936\u0947",
    "3704": "\u093f\u092f\u093e\u0939\u0930\u0942",
    "3705": "\u093f\u0928\u093e ",
    "3706": "\u0939\u094b\u092f\u093e\u0915\u0940\u0928",
    "3707": " \u0915\u093f\u0928\u092d\u0928\u0947 \u0924\u093f\u0928\u0940\u0939\u0930\u0942",
    "3708": " \u0917\u093e\u0908",
    "3709": "\u0928\u094d\u092f \u092e\u093e\u0928\u093f\u0938\u0939\u0930\u0942",
    "3710": " \u0909\u091c\u094d\u091c\u093f\u092f\u093e\u0939",
    "3711": "\u0928\u0940\u092f",
    "3712": " \u0938\u092b\u0932",
    "3713": "\u0947\u0936\u0942\u0905",
    "3714": " \u0906\u092b\u0928\u094d\u0924\u0939\u0930\u0942\u092c\u093e\u091f \u092c\u093e\u0939\u094d\u0930 \u091c\u0928\u093e \u0935\u094d\u092f\u0915\u094d\u0924\u093f\u0939\u0930\u0942",
    "3715": " \u0906\u092b\u0928\u094d\u0924\u0939\u0930\u0942\u092c\u093e\u091f \u092c\u093e\u0939\u094d\u0930 \u091c\u0928\u093e \u0935\u094d\u092f\u0915\u094d\u0924\u093f\u0939\u0930\u0942 \u091a\u0941\u0928\u093f\u090f",
    "3716": "\u0932\u0947 \u0905\u092c\u094d\u0930\u093e\u092e",
    "3717": "\u0943\u0925\u094d\u0935",
    "3718": "\u0927\u0930\u094d\u092e\u0940 \u092e\u093e\u0928\u093f\u0938\u0939\u0930\u0942",
    "3719": "\u092f\u0942\u0938\u0941\u092b",
    "3720": "\u0947\u0915\u094b \u0925\u093f\u092f\u094b",
    "3721": "\u0926\u0947\u0916\u0947\u0902",
    "3722": ", \u2018\u092e",
    "3723": "\u0915\u093e \u092e\u093e\u0928\u093f\u0938",
    "3724": "\u0922\u093e\u0932",
    "3725": "\u0915\u094b \u0927",
    "3726": " \u0924\u093f\u0928\u0940\u0939\u0930\u0942\u0932\u093e\u0908 ",
    "3727": "\u0915\u094b \u0928\u093e",
    "3728": "\u092d\u093f\u0937\u0947\u0915",
    "3729": "\u092c\u0947\u0936",
    "3730": "\u0915\u093e \u092a\u0930\u093f\u0935\u093e\u0930 \u0938\u092e\u0942\u0939",
    "3731": "\u093f\u092f\u094c",
    "3732": "\u092a\u091f\u094d\u091f",
    "3733": "\u0940 \u092b",
    "3734": " \u092d\u0947\u0932",
    "3735": " \u0925\u093e\u0939",
    "3736": "\u0915\u093e \u091b",
    "3737": "\u0932\u0947 \u091c\u0935\u093e\u092b \u0926\u093f\u090f, \u201c",
    "3738": " \u0930\u0942",
    "3739": " \u091c\u093e\u0928\u0941",
    "3740": "\u0915\u094b \u0939\u0941",
    "3741": " \u0906\u090f\u0930",
    "3742": " \u0926\u0942\u0924\u0939\u0930\u0942",
    "3743": " \u092c\u093e\u0901\u0927",
    "3744": "\u0932\u0947 \u0938\u092e\u094d\u092e",
    "3745": "\u0964 \u092a\u0930\u092e\u092a\u094d\u0930\u092d\u0941\u0932\u0947 ",
    "3746": "\u0932\u0947 \u0938\u094b\u091a",
    "3747": "\u0932\u093e\u0908 \u092f\u0941\u0926\u094d\u0927",
    "3748": "\u0915\u094b \u092a\u0930\u094d\u0916\u093e\u0932",
    "3749": "\u091a\u093e\u0901\u0921",
    "3750": "\u0964\n\u0924\u0930 \u092a\u0930\u092e\u092a\u094d\u0930\u092d\u0941",
    "3751": "\u092e\u093e \u0930\u093e\u0916\u0947",
    "3752": " \u0917\u0930\u093f\u0930\u0939",
    "3753": "\u093e\u0924\u093e\u0928",
    "3754": " \u0917\u0930\u094d\u0928\u0947\u091b",
    "3755": " \u0939\u0941\u0928\u0941\u0939\u0941\u0928\u094d\u091b\u0964 \u0924\u092a\u093e\u0908\u0902",
    "3756": "\u0932\u093e\u0908 \u092a\u0930\u093e\u091c\u093f\u0924",
    "3757": "\u0937\u094d\u092a\u0915\u094d\u0937",
    "3758": "\u0932\u0947 \u0938\u094b\u0927",
    "3759": "\u0932\u0947 \u092b\u0947\u0930\u093f",
    "3760": "\u0915\u093e \u0930\u093e\u091c",
    "3761": "\u0939\u093e\u0932",
    "3762": " \u092d\u094b",
    "3763": "\u0964\u201d\n\u091c\u092c",
    "3764": "\u0940 \u0906\u0907\u092e\u093e\u0908",
    "3765": "\u0915\u094b \u092a\u0928\u093f",
    "3766": "\u0932\u093e\u0917\u094d\u0926\u094b ",
    "3767": "\u092a\u094d\u0930\u0915\u093e\u0930",
    "3768": " \u092c\u0938\u094d\u0928",
    "3769": "\u0938\u0928\u094d\u0926\u0947\u0936",
    "3770": "\u0930\u093e\u092e\u094d\u0930",
    "3771": "\u0964\n\u0909\u0928",
    "3772": "\u0928\u0947\u0915",
    "3773": "\u092a\u093e\u0939\u0940\u0939\u0930\u0942",
    "3774": "\u0930\u0915\u094d\u0937\u0915",
    "3775": "\u0924\u094d\u0924\u0940",
    "3776": "\u0964 \u092a\u0930\u092e\u0947\u0936\u094d\u0935\u0930\u0932\u0947 ",
    "3777": "\u094c\u0932",
    "3778": " \u0915\u094b\u0939\u0940 \u092a\u0928\u093f",
    "3779": "\u0935\u094d\u092f\u0935\u0939\u093e\u0930",
    "3780": "\u0915\u094b \u092a\u094d\u0930\u0924\u093f",
    "3781": "\u0939\u0940\u0924\u094b\u092a",
    "3782": "\u0964\n\u0924\u094d\u092f\u0939\u093e\u0901",
    "3783": " \u0925\u093e\u0932\u094d\u092f\u094b",
    "3784": "\u0928\u0947\u091b\u0941\u0964 \u092e",
    "3785": "\u093e\u0909\u0901\u091b\u0941",
    "3786": "\u092c\u094b\u0932\u094d",
    "3787": " \u0938\u092e\u093e",
    "3788": "\u0915\u0940 \u091b\u094b\u0930\u0940 \u0925\u093f\u0907\u0928\u094d",
    "3789": " \u091c\u092e\u0940\u0928",
    "3790": "\u092d\u090f\u0930",
    "3791": "\u094d\u0928\u0947 \u091b\u0941",
    "3792": " \u0928\u0938",
    "3793": " \u0925\u093f\u090f\u0964 \u0936",
    "3794": " \u0915\u0947 \u0917\u0930\u094d",
    "3795": "\u0926\u0940 ",
    "3796": "\u0921\u094d\u0921",
    "3797": "\u0964\n\u092e\u0947\u0930\u093e \u0936\u0924\u094d\u0930\u0941\u0939\u0930\u0942",
    "3798": "!\n\u092a\u0930\u092e\u092a\u094d\u0930\u092d\u0941",
    "3799": "\u0927\u094d\u092f\u093e\u0930",
    "3800": " \u092d\u0928\u094d\u0926\u093e \u0905",
    "3801": "\u0942\u0932\u094b ",
    "3802": "\u0964\n\u092f\u0940",
    "3803": "\u0964\u201d\n\u092a\u0930\u092e\u0947\u0936\u094d\u0935\u0930",
    "3804": "\u0926\u093f\u0928\u0941 \u0939\u0941\u0928\u094d\u091b",
    "3805": "\u0915\u094b \u092a\u093e\u0928\u0940",
    "3806": "\u0938\u093f\u0926\u094d\u0927",
    "3807": "\u0942\u0928\u094d",
    "3808": " \u092c\u0947\u0932\u093e",
    "3809": "\u093f\u0928\u0947\u091b",
    "3810": ", \u0926",
    "3811": "\u0948\u0938\u093e ",
    "3812": "\u0939\u094b\u092e\u092c\u0932\u093f",
    "3813": " \u092d\u0928\u0940 ",
    "3814": " \u0928\u093f\u0939\u0941",
    "3815": "\u0932\u093f\u090f",
    "3816": "\u0928\u0941\u092d\u092f\u094b \u0905\u0928\u093f",
    "3817": " \u092f\u0939\u094b\u092f\u093e\u0926\u093e",
    "3818": " \u0905\u0928\u093f \u092f\u094b ",
    "3819": "\u092e\u093e \u092c\u0938\u094d\u0928",
    "3820": "\u093e\u0901\u0909",
    "3821": " \u0932\u093f",
    "3822": " \u0905\u0928\u093f \u090f",
    "3823": "\u0964 \u092f\u0940",
    "3824": "\u0903\n\u201c",
    "3825": "\u092e\u0939\u0940\u0928\u093e",
    "3826": "\u0915\u093e\u0939\u0930\u0942",
    "3827": " \u092c\u0928\u093e\u090f\u0915\u093e \u0925\u093f\u090f",
    "3828": " \u0915\u093e\u0901\u0938\u093e",
    "3829": " \u0939\u0941\u0928 \u0938\u0915\u094d\u091b",
    "3830": " \u0939\u093e\u092e\u094d\u0930\u093e \u092a",
    "3831": "\u0964\n\u0936",
    "3832": "\u0915\u094b \u091c\u093f\u092e\u094d\u092e\u093e",
    "3833": " \u092f\u093e\u0930\u094b\u092c\u093e\u092e",
    "3834": "\u0924\u0940 \u092e\u093e\u0928\u093f\u0938\u0939\u0930\u0942",
    "3835": "\u0915\u094b \u091c\u0928",
    "3836": "\u0932\u093e\u0908 \u092a\u093e\u092a",
    "3837": "\u0915\u094b \u0936\u093e\u0938\u0928\u0915\u093e\u0932",
    "3838": "\u093e\u0901\u0921\u093e\u0939\u0930\u0942",
    "3839": " \u092a\u094d\u0930\u092e\u093e\u0923",
    "3840": "\u0932\u093e\u0908 \u092c\u093e\u0901\u091a",
    "3841": " \u091a\u093f\u091a\u094d\u092f",
    "3842": "\u091a\u093e\u0938",
    "3843": " \u0924\u093e\u0915\u093f",
    "3844": "\u093f\u092e\u0947\u0915",
    "3845": " \u0939\u094b\u090a",
    "3846": "\u0930\u094d\u0915\u093e\u0907",
    "3847": "\u092f\u094b\u0924\u093e\u092e",
    "3848": "\u0936\u094d\u0936\u0942\u0930\u0915\u093e \u0930\u093e\u091c\u093e ",
    "3849": " \u0939\u093f\u0932\u094d\u0915\u093f\u092f\u093e\u0939",
    "3850": " \u092e\u092e\u093e\u0925\u093f",
    "3851": "\u0939\u0943\u0926\u092f",
    "3852": "\u0915\u094b \u0938\u0942\u091a\u0940",
    "3853": "\u0917\u0941\u0935\u093e\u0907",
    "3854": "\u092e\u093e \u092d\u0930\u094b\u0938",
    "3855": "\u0915\u093e \u091b\u094b\u0930\u093e\u0939\u0930\u0942\u0903",
    "3856": "\u0930\u0940\u0915\u094d\u0937",
    "3857": "\u0915\u093e \u091b\u094b\u0930\u093e\u0939\u0930\u0942 \u0905\u0928\u093f \u0906\u092b\u0928\u094d\u0924\u0939\u0930\u0942\u092c\u093e\u091f \u092c\u093e\u0939\u094d\u0930 \u091c\u0928\u093e \u0935\u094d\u092f\u0915\u094d\u0924\u093f\u0939\u0930\u0942 \u091a\u0941\u0928\u093f\u090f",
    "3858": "\u0932\u0947 \u0906\u092b\u094d\u0928\u0948",
    "3859": " \u0909\u0920\u094d",
    "3860": "\u0932\u093e\u0908 \u0938\u093e\u0925",
    "3861": "\u0964 \u0905\u092f\u094d\u092f\u0942\u092c",
    "3862": " \u0917\u0930\u094d\u0926\u091b",
    "3863": "\u093e\u0938\u094b",
    "3864": " \u0926\u0941\u0937\u094d\u091f \u092e\u093e\u0928\u093f\u0938",
    "3865": "\u0939\u093e\u0917\u093e\u0930",
    "3866": "\u0932\u093e\u0908 \u0938\u094b\u0927\u0947, \u201c",
    "3867": " \u0930\u094b\u090f",
    "3868": "\u092d\u0928",
    "3869": "\u093e\u0909\u0928\u0947 \u091b\u0928\u094d",
    "3870": "\u0915\u093e\u091f",
    "3871": " \u0917\u0939\u093f\u0930",
    "3872": "\u0930\u0942\u092f\u093e\u0939",
    "3873": " \u0915\u0939\u093e\u0901 \u0906\u090f",
    "3874": "\u0915\u093e \u092a\u0930\u093f\u0935\u093e\u0930\u0939\u0930\u0942",
    "3875": "\u0927\u0941",
    "3876": "\u0926\u0948\u0928\u094c",
    "3877": " \u0932\u094d\u092f\u093e\u0909",
    "3878": " \u0925\u093f\u090f\u0928\u0928\u094d",
    "3879": " \u0926\u093f\u090a\u0928\u094d",
    "3880": "\u092a\u0941\u0917",
    "3881": "\u092f\u0939\u093e\u0901",
    "3882": "\u0915\u093e \u092d\u093e\u0907",
    "3883": "\u0906\u0926\u0947\u0936 \u0926\u093f\u090f",
    "3884": "\u092d\u093f\u0924\u094d\u0930 \u092a",
    "3885": "\u092a\u093e\u0928\u0940",
    "3886": "\u0932\u094d\u092f\u093e",
    "3887": " \u0938\u0941\u0928\u093f",
    "3888": "\u0964\u201d\n\u092a\u0930\u092e\u092a\u094d\u0930\u092d\u0941",
    "3889": "\u0932\u093e\u0908 \u092f\u0930\u0942\u0936\u0932\u0947\u092e",
    "3890": "\u0903 \u2018",
    "3891": "\u093f\u092e\u094d\u0930",
    "3892": "\u0909\u091a\u094d\u091a",
    "3893": "\u0924\u0928\u094d\u0924\u094d\u0930",
    "3894": " \u0906\u092b\u094d\u0928\u093e \u092e\u093e\u0928\u093f\u0938\u0939\u0930\u0942",
    "3895": "\u0932\u0947 \u0907\u0938\u094d\u0930\u093e\u090f\u0932\u0915\u093e \u092e\u093e\u0928\u093f\u0938\u0939\u0930\u0942",
    "3896": "\u0932\u0947 \u092e\u0947\u0930\u094b \u0928\u093f\u092e\u094d\u0924\u093f",
    "3897": " \u092e\u093e\u0928\u094d",
    "3898": "\u0915\u093e \u0938\u0947\u0935\u0915",
    "3899": " \u0938\u094b",
    "3900": "\u0930\u093e\u092f\u093e\u0939",
    "3901": "\u0936\u0915\u094d\u0924\u093f\u0936\u093e\u0932\u0940",
    "3902": "\u0932\u093e\u0908 \u0928\u0948",
    "3903": "\u0932\u0947 \u0936\u0939\u0930",
    "3904": "\u092a\u092f",
    "3905": "\u090f\u0915\u091c\u0928\u093e \u092e\u093e\u0928\u093f\u0938",
    "3906": "\u092e\u093e \u0935\u093f",
    "3907": " \u0939\u094b\u0936",
    "3908": "\u0932\u093e\u0908 \u091a\u094b\u091f",
    "3909": " \u0915\u092e\u091c\u094b\u0930",
    "3910": "\u094b\u0932\u093e",
    "3911": "\u0915\u093e \u091b\u094b\u0930\u093e \u0925\u093f\u090f\u0964",
    "3912": "\u0915\u094b \u0938\u092e\u0942\u0939",
    "3913": "\u092c\u093e\u0930\u0947",
    "3914": "\u0918\u093e\u0924",
    "3915": "\u0932\u0947 \u092e\u0932\u093e\u0908 \u092e",
    "3916": "\u0927\u093e\u0930",
    "3917": "! \u0909\u0939\u093e\u0901",
    "3918": "\u094d\u0928 \u0938\u0915",
    "3919": " \u0905\u0928\u093f \u092e\u0947\u0930\u094b ",
    "3920": "\u0932\u093e\u0908 \u092a\u0930\u092e\u0947\u0936\u094d\u0935\u0930",
    "3921": "\u0930\u094b ",
    "3922": " \u0935\u0930\u094d\u0937 \u0938\u092e\u094d\u092e",
    "3923": " 7",
    "3924": " \u092d\u0947\u091f \u0917\u0930\u094d\u0928",
    "3925": "\u0935\u091a\u0928 \u0926\u093f\u090f",
    "3926": "\u092f\u093f\u0928",
    "3927": "\u0932\u093e\u0908 \u092c\u093e",
    "3928": "\u0932\u093e\u0908 \u0938\u0918",
    "3929": " \u0926\u093f\u0928\u0941\u092d",
    "3930": "\u0927\u094d\u092f\u0915\u094d\u0937",
    "3931": "\u0938\u092e\u0941\u0926\u094d\u0930",
    "3932": "\u093f\u0902\u091c",
    "3933": " \u0905\u0902",
    "3934": " \u092c\u0938\u094d\u0928\u0947 ",
    "3935": "\u0936\u093e\u0938\u0915\u0939\u0930\u0942",
    "3936": "\u0926\u094d\u0930\u093e",
    "3937": " \u0905\u0928\u093f \u0924",
    "3938": " \u0928\u093f\u0930\u094d\u092e\u093e\u0923 \u0917\u0930\u094d\u0928",
    "3939": " \u0917\u0930\u0942\u0928\u094d",
    "3940": " \u092e\u0948\u0932\u0947 \u0924\u092a\u093e\u0908\u0902",
    "3941": " \u092a\u0941",
    "3942": "\u0932\u0947 \u0905\u0930\u0942",
    "3943": "\u0915\u093e \u092a\u093f\u0924\u093e-\u092a\u0941\u0930\u094d\u0916\u093e\u0939\u0930\u0942",
    "3944": " \u0936\u093f",
    "3945": "\u0915\u093e \u0905\u0917\u092e\u0935\u0915\u094d\u0924\u093e\u0939\u0930\u0942",
    "3946": " \u0924\u093f\u0928\u0940\u0939\u0930\u0942\u0932\u093e\u0908",
    "3947": "\u0932\u0947 \u0906\u0939\u093e\u092c",
    "3948": " \u090f\u0932\u0940\u0936\u093e ",
    "3949": " \u0917\u0930\u094c\u0902",
    "3950": "\u0964 \u090f\u0915",
    "3951": "\u092e\u093e \u0925\u093f\u092f\u094b",
    "3952": "\u092f\u0939\u094b\u0936\u093e\u092a\u093e\u0924",
    "3953": "\u0964\n\u092f\u0939\u094b\u0936\u093e\u092a\u093e\u0924",
    "3954": "\u0947\u0924\u093f\u0930",
    "3955": "\u0915\u094b \u092a\u0939\u093f\u0932\u094b ",
    "3956": " \u092c\u093e\u0901\u091a\u094d",
    "3957": "\u0924\u0932\u094d\u092f\u093e\u0939",
    "3958": "\u0915\u093e \u0909\u092a",
    "3959": "\u091c\u094d\u092f\u093e\u0932",
    "3960": "\u091c\u093e\u092c\u093e\u0926",
    "3961": "\u0926\u0947\u0916\u094d",
    "3962": "\u0902\u0917\u094d\u0930\u0939",
    "3963": " \u0917\u0930\u094d\u0928\u0947\u0939\u0930\u0942",
    "3964": "\u0964\n\u092e\u0928\u0936\u094d\u0936\u0947",
    "3965": "\u0964 \u092f\u094b\u0936\u093f\u092f\u093e\u0939",
    "3966": "\u0936\u0941\u0932\u094d\u0932\u093e\u092e",
    "3967": "\u092a\u0943\u0925\u094d\u0935\u0940",
    "3968": " \u0905\u0928\u093f \u092c",
    "3969": " \u092a\u094d\u0930\u0936\u0938\u094d\u0924",
    "3970": "\u0915\u0930\u094d\u0924\u094d\u0924",
    "3971": "\u093e \u0917\u0930\u094d\u091b",
    "3972": "\u093e\u0930\u0938",
    "3973": "\u0905\u0939\u093e\u0938\u0942\u0930\u0938",
    "3974": "\u0932\u0947 \u0905\u092f\u094d\u092f\u0942\u092c",
    "3975": " \u0905\u0938\u0939\u093e\u092f",
    "3976": "\u0964 \u0909\u0939\u093e\u0901\u0915\u094b \u0938\u094d\u0928\u0947\u0939\u092a\u0942\u0930\u094d\u0923 \u0915\u0930\u0942\u0923\u093e \u0905\u0928\u0928\u094d\u0924\u0938\u092e\u094d\u092e \u0930\u0939\u0928\u0947\u091b",
    "3977": " \u0938\u0948\u0928\u093f\u0915",
    "3978": "\u0932\u093e\u0908 \u0938\u092e\u094d\u092e\u093e\u0928",
    "3979": "\u0932\u0947 \u0930\u094b",
    "3980": "\u0932\u0947 \u092d\u0928\u094d\u092f\u094b",
    "3981": "\u092e\u093e \u092a\u0930\u0947",
    "3982": " \u0932\u093e\u0917\u0947",
    "3983": " \u092c\u0928\u094d",
    "3984": " \u0905\u0938\u093e\u0939\u0947\u0932",
    "3985": "\u0932\u093e\u0908 \u091c\u093f\u0924",
    "3986": " \u092c\u093e\u0939\u0947\u0915",
    "3987": " \u0924\u093f\u092e\u0940\u0932\u0947 ",
    "3988": "\u094d\u092f\u094b \u0905\u0928\u093f",
    "3989": "\u0938\u093f\u0924 \u092f\u0941\u0926\u094d\u0927",
    "3990": "\u094d\u0926\u093e ",
    "3991": " \u0932\u093e\u092e\u094b ",
    "3992": "\u0915\u093e \u0936",
    "3993": "\u0909\u0920",
    "3994": "\u0937\u092f",
    "3995": "\u092e\u094d\u092e\u093e \u0917",
    "3996": "\u0915\u093e \u0938\u092e\u094d\u092a\u0942\u0930\u094d\u0923",
    "3997": " \u0930 \u092e\u0947\u0930\u094b ",
    "3998": " \u0915\u0920\u093f\u0928",
    "3999": "\u093e \u0917\u0930\u0947\u0915\u093e \u0925\u093f\u090f"
  }
}